<unk>	0
<s>	0
</s>	0
.	-3.55701
▁	-3.67319
,	-3.78521
▁(	-4.58017
'	-4.71286
।	-4.77397
)	-4.8028
▁ve	-4.923
▁के	-4.98076
▁في	-5.13612
▁है	-5.19061
▁-	-5.22294
▁में	-5.23139
،	-5.26426
▁bir	-5.51641
ة	-5.52409
-	-5.54389
▁ال	-5.60694
:	-5.64703
▁का	-5.65422
▁من	-5.66154
ी	-5.7198
▁و	-5.75732
e	-5.77766
n	-5.79407
▁की	-5.81462
a	-5.87395
i	-5.87828
▁और	-6.02018
d	-6.06418
▁से	-6.06563
ा	-6.12163
ات	-6.15028
lar	-6.15891
े	-6.18381
nin	-6.19596
de	-6.20571
ö	-6.25372
da	-6.27018
in	-6.30447
k	-6.3105
▁एक	-6.3269
▁olarak	-6.33397
s	-6.34686
▁को	-6.35997
ler	-6.40401
▁ب	-6.41104
ي	-6.43496
ों	-6.45584
ية	-6.4657
nın	-6.4683
▁ile	-6.47854
▁على	-6.4855
▁हैं	-6.49503
ه	-6.49963
ا	-6.53811
ت	-6.57498
▁ت	-6.60585
"	-6.62901
ها	-6.63211
▁"	-6.65229
▁भी	-6.67432
▁da	-6.67587
ं	-6.69229
▁ل	-6.70549
▁de	-6.72296
na	-6.7256
▁أو	-6.76452
▁यह	-6.78365
▁olan	-6.78646
ne	-6.80542
ون	-6.80674
▁–	-6.80841
ın	-6.82402
▁पर	-6.83358
dir	-6.83584
▁م	-6.83776
▁bu	-6.8475
ya	-6.8508
ı	-6.85998
t	-6.86228
▁ي	-6.86937
▁için	-6.90462
’	-6.9131
ları	-6.91704
▁إلى	-6.91875
li	-6.94861
ين	-6.96948
▁इस	-6.97499
en	-6.98136
▁وال	-6.98223
te	-6.98446
leri	-6.98633
r	-6.99948
den	-7.00538
an	-7.02495
▁Türk	-7.02983
),	-7.03362
न	-7.05006
▁Bu	-7.05318
dır	-7.06108
lı	-7.08168
▁1	-7.08399
y	-7.08519
si	-7.08675
د	-7.09053
▁ने	-7.09981
म	-7.12064
▁لل	-7.12284
▁أن	-7.13047
ki	-7.14284
ित	-7.15177
▁भारत	-7.15699
o	-7.19356
;	-7.19648
la	-7.20385
▁था	-7.21504
▁yılında	-7.21692
m	-7.21903
▁tarafından	-7.22469
ye	-7.23189
u	-7.23591
م	-7.23845
▁en	-7.24512
p	-7.24858
le	-7.25873
dan	-7.26365
▁الم	-7.26772
▁هي	-7.2776
ni	-7.29539
▁भारतीय	-7.29811
▁किया	-7.30552
ta	-7.30597
क	-7.30677
▁هو	-7.3122
▁शब्द	-7.32742
l	-7.32966
▁بن	-7.33856
/	-7.35664
و	-7.36269
nde	-7.36631
▁राज्य	-7.37384
un	-7.38091
ता	-7.39156
ى	-7.39747
▁B	-7.40122
ने	-7.40144
er	-7.40654
z	-7.41118
»	-7.417
▁gibi	-7.42382
ल	-7.4337
nı	-7.43509
▁Türkiye	-7.44876
▁ilk	-7.44956
▁गया	-7.45833
▁A	-7.46023
▁التي	-7.46264
▁veya	-7.46553
▁सन्दर्भ	-7.47384
▁çok	-7.47385
▁Kaynakça	-7.48118
▁مع	-7.48126
2	-7.48157
▁Osmanlı	-7.4825
▁sonra	-7.48499
र	-7.48704
▁مدينة	-7.50224
nda	-7.50438
▁arasında	-7.50587
▁जाता	-7.5178
▁مراجع	-7.51982
▁दिन	-7.52196
▁जिले	-7.52308
▁أ	-7.52819
▁«	-7.53025
▁عام	-7.55344
▁2	-7.55662
ma	-7.56628
h	-7.57142
ما	-7.57771
▁3	-7.57863
ن	-7.58201
ان	-7.58343
▁अन्य	-7.58651
▁इन्हे	-7.60514
al	-7.6116
▁जो	-7.61441
▁ya	-7.61547
▁بال	-7.61852
▁daha	-7.61895
▁ise	-7.63265
▁عن	-7.63583
▁थे	-7.63699
▁नाम	-7.63774
sı	-7.63859
▁देखें	-7.64446
▁ज़िला	-7.64695
ال	-7.65211
▁इसक	-7.66048
▁Ocak	-7.66932
▁C	-7.67185
▁16	-7.67189
ların	-7.67589
▁S	-7.68345
▁göre	-7.68375
▁14	-7.68465
▁अर्थ	-7.68771
▁या	-7.69164
ce	-7.69828
स	-7.71092
ف	-7.71106
▁वर्ष	-7.71211
▁K	-7.71401
▁15	-7.72021
▁4	-7.72527
lik	-7.72847
▁بين	-7.74464
▁कि	-7.75258
us	-7.7551
▁हो	-7.75879
▁Eylül	-7.76518
▁13	-7.76852
ب	-7.76861
▁ما	-7.77025
▁Mart	-7.77066
س	-7.77167
b	-7.77414
▁12	-7.77585
▁तथा	-7.78923
▁Aralık	-7.79089
▁kadar	-7.79265
▁Mayıs	-7.79353
▁yer	-7.79372
g	-7.79634
▁कर	-7.79793
▁10	-7.79937
▁अ	-7.79971
di	-7.80734
▁Ekim	-7.81097
lerin	-7.81154
▁Dış	-7.81392
▁I	-7.81786
▁büyük	-7.82146
▁होता	-7.82485
▁bağlantılar	-7.83448
▁Şubat	-7.84064
▁रूप	-7.84522
ح	-7.8493
▁Fransız	-7.84957
daki	-7.85069
▁Kasım	-7.85124
▁Olaylar	-7.85134
▁लिए	-7.85176
▁Ayrıca	-7.85288
▁Temmuz	-7.85889
▁हुआ	-7.86043
▁17	-7.86062
ँ	-7.86095
▁Doğum	-7.86217
ि	-7.86774
▁وي	-7.87144
ो	-7.87198
ر	-7.87445
▁İstanbul	-7.87579
C	-7.87736
िक	-7.88525
▁Nisan	-7.88556
▁Ölümler	-7.887
وا	-7.88939
▁of	-7.89214
▁Haziran	-7.89367
▁İngiliz	-7.89631
▁iki	-7.89898
ca	-7.90345
▁bağlı	-7.90358
nden	-7.90421
▁وت	-7.90777
▁5	-7.90865
▁tarihi	-7.90961
▁الذي	-7.91009
▁بعد	-7.91723
▁बाहर	-7.91955
▁ज़िले	-7.92722
▁هذه	-7.92752
▁her	-7.92925
▁Ağustos	-7.93222
▁उनक	-7.93227
lık	-7.93588
اً	-7.93883
nun	-7.93976
me	-7.94082
▁6	-7.94424
▁لا	-7.94646
S	-7.9469
▁=	-7.95231
▁كان	-7.95643
c	-7.95876
▁|	-7.95888
▁मे	-7.96412
B	-7.96806
▁:	-7.9707
▁ا	-7.9713
▁ही	-7.97143
at	-7.97145
▁Amerikalı	-7.97294
ق	-7.97414
▁yazar	-7.97769
).	-7.98723
▁كل	-7.99213
त	-7.99296
▁20	-7.9933
3	-7.99871
▁حيث	-8.00812
▁करने	-8.01189
lu	-8.01352
ل	-8.01668
▁7	-8.02017
ş	-8.02844
(	-8.02859
▁8	-8.02985
▁ili	-8.02993
▁M	-8.03168
▁D	-8.03552
ज	-8.03555
ब	-8.03594
▁हिंदी	-8.04059
▁प्रमुख	-8.04568
yle	-8.04914
▁ف	-8.04941
▁olduğu	-8.051
य	-8.06147
ز	-8.06488
▁अनुसार	-8.06624
ع	-8.07439
ना	-8.07493
A	-8.08067
6	-8.08186
ik	-8.08421
ü	-8.08687
▁Alman	-8.08841
x	-8.08841
▁11	-8.08892
f	-8.09248
ndan	-8.10019
ك	-8.10033
▁adı	-8.10183
▁पुरस्कार	-8.10277
▁प्राचीन	-8.10277
▁T	-8.10301
el	-8.10564
▁Bir	-8.11652
ir	-8.11676
4	-8.11911
▁H	-8.11936
sa	-8.11999
▁oldu	-8.12028
▁18	-8.12338
▁जन्म	-8.12405
▁थी	-8.12979
▁द्वारा	-8.13066
▁عند	-8.13129
ti	-8.13178
yi	-8.14043
ह	-8.14178
se	-8.14306
ट	-8.14633
sel	-8.14706
es	-8.14941
▁سنة	-8.15162
deki	-8.15235
▁هذا	-8.15669
▁सबसे	-8.15713
▁ك	-8.15801
व	-8.16436
▁vardır	-8.17001
▁القرن	-8.17398
▁P	-8.17498
هم	-8.17772
▁मूल	-8.1861
▁प्रदेश	-8.19171
محافظة	-8.19347
dur	-8.19385
ـ	-8.19469
▁बाद	-8.19662
कर	-8.19771
yla	-8.20291
्	-8.2038
▁وهي	-8.20475
ीय	-8.20516
▁उत्तर	-8.20548
▁diğer	-8.20826
▁II	-8.20989
î	-8.21011
▁تأسيس	-8.2108
on	-8.21234
yı	-8.21304
re	-8.21735
▁व	-8.21759
▁G	-8.21892
ra	-8.21961
▁E	-8.22441
il	-8.22516
يا	-8.23184
▁भाषा	-8.23561
ओं	-8.23744
▁عبد	-8.23787
▁स्थित	-8.23944
K	-8.24207
▁yeni	-8.2454
▁धर्म	-8.24924
प	-8.24928
▁كما	-8.25126
▁स	-8.25261
▁लोग	-8.25345
ır	-8.25459
▁क्षेत्र	-8.25513
▁वि	-8.25771
▁साथ	-8.25898
im	-8.25947
▁9	-8.26483
ص	-8.26517
ri	-8.26558
▁وهو	-8.27444
▁अपने	-8.27601
▁नहीं	-8.28028
▁दिया	-8.28029
▁önemli	-8.28156
▁yıl	-8.2824
▁m	-8.28281
▁alan	-8.28423
▁नगर	-8.28515
▁राजा	-8.29057
ci	-8.29062
5	-8.291
tir	-8.29491
ًا	-8.29787
▁F	-8.29977
▁محمد	-8.30214
▁प्र	-8.30819
▁जिला	-8.30872
ु	-8.30909
▁İtalyan	-8.31206
P	-8.31413
▁तक	-8.31449
ش	-8.31629
larda	-8.32096
▁Dünya	-8.3257
▁आ	-8.32664
▁منطقة	-8.32839
▁Amerika	-8.32963
▁كانت	-8.32985
▁bakınız	-8.33551
or	-8.3414
▁शहर	-8.34453
▁कड़ियाँ	-8.34545
▁أي	-8.34547
▁एवं	-8.34548
द	-8.34991
▁मुख्यालय	-8.35047
▁Üniversitesi	-8.35509
ج	-8.3556
▁تم	-8.36013
री	-8.36027
lerde	-8.36244
▁aynı	-8.36403
ar	-8.36559
▁उस	-8.37421
dı	-8.37591
7	-8.37943
▁30	-8.37961
▁اليابان	-8.38307
▁انظر	-8.38366
ाँ	-8.38626
su	-8.38686
▁देश	-8.38782
▁25	-8.38823
▁kabul	-8.38884
का	-8.38947
▁O	-8.38997
िल	-8.39081
▁हिन्दी	-8.39318
tan	-8.39467
▁birlikte	-8.39932
▁مثل	-8.40126
▁En	-8.40126
▁संबंध	-8.40196
▁Savaşı	-8.40314
ten	-8.40514
▁الله	-8.40539
▁24	-8.41154
▁निधन	-8.41202
ط	-8.41242
lara	-8.41365
ُ	-8.41403
ियों	-8.41594
▁bilinmeyen	-8.41627
1	-8.41882
▁लिये	-8.41988
▁21	-8.42133
ई	-8.42141
▁عدد	-8.42199
▁the	-8.42375
▁son	-8.42949
▁उ	-8.43177
mıştır	-8.43396
▁الأ	-8.43483
sal	-8.43491
▁22	-8.43494
▁içinde	-8.43693
ur	-8.43748
نا	-8.4392
▁şair	-8.44416
▁yüzyıl	-8.44481
▁أيضا	-8.44781
ته	-8.45408
st	-8.4563
▁and	-8.45641
▁وقد	-8.45793
▁ه	-8.45921
ine	-8.46066
▁doğru	-8.4617
▁तो	-8.46207
▁भाषाओं	-8.46497
ू	-8.46948
ِ	-8.46961
▁वह	-8.47203
▁दल	-8.4737
ण	-8.47721
▁पश्चिम	-8.47962
os	-8.48284
ड	-8.49038
▁موالي	-8.49372
▁üzerinde	-8.49509
▁साल	-8.49572
et	-8.496
▁26	-8.50141
▁kullanılan	-8.50196
▁bulunan	-8.50488
▁23	-8.50756
▁gelen	-8.50813
▁المدينة	-8.50856
ض	-8.51029
▁पूर्व	-8.51082
▁devlet	-8.51194
ور	-8.51214
▁قبل	-8.51546
▁غير	-8.51757
▁وفي	-8.5184
َ	-8.51893
ç	-8.5201
▁न	-8.52194
▁إ	-8.52222
▁doğumlular	-8.5232
ka	-8.52438
tır	-8.52938
श	-8.52986
▁प्रसिद्ध	-8.53038
lere	-8.53483
ini	-8.53669
▁Ödülü	-8.53795
H	-8.53843
▁ressam	-8.53865
▁Avrupa	-8.53968
▁उदाहरण	-8.54059
▁किसी	-8.54082
▁ن	-8.54187
▁नोबेल	-8.54363
larını	-8.54751
▁29	-8.55069
▁28	-8.55683
R	-8.55794
▁خارجية	-8.56532
▁27	-8.56845
man	-8.57054
▁zaman	-8.57092
▁karşı	-8.57247
ग	-8.57465
جامعة	-8.57729
ken	-8.57746
▁a	-8.57984
▁ثم	-8.5804
▁kendi	-8.58113
▁दक्षिण	-8.58121
रा	-8.582
▁कहा	-8.58264
▁مدن	-8.58352
ün	-8.58369
▁بعض	-8.58392
▁küçük	-8.58416
▁eski	-8.58619
▁शब्दार्थ	-8.58727
irleşik	-8.58881
D	-8.58978
E	-8.58989
ّ	-8.59498
8	-8.59639
▁हुई	-8.5968
maktadır	-8.59816
▁19	-8.60122
▁تقع	-8.60183
▁farklı	-8.60215
اء	-8.60771
cı	-8.60899
▁birçok	-8.60969
v	-8.61053
▁ilçesin	-8.61356
▁لم	-8.61592
ला	-8.61641
▁L	-8.62363
ار	-8.62442
▁The	-8.62578
lerini	-8.62579
as	-8.62642
▁gün	-8.63718
▁निकटत	-8.63737
▁o	-8.63839
▁जिसक	-8.6411
تقع	-8.64138
▁يمكن	-8.64385
▁adlı	-8.64643
▁ABD	-8.64828
▁||	-8.64848
▁başladı	-8.65282
▁Fransa	-8.65398
miştir	-8.65455
▁والتي	-8.65874
▁वे	-8.6591
▁حاليا	-8.65963
خ	-8.66132
▁تاريخ	-8.66294
O	-8.66379
is	-8.66542
▁जा	-8.66734
ث	-8.66767
ak	-8.67083
▁वाले	-8.67182
it	-8.67183
يون	-8.67184
▁وفيات	-8.67253
▁दो	-8.67263
▁Paşa	-8.68044
▁समय	-8.68086
ul	-8.6827
M	-8.68514
▁توأم	-8.68743
▁अमेरिका	-8.68743
▁ع	-8.68894
larının	-8.68903
▁bilim	-8.68917
▁नदी	-8.69101
>	-8.69112
▁क	-8.69262
या	-8.69295
G	-8.69472
▁गई	-8.69691
थ	-8.69707
▁पे	-8.69864
▁له	-8.69955
▁bulunur	-8.69971
▁İ	-8.70077
▁Sultan	-8.70126
▁ومن	-8.70154
▁tek	-8.70605
وس	-8.70786
to	-8.70998
पुर	-8.71125
्य	-8.71227
”	-8.71234
▁İmparatorluğu	-8.71235
▁لغات	-8.71247
▁उसक	-8.71605
▁ब	-8.71631
وي	-8.71657
▁Ankara	-8.71657
▁أحد	-8.71783
ंडर	-8.71898
يل	-8.71973
ing	-8.72255
▁फ़िल्म	-8.72313
▁हुए	-8.72323
▁kuruldu	-8.72331
▁ذلك	-8.72762
▁الت	-8.7286
ol	-8.72882
▁(19	-8.72968
वा	-8.73147
لي	-8.73223
▁Film	-8.73354
▁önce	-8.73379
▁olup	-8.73421
0	-8.73464
▁فيها	-8.73535
ंग	-8.73552
▁العربية	-8.73632
▁कई	-8.73815
▁होती	-8.73824
▁ortaya	-8.73836
▁पहले	-8.73868
غ	-8.73917
ip	-8.74022
▁أول	-8.741
▁विजेता	-8.74159
▁La	-8.74253
tı	-8.74511
th	-8.74594
▁Re	-8.74683
▁कुछ	-8.74906
mak	-8.75005
▁ذات	-8.75092
▁bazı	-8.75182
ام	-8.75198
▁حتى	-8.7523
arak	-8.75652
▁अभी	-8.7566
▁tüm	-8.75697
▁Büyük	-8.7582
▁s	-8.75915
▁üzere	-8.76032
▁المراجع	-8.76039
▁hem	-8.76975
mış	-8.77054
▁विश्व	-8.77226
▁“	-8.77228
T	-8.77373
▁بها	-8.77431
▁sahip	-8.77463
▁film	-8.77464
▁gelir	-8.77559
▁होने	-8.77727
▁اللغة	-8.77997
▁km	-8.77999
▁yüksek	-8.7852
ते	-8.78553
▁يكون	-8.78754
▁31	-8.78851
▁şekilde	-8.79131
▁fazla	-8.79135
lama	-8.79191
يات	-8.79463
▁üzerine	-8.79501
▁कारण	-8.79576
▁su	-8.7963
mektedir	-8.79652
▁Devleti	-8.79774
▁alt	-8.79912
ve	-8.7992
um	-8.80266
ması	-8.80458
بلغ	-8.8063
lo	-8.80731
w	-8.81192
▁गए	-8.8148
ير	-8.81484
▁çeşitli	-8.81496
▁biri	-8.81652
▁genel	-8.81787
تين	-8.81837
ha	-8.82128
%	-8.82337
▁الع	-8.82374
ga	-8.83157
▁لها	-8.83326
▁कैल	-8.83376
lığı	-8.83584
وم	-8.83815
▁yapılan	-8.83908
bi	-8.84057
lerinde	-8.84068
▁बाक	-8.84155
▁tarihinde	-8.8421
▁ق	-8.84241
سي	-8.84318
▁N	-8.84349
▁وم	-8.84403
▁قد	-8.84643
â	-8.8477
▁kişi	-8.84848
▁/	-8.8501
▁होते	-8.85175
▁adamı	-8.85242
اب	-8.85276
▁Se	-8.854
▁U	-8.85673
lardan	-8.8569
▁müzik	-8.8569
▁V	-8.85739
▁आप	-8.85854
lan	-8.85863
▁बीबीसी	-8.86379
▁आदि	-8.86381
▁المتحدة	-8.86386
▁bulunmaktadır	-8.86389
ba	-8.86516
▁b	-8.86606
▁مجموعة	-8.86756
▁ग्रेगोरी	-8.868
▁0	-8.87233
▁س	-8.87404
be	-8.87416
▁جنوب	-8.87433
–	-8.8752
▁يتم	-8.8753
▁Ma	-8.87593
▁John	-8.88039
lerinden	-8.8809
lü	-8.88214
تها	-8.88304
تي	-8.88448
▁edilen	-8.88509
▁बार	-8.88529
larına	-8.8853
vi	-8.88616
▁وا	-8.88663
▁tür	-8.88687
diği	-8.88773
F	-8.88894
)،	-8.88968
▁mahalle	-8.89021
से	-8.89048
▁Ay	-8.89244
▁राज	-8.89542
▁اسم	-8.89548
▁दिवस	-8.89791
▁Anadolu	-8.89793
लीप	-8.89824
▁etti	-8.89826
▁X	-8.89945
▁ay	-8.89973
ed	-8.90048
▁कडिया	-8.9006
शा	-8.9008
▁ilgili	-8.90138
larında	-8.90255
▁تكون	-8.90513
ton	-8.90568
▁Rus	-8.9062
lerinin	-8.90631
▁sanat	-8.90647
▁Kuzey	-8.90663
▁प	-8.90729
▁जिस	-8.90783
▁अधिक	-8.90869
L	-8.91033
▁J	-8.91102
بي	-8.91476
▁Bey	-8.91479
ia	-8.91508
▁kullanılır	-8.91529
▁स्थान	-8.91743
va	-8.91744
larından	-8.91768
é	-8.92001
ري	-8.92062
▁علي	-8.92063
▁ولاية	-8.92155
ch	-8.92285
▁कहते	-8.92432
▁İlk	-8.92436
▁أنه	-8.92455
▁Kara	-8.92562
▁c	-8.92696
▁मुख्य	-8.92723
▁uzun	-8.92857
▁द	-8.92982
▁iş	-8.93084
▁نظام	-8.93189
▁أماكن	-8.93327
▁kralı	-8.93394
▁R	-8.9342
mi	-8.93781
▁घटनाए	-8.93996
▁olmak	-8.94131
ती	-8.94145
j	-8.94216
▁W	-8.94239
lerden	-8.94572
▁De	-8.94591
▁İngiltere	-8.94758
▁açık	-8.94856
▁ये	-8.94977
▁ölenler	-8.9516
▁करते	-8.95187
▁संयुक्त	-8.95218
erek	-8.95481
▁f	-8.95562
▁इतिहास	-8.95587
▁in	-8.95726
▁सं	-8.95757
▁temel	-8.96074
▁alır	-8.96108
ख	-8.96378
nu	-8.96392
▁İslam	-8.96583
▁बहुत	-8.96992
▁شمال	-8.97018
ge	-8.9702
▁राजधानी	-8.97028
liği	-8.97028
▁olur	-8.97103
मा	-8.97265
▁edilir	-8.97461
▁eden	-8.97513
ود	-8.97762
▁Her	-8.97774
miş	-8.98083
▁Cumhuriyeti	-8.98173
▁ألمانيا	-8.98267
▁verilen	-8.98404
▁जाती	-8.98419
▁olması	-8.98435
▁علم	-8.98591
▁iyi	-8.98595
▁ikinci	-8.98618
▁filmler	-8.98657
]	-8.98672
▁भाग	-8.98689
per	-8.98816
▁स्थापना	-8.98868
دي	-8.9888
وجد	-8.98923
ro	-8.98931
ını	-8.9895
▁عشر	-8.9914
▁Çin	-8.99174
am	-8.99251
▁üç	-8.99533
फ	-8.99572
luk	-8.99689
em	-8.99886
ür	-9.00074
▁sinema	-9.00204
▁युद्ध	-9.00304
▁बिहार	-9.00412
du	-9.00608
iz	-9.0064
يس	-9.00642
च	-9.00722
▁ancak	-9.00788
िया	-9.00807
▁أعلام	-9.00842
न्होंने	-9.00842
▁सा	-9.00865
صلات	-9.00881
▁كم	-9.0104
▁p	-9.01059
▁به	-9.01075
▁राम	-9.01272
▁तत्व	-9.01277
▁أيضاً	-9.01291
▁خ	-9.01307
lerine	-9.01342
▁başka	-9.01353
▁أخرى	-9.01384
▁وأ	-9.01696
▁अपनी	-9.01762
ay	-9.01852
▁Orta	-9.01867
▁श	-9.01871
▁Roma	-9.01895
▁ülke	-9.01905
▁الأول	-9.02062
▁veri	-9.02283
أ	-9.02315
ाई	-9.0233
नी	-9.02408
▁III	-9.02652
▁genellikle	-9.02744
co	-9.0276
▁أيضًا	-9.02813
▁العناصر	-9.0285
▁köy	-9.02881
ली	-9.02963
ئ	-9.0311
في	-9.03189
▁oyuncu	-9.03206
▁denir	-9.03245
▁bilgisayar	-9.03308
▁Y	-9.03451
▁altında	-9.03662
▁devam	-9.03793
▁ifade	-9.03939
tur	-9.04036
▁भौतिक	-9.04237
▁türü	-9.04286
▁%	-9.04338
▁نهر	-9.0441
▁वैज्ञानिक	-9.04424
▁dünya	-9.04626
▁yakın	-9.04686
▁sade	-9.04751
▁aldı	-9.04972
▁süre	-9.05214
▁ग	-9.05216
يد	-9.05276
▁az	-9.05593
ए	-9.0578
▁kısa	-9.05826
▁दूसर	-9.05849
▁पुत्र	-9.05952
ter	-9.06211
10	-9.06249
▁olmuştur	-9.06266
▁Le	-9.0633
I	-9.06488
▁حسب	-9.06534
tr	-9.06573
इ	-9.06574
ği	-9.06724
▁पौराणिक	-9.06773
▁विश्वविद्यालय	-9.06773
़	-9.06839
no	-9.06866
▁besteci	-9.06906
▁والم	-9.06989
zi	-9.07035
جي	-9.07262
अ	-9.0737
▁yaklaşık	-9.07404
▁Devletleri	-9.07601
▁kuşlar	-9.07606
▁yılı	-9.07758
▁سي	-9.07812
▁matematikçi	-9.07837
تر	-9.07973
▁فإن	-9.08139
▁مقاطعة	-9.08168
▁2004	-9.08228
اس	-9.08256
ظ	-9.08267
▁siyasetçi	-9.08311
://	-9.08329
▁عناصر	-9.08435
▁أكثر	-9.08449
ru	-9.08503
▁الح	-9.08563
▁أبو	-9.08631
▁Ar	-9.08681
leme	-9.08697
را	-9.08833
▁var	-9.08897
▁آل	-9.08907
yan	-9.08915
▁cm	-9.09145
▁Genel	-9.09176
के	-9.09249
▁ش	-9.09277
▁त	-9.09481
▁१९	-9.09684
▁yaptı	-9.09689
do	-9.09694
०	-9.09827
ist	-9.0985
म्	-9.09931
▁دي	-9.09949
▁साहित्य	-9.09989
▁العالم	-9.10201
ء	-9.10394
▁ह	-9.10399
▁منها	-9.10415
يه	-9.1044
▁doğal	-9.10473
ey	-9.10802
▁Me	-9.10837
siz	-9.10874
=	-9.10936
▁उन्हे	-9.10973
▁सरकार	-9.11028
▁राष्ट्रपति	-9.11038
▁kadın	-9.11093
tu	-9.11164
▁प्रथम	-9.11204
▁deniz	-9.11417
▁إي	-9.11457
▁bölge	-9.11654
की	-9.11669
جزيرة	-9.11679
वॉ	-9.11683
ev	-9.11686
▁जाने	-9.1175
▁الق	-9.1183
▁बना	-9.11857
▁Doğu	-9.1198
▁أكبر	-9.11997
▁أشخاص	-9.12051
▁जनसंख्या	-9.12051
▁प्रकार	-9.12071
दान	-9.12076
▁sayısı	-9.12309
▁पा	-9.12351
▁<	-9.1239
▁döneminde	-9.12455
▁وب	-9.12466
ذ	-9.12496
▁Ali	-9.12663
▁+	-9.12748
inde	-9.12768
mesi	-9.12841
▁जब	-9.12842
▁özel	-9.1295
▁eder	-9.12951
▁g	-9.12974
▁şu	-9.13024
▁نسمة	-9.13141
▁लगभग	-9.13191
▁zamanda	-9.1324
كا	-9.13279
▁Al	-9.13358
dığı	-9.1337
▁ek	-9.13462
19	-9.13554
▁Su	-9.13625
▁सकता	-9.13691
▁राजवंश	-9.13696
▁kurulan	-9.13741
▁लेखक	-9.13772
▁सु	-9.13798
▁sıra	-9.13848
وت	-9.13869
za	-9.13946
▁günü	-9.13978
ğ	-9.14004
رت	-9.14041
▁ना	-9.14121
सा	-9.14151
▁[	-9.14151
▁ولكن	-9.14257
▁oğlu	-9.14425
▁करता	-9.14485
▁वाली	-9.1451
▁इन	-9.14521
ْ	-9.14527
ंड	-9.14672
▁म	-9.14719
▁कार्य	-9.14871
▁दी	-9.1489
▁Kırım	-9.15005
lerle	-9.1513
▁oyun	-9.15146
▁वाला	-9.15231
ndeki	-9.15244
▁bilinen	-9.15357
▁प्रयोग	-9.1544
▁ج	-9.15479
▁पूर	-9.15611
ست	-9.15718
▁sistemi	-9.15737
org	-9.15751
ck	-9.15799
▁حوالي	-9.15848
N	-9.15853
▁ولا	-9.16019
▁yazı	-9.16059
भ	-9.16082
सी	-9.16292
▁tam	-9.16369
▁श्री	-9.16389
▁बन	-9.1642
▁ismi	-9.16472
▁olduğunu	-9.16485
▁2006	-9.16579
▁geçen	-9.16605
▁y	-9.16653
्स	-9.16847
▁कोई	-9.16858
▁Klasik	-9.17052
▁لغة	-9.17057
فترة	-9.17299
رو	-9.17339
▁लोगों	-9.17447
▁öldü	-9.17605
ot	-9.17627
ek	-9.17632
▁با	-9.17662
▁वो	-9.17898
▁Güney	-9.17905
▁इसमें	-9.18217
▁yazarı	-9.18266
▁İzmir	-9.18281
sız	-9.18534
▁bütün	-9.1875
▁x	-9.18821
▁ana	-9.18867
▁जी	-9.18899
▁الثاني	-9.18958
▁konu	-9.18981
han	-9.18992
9	-9.19158
V	-9.19175
يم	-9.19221
▁लिया	-9.19239
▁William	-9.19245
▁وكان	-9.19352
hi	-9.19716
oğlu	-9.1973
▁रहे	-9.19792
▁2005	-9.19864
एँ	-9.19865
▁वंशावली	-9.19944
▁महाभारत	-9.20013
▁Mi	-9.20148
▁जैसे	-9.20196
17	-9.20417
دا	-9.20507
▁insan	-9.20522
▁at	-9.20575
▁मध्य	-9.2071
▁Yeni	-9.20712
▁geniş	-9.2078
-19	-9.2104
تا	-9.21096
لا	-9.21174
ic	-9.21174
▁Charles	-9.21196
az	-9.21218
ça	-9.21267
▁elde	-9.21552
▁edildi	-9.21598
▁لي	-9.22163
▁काल	-9.22411
▁मंदिर	-9.22758
cu	-9.22806
▁adıyla	-9.23126
بر	-9.23441
▁yapan	-9.23537
▁तीन	-9.23538
▁kez	-9.23546
بل	-9.23622
▁sırasında	-9.23645
▁din	-9.23683
çe	-9.23717
ول	-9.23725
▁iç	-9.2381
▁أسماء	-9.23882
▁منذ	-9.23914
▁तमिल	-9.24138
▁filozof	-9.24291
▁خلال	-9.24311
▁رئيس	-9.24312
▁الب	-9.24385
ज़	-9.24395
يو	-9.24544
▁Sa	-9.24678
ड़	-9.248
▁إلا	-9.24891
▁अमेरिकी	-9.24901
▁ان	-9.24948
▁जल	-9.24981
15	-9.25145
▁أهم	-9.25163
يف	-9.2517
son	-9.25291
id	-9.25358
▁çıkan	-9.25366
▁कम	-9.25374
giller	-9.2542
▁ابن	-9.2542
مر	-9.25578
▁هناك	-9.25615
▁الج	-9.25658
▁yapı	-9.2584
ke	-9.25968
▁Kralı	-9.26038
▁طريق	-9.26075
mek	-9.26354
dür	-9.26359
▁Ba	-9.26365
▁राष्ट्रीय	-9.26578
▁हिन्दू	-9.26617
▁रहा	-9.26705
اف	-9.26741
▁yerine	-9.2675
pa	-9.26758
▁yılları	-9.26833
sini	-9.26889
▁özellikleri	-9.26933
der	-9.27098
्र	-9.27161
▁Z	-9.2718
▁शाम	-9.27255
▁2000	-9.27267
av	-9.27413
▁şehir	-9.27451
▁उप	-9.27553
▁para	-9.27639
ına	-9.27755
▁ses	-9.27818
ستخدم	-9.27853
▁nedeniyle	-9.27885
▁insanlar	-9.27922
▁वॉ	-9.28077
▁Ş	-9.28272
ıl	-9.28279
▁Nobel	-9.28512
iş	-9.28552
▁नि	-9.28555
Ö	-9.28565
▁İyi	-9.28588
▁المنطقة	-9.28638
▁करना	-9.28651
يوم	-9.28736
▁adını	-9.28737
▁Ca	-9.28738
طلق	-9.28977
▁फ	-9.29158
▁إذا	-9.29309
▁सर्व	-9.29562
▁ए	-9.29646
▁يوم	-9.29712
با	-9.29726
▁savaş	-9.29729
▁ح	-9.29773
sine	-9.29791
▁dört	-9.29797
▁Ancak	-9.29799
▁الحرب	-9.29871
▁Mehmet	-9.29906
▁إحد	-9.29923
▁yapımı	-9.29954
çi	-9.30008
زي	-9.30027
▁जन	-9.30096
ً	-9.30148
ran	-9.30178
▁İspanyol	-9.30468
▁قائمة	-9.305
▁जन्मे	-9.3058
ad	-9.30646
ver	-9.30672
▁ले	-9.30712
▁تحت	-9.30715
▁yayın	-9.31032
▁pek	-9.31172
▁छ	-9.31186
ध	-9.31254
▁काम	-9.31255
بة	-9.31414
▁मु	-9.31542
▁دول	-9.31565
غو	-9.31597
▁إن	-9.31683
फ़	-9.31686
ति	-9.31764
▁ne	-9.31766
▁mühendisliği	-9.31813
▁Yunan	-9.31882
يت	-9.31886
com	-9.31963
len	-9.32035
▁कुल	-9.32042
▁re	-9.32094
شي	-9.32111
▁Türkçe	-9.32188
مي	-9.32189
रे	-9.32273
▁20.	-9.32286
▁El	-9.32341
لو	-9.32487
ze	-9.32537
ndaki	-9.32633
▁الجدول	-9.32641
▁görev	-9.32687
९	-9.32736
|	-9.32782
▁أنواع	-9.32844
▁व्यक्ति	-9.33072
कार	-9.3308
▁dışında	-9.33112
▁१	-9.33128
▁المجموعة	-9.33167
▁Daha	-9.33203
وحدة	-9.33245
▁tarih	-9.33353
عتبر	-9.33476
men	-9.33495
50	-9.33566
▁isim	-9.33621
فر	-9.33657
▁प्राप्त	-9.33717
▁ait	-9.33784
▁sahipleri	-9.33852
▁الأولى	-9.33877
▁2.	-9.33925
▁New	-9.33928
वि	-9.3397
▁Ç	-9.34038
▁सिंह	-9.34205
जी	-9.34207
▁halk	-9.34425
▁Efendi	-9.34433
▁dönem	-9.34466
▁बीच	-9.34489
▁dönemi	-9.34493
▁Ak	-9.34509
▁Batı	-9.34521
▁माना	-9.34604
مان	-9.34634
▁Kur	-9.34762
▁बंगाल	-9.34778
▁أسست	-9.34809
هذا	-9.3488
ah	-9.34897
▁2001	-9.35073
▁أحمد	-9.35114
▁şeklinde	-9.35166
▁eğitim	-9.35186
▁بدأ	-9.35201
▁संस्कृत	-9.35204
▁Örneğin	-9.35211
▁अलग	-9.35399
▁eşi	-9.35532
▁San	-9.35545
▁الاسم	-9.3578
▁Antlaşması	-9.35799
▁dil	-9.35849
▁olmayan	-9.35894
▁İngilizce	-9.36187
▁पंजाब	-9.36248
▁شكل	-9.3628
▁सभ	-9.36303
र्	-9.36372
كس	-9.36395
تو	-9.36424
▁1992	-9.36501
سبب	-9.36584
▁insanı	-9.36653
▁الولايات	-9.36745
▁müziği	-9.36748
Y	-9.36921
go	-9.37038
▁वंश	-9.37084
▁ilçesi	-9.37122
▁yol	-9.37202
▁1999	-9.37241
▁2002	-9.37369
▁كتاب	-9.37479
▁Ta	-9.37521
▁ilçe	-9.37664
▁يُ	-9.3769
▁bilgi	-9.37705
▁2003	-9.37706
▁الف	-9.37761
▁مأهولة	-9.37882
▁स्वतंत्र	-9.37883
▁اتفاقي	-9.37901
دة	-9.37907
▁عدة	-9.38002
▁जाना	-9.38017
ल्	-9.3804
▁सन्	-9.38095
▁عليه	-9.38181
▁biridir	-9.38244
▁sonucu	-9.384
▁Er	-9.38483
kça	-9.38576
▁Bo	-9.38579
▁महाराष्ट्र	-9.38587
▁gerçek	-9.38599
▁أما	-9.38737
ؤ	-9.38759
▁Rusya	-9.38759
मी	-9.38777
▁عمل	-9.38867
▁bilinmeyenler	-9.39025
▁Be	-9.39053
▁الس	-9.3915
▁sahiptir	-9.3917
جو	-9.39216
çı	-9.39289
؛	-9.39295
▁सूची	-9.39311
▁चार	-9.39378
▁değildir	-9.39398
▁जीवन	-9.39519
larla	-9.39531
फी	-9.39625
▁anlamın	-9.39687
▁di	-9.39697
▁çıkar	-9.39726
ني	-9.39826
▁gerçekleşti	-9.39951
▁सम	-9.39959
▁yaygın	-9.39965
▁beri	-9.40053
▁والذي	-9.40066
tar	-9.40201
▁वर्ग	-9.40201
गा	-9.40226
inin	-9.40308
▁merkezi	-9.40418
▁संगीत	-9.40717
▁programlama	-9.40739
▁yaptığı	-9.40741
▁जिसमें	-9.40749
▁प्रति	-9.40797
▁(18	-9.40861
▁شرق	-9.40923
?	-9.40946
▁hava	-9.40969
ül	-9.41014
▁Almanya	-9.41068
▁الش	-9.41167
▁olabilir	-9.41284
▁عمر	-9.41398
▁Henry	-9.41454
▁लेकिन	-9.41454
▁kurucusu	-9.41455
قرأ	-9.41462
▁oluşan	-9.41466
▁Ha	-9.41474
▁बड़ा	-9.41484
▁जाते	-9.41487
▁yüzyılda	-9.41589
▁Deniz	-9.41671
ında	-9.42003
▁başkanı	-9.42005
ko	-9.42136
▁He	-9.42142
_	-9.42167
ğı	-9.42176
▁Muharebesi	-9.42184
▁सकते	-9.42184
▁पार्टी	-9.42184
मान	-9.42267
▁است	-9.42301
ör	-9.42304
▁السنة	-9.42417
om	-9.42747
ss	-9.4281
▁ज	-9.42833
▁नामक	-9.42885
▁2011	-9.42928
▁ağaç	-9.42943
▁مصر	-9.43068
nü	-9.43197
▁غرب	-9.43269
▁Ra	-9.43303
▁2007	-9.43363
▁Lisesi	-9.43423
30	-9.43461
▁bin	-9.4362
▁http	-9.43991
▁Son	-9.44046
दा	-9.44164
▁फिल्म	-9.44243
▁يوليو	-9.44407
▁مايو	-9.44462
▁أم	-9.44508
▁الدولة	-9.4468
▁विज्ञान	-9.4477
iye	-9.44795
جر	-9.44877
▁değil	-9.45052
▁ayrı	-9.4511
▁ص	-9.45138
▁milyon	-9.45157
▁रासायनिक	-9.45158
▁درجة	-9.45187
▁पास	-9.45202
▁1998	-9.45302
▁इसी	-9.45321
▁içerisinde	-9.45359
▁neden	-9.4548
▁मा	-9.45528
▁اليوم	-9.456
20	-9.45655
▁الثانية	-9.45718
يق	-9.4574
▁عاصمة	-9.45761
bu	-9.45892
▁yıllarda	-9.45901
▁الأخرى	-9.45945
▁यू	-9.45955
ः	-9.45956
▁इ	-9.45975
▁Güneş	-9.45985
▁üst	-9.46023
▁türleri	-9.46054
▁ख	-9.46117
وف	-9.46118
14	-9.46185
gu	-9.46281
वर	-9.46341
▁موقع	-9.46384
ber	-9.46395
▁ल	-9.46462
▁Tarihi	-9.46484
ौ	-9.46496
ै	-9.46534
▁الن	-9.46535
00	-9.46553
من	-9.46644
▁me	-9.46647
▁Mustafa	-9.46679
▁meydan	-9.46679
▁başlayan	-9.46682
▁1993	-9.46692
▁1.	-9.46706
▁ملك	-9.46718
▁أكتوبر	-9.46789
="	-9.46994
▁البحر	-9.47278
2)	-9.47302
bo	-9.47338
▁ç	-9.47365
قة	-9.474
▁Diğer	-9.47448
ktan	-9.47457
ebilir	-9.47504
fa	-9.47517
▁الك	-9.47524
▁गुरु	-9.47681
CH	-9.47757
اي	-9.4785
ım	-9.4787
har	-9.47923
▁हर	-9.48031
▁च	-9.48036
▁Li	-9.48049
▁التاريخ	-9.4811
كو	-9.48188
वीं	-9.48198
▁Han	-9.48239
▁anlamlar	-9.48244
▁राजनीतिक	-9.48244
اد	-9.4836
▁نوع	-9.48366
▁الكيميائية	-9.48382
▁فيه	-9.48431
18	-9.48529
▁Bunun	-9.48692
▁थीं	-9.48706
▁Fatih	-9.48712
▁özellikle	-9.48945
▁महिला	-9.49006
▁boyunca	-9.49011
▁öğrenim	-9.49055
▁k	-9.49061
▁سو	-9.49322
ذلك	-9.4945
▁sayı	-9.49498
▁listesi	-9.49595
U	-9.49615
जा	-9.49697
▁Britanya	-9.49792
▁James	-9.49793
▁أغسطس	-9.49796
▁ardından	-9.49805
न्	-9.49811
▁باسم	-9.49875
▁الشمال	-9.49981
▁Sanat	-9.49991
▁Ne	-9.49994
▁العديد	-9.50144
nün	-9.50307
▁قام	-9.50426
▁حرف	-9.50541
तः	-9.50542
▁ünlü	-9.5058
www	-9.50585
कर्नाटक	-9.50585
▁bulunduğu	-9.50588
▁1994	-9.50594
▁asıllı	-9.5064
İ	-9.50681
▁Japonya	-9.5069
▁Uluslararası	-9.507
▁بو	-9.50704
res	-9.50704
اق	-9.50715
▁oluşur	-9.50724
▁metre	-9.50729
▁कविता	-9.50781
فل	-9.50783
اع	-9.50794
▁1996	-9.5093
▁أصل	-9.50941
كل	-9.5096
▁عليها	-9.5099
▁sayıda	-9.51071
po	-9.51116
ें	-9.5128
▁1997	-9.51312
بت	-9.51328
▁अभिनेता	-9.51385
▁तरह	-9.51386
▁Paris	-9.51404
نة	-9.51414
▁النظام	-9.51468
▁शिव	-9.51557
gen	-9.51567
▁ओर	-9.51582
▁देवी	-9.51725
▁Si	-9.51731
ॉ	-9.51753
वे	-9.51818
▁Na	-9.51919
स्ट	-9.51946
▁Co	-9.5201
▁देव	-9.52174
▁imparatoru	-9.52217
▁نفس	-9.52222
▁Asya	-9.52291
ren	-9.52314
16	-9.52402
नि	-9.52464
▁asker	-9.52546
▁आज	-9.52547
▁filmi	-9.52623
ائل	-9.52651
▁on	-9.52774
▁العام	-9.52856
▁Afrika	-9.5288
▁الخ	-9.52981
▁सीमा	-9.52991
काल	-9.52992
▁सदस्य	-9.53005
▁itibaren	-9.53008
▁संसद	-9.53009
رب	-9.53023
▁Japon	-9.53038
▁قال	-9.53103
▁يستخدم	-9.53145
▁Jean	-9.53151
▁Eski	-9.53205
▁पहली	-9.53282
şi	-9.53451
नगर	-9.5351
!	-9.53645
▁حول	-9.53708
▁कवि	-9.53781
َّ	-9.53791
▁Tarihçe	-9.53832
▁بشكل	-9.53861
▁النشيد	-9.5388
▁Carl	-9.53942
▁geri	-9.53986
نو	-9.53994
sında	-9.54037
يين	-9.54058
▁ضمن	-9.54084
▁grubu	-9.54143
▁विज्ञानी	-9.5419
ार	-9.54222
▁बी	-9.54299
▁ई	-9.54401
▁ev	-9.54566
▁आम	-9.54576
▁أبريل	-9.54652
▁نهاية	-9.54653
▁سبتمبر	-9.5477
▁سكانها	-9.54771
िंग	-9.54856
سم	-9.54862
▁Amerikan	-9.54864
شر	-9.54973
▁ele	-9.55021
▁संघ	-9.55029
▁الإ	-9.55059
يب	-9.55127
دو	-9.55132
-1	-9.55169
▁karar	-9.55227
▁ilan	-9.55298
▁orta	-9.55332
▁बोल	-9.55404
uk	-9.55404
▁مصادر	-9.55484
▁gelebilir	-9.55485
▁Krallık	-9.55504
▁fizikçi	-9.55507
▁dili	-9.55531
▁أحداث	-9.55561
▁kızı	-9.5559
▁Avusturya	-9.55596
▁اللغات	-9.55598
جل	-9.55695
):	-9.55741
▁ओ	-9.55809
▁الا	-9.55833
mo	-9.55855
▁الملك	-9.5586
▁سورة	-9.55892
كيمياء	-9.55955
▁söz	-9.5598
▁3.	-9.56036
को	-9.56041
ok	-9.56067
▁Devlet	-9.56078
ut	-9.56175
▁2008	-9.56307
▁Kültür	-9.56325
▁अगस्त	-9.56325
&	-9.56325
▁भगवान	-9.56325
▁saat	-9.56329
▁पात्र	-9.56336
▁الد	-9.56381
ıp	-9.56414
▁२	-9.56419
▁إنجلترا	-9.56512
▁FC	-9.56517
▁يسم	-9.5653
आ	-9.56557
▁فقط	-9.56565
▁الأمريكية	-9.56589
तर	-9.56608
▁Birliği	-9.5662
teki	-9.56745
▁कृष्ण	-9.56887
▁tiyatro	-9.56992
▁युग	-9.57093
▁Pi	-9.57095
op	-9.57122
▁dolayı	-9.5717
▁Thomas	-9.57172
▁uygun	-9.57172
▁Mo	-9.57231
▁مناطق	-9.57295
▁hizmet	-9.5739
▁Partisi	-9.5741
▁लगा	-9.57415
▁ط	-9.57441
▁الصين	-9.57444
sta	-9.57445
pe	-9.57452
▁राष्ट्र	-9.57465
▁ज्ञान	-9.57498
▁il	-9.57584
eri	-9.57616
▁الوطني	-9.5768
ण्ड	-9.57736
▁hareket	-9.57773
▁resim	-9.5779
▁Ka	-9.57804
ly	-9.57861
▁واحد	-9.57889
▁كا	-9.5789
▁स्थल	-9.57965
▁अभिनेत्री	-9.58027
▁जनवरी	-9.58027
▁धातु	-9.58027
▁يناير	-9.58027
▁آخر	-9.58029
▁yaşayan	-9.58037
▁1991	-9.58043
tür	-9.58061
▁المدن	-9.5807
J	-9.58095
▁Bazı	-9.58151
kan	-9.58235
▁الدوري	-9.58252
▁to	-9.58322
▁الدين	-9.58575
ının	-9.58676
▁tekrar	-9.5878
▁मह	-9.58792
min	-9.58883
▁taksonlar	-9.58889
لة	-9.58913
▁2014	-9.58928
فا	-9.58985
90	-9.59015
▁بداية	-9.59036
▁मार्च	-9.59038
▁yani	-9.59128
جم	-9.59169
على	-9.59189
▁matematik	-9.59228
+	-9.59261
▁bitki	-9.59608
ख्यात	-9.59711
▁चीन	-9.59715
▁1990	-9.59746
▁Ahmet	-9.5976
▁Man	-9.59762
▁almıştır	-9.59788
गत	-9.59833
▁أنهار	-9.59939
▁مارس	-9.59947
▁100	-9.60003
▁yazılım	-9.60009
▁ayı	-9.60311
▁रंग	-9.60387
▁यूरोप	-9.60507
▁الأرض	-9.60521
▁أنها	-9.60589
▁geçti	-9.60606
▁kuzey	-9.60611
्ल	-9.60611
▁göz	-9.6062
▁Hanedanı	-9.60636
▁Müzik	-9.60636
▁siyah	-9.60636
▁विकास	-9.60639
11	-9.60662
▁familyasından	-9.60664
▁السكان	-9.60697
▁للم	-9.60723
▁dahil	-9.6075
▁Pa	-9.60854
اح	-9.6091
▁As	-9.6095
sını	-9.61012
▁بي	-9.61102
yum	-9.61144
كي	-9.61158
-5	-9.61177
80	-9.61197
स्त	-9.61223
▁रख	-9.61238
▁resmi	-9.613
▁Mısır	-9.6143
spor	-9.61476
▁جون	-9.61476
أو	-9.61504
▁baş	-9.61591
▁İran	-9.61654
▁تسم	-9.61691
▁kitabı	-9.61711
▁निर्माण	-9.61718
▁جورج	-9.61722
▁d	-9.61757
▁الص	-9.6179
سك	-9.618
▁Di	-9.61859
त्र	-9.61883
▁सी	-9.61924
▁واحدة	-9.61939
وب	-9.6196
▁kişiler	-9.61963
تان	-9.61999
gi	-9.62033
▁गुजरात	-9.62081
▁kara	-9.62084
luğu	-9.62149
▁beraber	-9.62414
▁ब्रिटेन	-9.62414
▁Londra	-9.62414
▁उपयोग	-9.62415
▁चुनाव	-9.62437
▁نوفمبر	-9.62496
▁المت	-9.6251
▁Festivali	-9.62588
75	-9.62621
ीन	-9.62634
▁yılın	-9.62658
रो	-9.62666
▁toplam	-9.62709
وق	-9.6272
▁मानव	-9.62728
▁ortak	-9.62739
▁عالم	-9.62762
99	-9.62774
▁जाल	-9.62794
▁yazarları	-9.62825
70	-9.6284
▁çevre	-9.62864
ास	-9.62922
▁2010	-9.62931
▁sık	-9.63058
▁أبي	-9.63197
▁Go	-9.6337
▁beyaz	-9.63378
▁Louis	-9.63379
maya	-9.63417
▁Bursa	-9.63421
وية	-9.63468
▁आध	-9.63469
▁Linux	-9.63563
▁هنري	-9.63584
40	-9.63648
▁الوطنية	-9.6376
▁sayılar	-9.63789
▁üyeleri	-9.63814
pi	-9.63826
▁2012	-9.63885
▁al	-9.63934
▁भ	-9.63968
▁kaynak	-9.64075
ez	-9.64102
▁for	-9.64112
▁والأ	-9.64152
▁Mehmed	-9.64224
▁rağmen	-9.64224
▁يونيو	-9.64224
▁ayrıca	-9.64268
▁यहां	-9.64279
şı	-9.64309
sen	-9.64397
hangi	-9.64409
ले	-9.64411
ster	-9.64436
▁Da	-9.64438
web	-9.64471
tik	-9.64534
▁erkek	-9.64554
▁شي	-9.64606
مة	-9.64626
هر	-9.64676
▁उत्तरी	-9.64703
san	-9.64758
▁كلمة	-9.64864
▁سكان	-9.65034
▁2009	-9.65068
▁ر	-9.65081
▁İspanya	-9.65141
▁amacıyla	-9.6516
▁görenler	-9.65177
▁أوروبا	-9.65226
ठ	-9.65273
▁जीव	-9.65303
▁العرب	-9.6532
▁المواد	-9.65323
▁girdi	-9.65361
nce	-9.65384
▁القديمة	-9.65388
DE	-9.6544
▁द्वीप	-9.65635
▁filmleri	-9.65706
▁Ko	-9.65714
▁अल	-9.65717
▁altı	-9.6572
एं	-9.65739
▁१८	-9.65759
▁देख	-9.6578
▁कु	-9.65805
kten	-9.65949
▁gemi	-9.65989
▁el	-9.66059
▁Muhammed	-9.66067
▁Yaşayan	-9.66067
▁झारखंड	-9.66067
▁नाडु	-9.66176
▁mimar	-9.66276
▁دو	-9.66341
▁Halk	-9.66359
▁dizi	-9.66376
▁halinde	-9.66392
iyet	-9.66416
▁merkez	-9.66526
▁takvim	-9.66672
▁50	-9.66852
▁birbirin	-9.66864
▁ad	-9.66941
▁onun	-9.66999
▁görülür	-9.67002
▁अथव	-9.67009
▁t	-9.67012
كر	-9.67072
▁केंद्र	-9.67091
نج	-9.67141
▁alanı	-9.67199
▁توجد	-9.67282
▁ओड़ि	-9.67352
رك	-9.67396
ारिक	-9.6741
▁kültür	-9.67484
abilir	-9.67509
▁Bölgesi	-9.67652
▁दे	-9.67678
در	-9.67748
ثناء	-9.67803
land	-9.67927
▁siyasi	-9.67945
▁रामायण	-9.67945
▁dış	-9.67949
مو	-9.67977
▁An	-9.68022
▁نصف	-9.68037
▁الرابطة	-9.68053
▁वस्तु	-9.68106
▁Te	-9.68132
ओ	-9.68134
▁dilleri	-9.68139
प्र	-9.68204
▁etmek	-9.68226
▁dik	-9.68269
سون	-9.68361
वी	-9.68411
▁أمريكي	-9.68494
▁doğumlu	-9.68696
12	-9.68738
▁George	-9.68815
rak	-9.68825
29	-9.68838
▁ديسمبر	-9.68897
▁परमाणु	-9.68897
▁kalan	-9.68956
▁durum	-9.68966
▁सि	-9.69028
78	-9.69051
سو	-9.69067
▁तब	-9.69134
राज	-9.69156
▁चित्र	-9.69162
▁दर्शन	-9.69164
वाद	-9.69186
▁çoğu	-9.69302
ac	-9.69315
22	-9.69376
▁hakkında	-9.69401
▁ağ	-9.69484
▁sona	-9.69584
▁çizgi	-9.69585
▁kelimesi	-9.6965
▁مت	-9.69664
ık	-9.6967
▁غ	-9.69698
▁Or	-9.69735
",	-9.69763
वाँ	-9.698
बा	-9.69815
▁بل	-9.69822
▁teorisi	-9.69824
▁अपना	-9.69858
▁नायनमार	-9.69859
up	-9.69884
▁المناخ	-9.69893
▁حرب	-9.69992
60	-9.70018
▁babası	-9.70039
▁يساوي	-9.7004
yu	-9.70066
▁نا	-9.70153
▁وكانت	-9.70195
▁बे	-9.70226
▁resm	-9.70291
▁ला	-9.70342
▁?	-9.70379
وزراء	-9.70459
زو	-9.70614
▁ölçü	-9.70717
▁kullanımı	-9.70806
▁قياس	-9.70835
X	-9.70875
▁विशेष	-9.70907
▁पाकिस्तान	-9.71072
▁बहार	-9.71091
▁h	-9.71149
sinin	-9.71155
▁لو	-9.71184
▁पहल	-9.71199
▁Rönesans	-9.71212
▁مر	-9.71441
▁Süleyman	-9.7153
▁yanı	-9.71535
▁dönemde	-9.71548
▁حكم	-9.7163
▁صور	-9.71673
पर	-9.71685
yo	-9.71742
▁قو	-9.71783
▁प्रयुक्त	-9.71824
▁bağımsız	-9.71829
▁aşağıdaki	-9.71838
تكون	-9.71873
यदि	-9.71874
نس	-9.71878
ab	-9.71937
▁كو	-9.71941
यूरोपीय	-9.71954
▁استخدام	-9.72039
▁بم	-9.72164
▁العربي	-9.72337
sinde	-9.72349
95	-9.72354
▁وسط	-9.72433
▁şiir	-9.72553
▁geldi	-9.7256
▁يت	-9.72586
▁uygulama	-9.72589
▁الرسمي	-9.72601
▁Ni	-9.72665
▁नेता	-9.72737
ecek	-9.7278
▁York	-9.728
▁Bunlar	-9.72846
▁د	-9.72868
▁لكن	-9.72899
ंत	-9.72931
▁000	-9.72953
▁الولاية	-9.72962
िन	-9.7305
▁hükümdarı	-9.73073
izm	-9.7311
نباتات	-9.7313
▁|-	-9.73131
पा	-9.73142
▁حروف	-9.73201
▁فرنسا	-9.7323
24	-9.73241
mer	-9.73275
86	-9.73336
▁सेना	-9.73357
▁takımı	-9.73416
ाल	-9.73539
▁बा	-9.73636
▁كبير	-9.73698
▁झील	-9.73736
क्ष	-9.73745
اني	-9.73771
ley	-9.7379
▁satranç	-9.738
▁مواقع	-9.738
▁अप्रैल	-9.738
▁uluslararası	-9.738
▁belirli	-9.73801
▁Kemal	-9.73809
▁Krallığı	-9.73818
اك	-9.73845
▁सम्मानित	-9.73851
▁1987	-9.73873
▁करती	-9.73893
जन	-9.73897
▁To	-9.74003
▁अब	-9.74046
69	-9.74096
▁tarihçi	-9.74109
▁Sen	-9.74181
▁अधिकार	-9.74254
▁sonunda	-9.74273
▁३	-9.74346
▁doğa	-9.74398
▁İtalya	-9.74412
kı	-9.74418
sına	-9.7446
▁sitesi	-9.74534
كن	-9.74538
13	-9.74544
▁मार	-9.74552
92	-9.74765
▁çıktı	-9.74802
▁Altın	-9.74803
▁फिर	-9.74809
▁राजस्थान	-9.74815
▁Adaları	-9.74835
▁आधिक	-9.74862
▁1960	-9.74939
▁يعتبر	-9.74975
वें	-9.74977
▁roman	-9.7499
▁Ana	-9.75028
▁पृष्ठ	-9.75089
▁ولد	-9.75188
3)	-9.75193
▁بر	-9.75206
91	-9.75312
▁Es	-9.75328
▁फ़	-9.75417
▁şey	-9.75452
يز	-9.75453
दोनों	-9.75479
वार	-9.75481
▁समुद्र	-9.75483
74	-9.75509
27	-9.75636
▁bilimci	-9.75663
▁sahibi	-9.75718
▁क्रिकेट	-9.75773
lük	-9.75799
▁Trabzon	-9.75831
▁दुनिया	-9.75832
▁الموقع	-9.75923
▁1980	-9.76004
-2	-9.76086
▁ekonomik	-9.76105
▁جو	-9.76168
▁aldığı	-9.76187
▁Nüfus	-9.76223
ham	-9.76266
ष	-9.763
مملكة	-9.76397
kullanılmaktadır	-9.7641
von	-9.76427
▁İl	-9.7646
▁صفح	-9.76467
▁IV	-9.76473
▁मिला	-9.7653
▁ha	-9.76643
▁الدولي	-9.76675
▁ailesi	-9.76685
▁sınıfı	-9.76703
▁उन	-9.76743
غا	-9.76823
ry	-9.76845
▁eseri	-9.76851
▁प्रधानमंत्री	-9.76862
▁Robert	-9.76863
▁Antik	-9.76883
▁बड़े	-9.76909
▁मृत्यु	-9.76975
स्	-9.7702
▁خاصة	-9.77099
▁Ho	-9.77177
يك	-9.77268
ara	-9.77351
▁مركز	-9.77414
▁halin	-9.77464
▁yerleşim	-9.77761
°	-9.77766
عملية	-9.77767
▁yaşam	-9.77819
टा	-9.7785
▁üyesi	-9.77888
ुनिक	-9.77893
▁महत्वपूर्ण	-9.77904
▁verilir	-9.77905
▁क्षेत्रफल	-9.77908
▁وجود	-9.77912
▁Bar	-9.77913
▁sıcaklık	-9.77923
▁1969	-9.77923
▁edilmiştir	-9.77924
بو	-9.77934
▁बनाया	-9.77936
▁oyuncusu	-9.77953
▁çalışan	-9.77954
▁पश्चात	-9.77997
ici	-9.78014
ेट	-9.7805
if	-9.7808
▁Bizans	-9.78109
▁كبيرة	-9.78325
▁فقد	-9.78351
سلسلة	-9.78414
ent	-9.78429
हा	-9.78473
بال	-9.78474
॰	-9.78485
▁ki	-9.78491
▁أر	-9.78546
▁نحو	-9.78571
▁كون	-9.786
رد	-9.78621
▁الجنوب	-9.78668
▁مرة	-9.78825
ji	-9.78852
ोर	-9.78937
▁Washington	-9.78956
▁Erkek	-9.78957
▁الموجود	-9.78959
▁belli	-9.7897
▁sistemleri	-9.78978
▁1975	-9.78979
▁Ro	-9.78982
▁Arap	-9.78993
▁البلاد	-9.78999
▁दिशा	-9.79007
▁معرض	-9.79013
▁kökenli	-9.79016
4)	-9.79022
sh	-9.79063
▁bilinir	-9.79082
oloji	-9.79092
81	-9.7916
▁Dr	-9.79164
▁غر	-9.79191
▁grup	-9.793
▁kolay	-9.79333
▁mal	-9.79383
देव	-9.79399
▁الكيمياء	-9.79425
ünü	-9.79486
طي	-9.79503
▁yanında	-9.79509
W	-9.79561
▁çalışma	-9.79631
▁सूर्य	-9.79699
93	-9.79699
्या	-9.79702
قاعدة	-9.7977
▁الاتحاد	-9.79859
▁Polonya	-9.79934
▁اله	-9.79969
▁temsil	-9.80017
▁1988	-9.80031
▁साहित्यकार	-9.80038
ov	-9.80147
▁1964	-9.80151
▁annesi	-9.80167
asyon	-9.80213
▁edebiyat	-9.80225
▁Allah	-9.80231
▁السودان	-9.803
▁लोक	-9.80339
▁जून	-9.80347
▁1995	-9.80421
▁Cumhuriyet	-9.8051
▁الغ	-9.80514
▁نظرية	-9.80529
▁تلك	-9.80532
▁Matematik	-9.80625
سر	-9.80626
▁Kal	-9.80643
▁diye	-9.80673
▁دولة	-9.80688
गल	-9.80743
▁Edebiyat	-9.80767
▁derece	-9.80821
▁ülkeler	-9.80832
▁جي	-9.8084
िका	-9.80874
▁अंग	-9.80904
▁şehri	-9.80921
▁makam	-9.80936
्ट	-9.80988
▁kısmı	-9.81017
▁फ्रांस	-9.81088
▁खिलाड़ी	-9.81095
▁आबाद	-9.81102
▁sanatı	-9.81105
▁program	-9.8115
▁Ekonomi	-9.81194
▁oyunu	-9.81286
جد	-9.81323
▁2015	-9.81344
صناعة	-9.81367
ina	-9.81373
▁وصل	-9.81394
▁padişahı	-9.81394
▁örnek	-9.81419
▁Ben	-9.81441
ası	-9.81504
عادة	-9.81506
taki	-9.81564
▁समूह	-9.81618
▁güç	-9.81659
▁okul	-9.81717
▁كال	-9.81759
56	-9.81778
21	-9.81829
नाथ	-9.81964
هما	-9.81969
▁işletim	-9.82183
fe	-9.82194
▁2017	-9.82245
▁veren	-9.82263
▁माता	-9.82275
عتمد	-9.82296
▁لأن	-9.82314
हार	-9.82405
▁महा	-9.8241
▁40	-9.82431
van	-9.82432
▁değişik	-9.82466
كان	-9.82475
üm	-9.82573
▁ka	-9.82587
▁الغربية	-9.82604
01	-9.82624
गर	-9.82626
ser	-9.82693
▁üretim	-9.82728
▁Fakültesi	-9.82907
dü	-9.83059
û	-9.83071
ger	-9.8312
▁प्रभाव	-9.83178
ی	-9.83181
آ	-9.832
▁ölümü	-9.83265
▁edilmektedir	-9.83285
▁İnsan	-9.83288
▁संगठन	-9.83291
ard	-9.83366
var	-9.83398
डी	-9.83542
BN	-9.83599
اط	-9.83626
मृ	-9.83627
▁ऋषि	-9.8364
▁सागर	-9.83654
دى	-9.83731
ائم	-9.83736
leriyle	-9.83765
▁उपन्यास	-9.83778
यों	-9.83815
▁पूर्वी	-9.83816
▁1982	-9.84056
İngilizce	-9.84087
▁توضيح	-9.84135
▁güney	-9.84324
▁अनु	-9.84342
bar	-9.84364
▁2016	-9.84381
▁शुरू	-9.84392
▁Karadeniz	-9.84392
▁تعني	-9.84392
▁संख्या	-9.84397
▁पानी	-9.84425
▁günümüzde	-9.84453
▁الشيخ	-9.84457
▁दूर	-9.8446
طل	-9.8447
▁anlamı	-9.84497
▁فبراير	-9.84553
▁bölgesinde	-9.84571
▁रही	-9.84631
▁وله	-9.84658
▁العراق	-9.84659
▁جميع	-9.8469
▁değeri	-9.84723
▁Gu	-9.84735
▁भौतिकी	-9.84751
▁الدول	-9.84853
२	-9.84859
uz	-9.84908
▁İlçe	-9.85032
▁نسبة	-9.85082
▁Fransızca	-9.85119
49	-9.85121
جزء	-9.85226
ie	-9.85228
28	-9.85262
▁yazılımları	-9.8527
جدول	-9.85293
")	-9.85373
ٍ	-9.85516
▁televizyon	-9.85516
▁जुलाई	-9.85516
▁المصادر	-9.85516
▁1985	-9.85531
▁1966	-9.85533
▁1948	-9.85534
اه	-9.85582
وري	-9.85617
▁kırmızı	-9.85619
ng	-9.85646
▁العاصمة	-9.85648
ers	-9.85686
▁बने	-9.85702
▁متر	-9.85733
▁مما	-9.85736
▁रखा	-9.85803
lardır	-9.85854
▁renkli	-9.85855
▁dünyanın	-9.85868
▁معظم	-9.85883
▁बात	-9.85904
▁Ku	-9.85952
मन	-9.85962
▁bölümü	-9.85975
▁İç	-9.85985
▁मान	-9.86053
ion	-9.86102
حتوي	-9.86108
▁لت	-9.86256
▁Özel	-9.86259
▁मि	-9.86496
▁konusu	-9.86516
▁Ermeni	-9.86605
३	-9.86637
▁hafta	-9.86652
▁asal	-9.86657
▁अनेक	-9.86658
▁सामान्य	-9.86658
▁خريج	-9.86659
▁पत्नी	-9.86673
▁غا	-9.86813
▁पद	-9.86814
▁Tarih	-9.86903
▁अन	-9.8699
▁روابط	-9.8702
وع	-9.87099
▁Jo	-9.87107
▁der	-9.87171
▁yan	-9.87199
64	-9.87204
هذه	-9.87289
▁benzer	-9.87292
▁takım	-9.8737
▁bile	-9.87418
▁الحرف	-9.8742
▁1922-	-9.8742
لف	-9.87478
▁adlandırılmış	-9.87486
ظهر	-9.87496
▁Ju	-9.87573
▁hayvan	-9.87659
▁गो	-9.87663
▁genç	-9.87767
كون	-9.87771
उ	-9.87778
رؤساء	-9.87801
▁अक्टूबर	-9.87801
▁içeren	-9.87801
▁محافظات	-9.87801
▁लिपि	-9.87802
▁जहाँ	-9.8781
▁almaktadır	-9.87828
سب	-9.87844
▁1973	-9.87845
▁रे	-9.8785
▁yine	-9.87871
▁60	-9.87877
▁yazdığı	-9.8794
▁terimleri	-9.87972
▁الحكم	-9.87972
यूनानी	-9.88027
▁سان	-9.88068
▁İki	-9.88073
les	-9.8815
▁başlar	-9.88174
ेड	-9.88194
36	-9.88279
▁birimi	-9.88303
▁عادة	-9.88377
▁IS	-9.88379
▁In	-9.88413
muş	-9.88463
ाय	-9.88553
▁alanında	-9.88565
▁ettiği	-9.88723
▁الشرق	-9.88809
▁la	-9.88887
▁संपाद	-9.88898
▁दौरान	-9.88965
▁Am	-9.88977
कि	-9.88999
▁2013	-9.89003
▁हिस्सा	-9.89015
▁سا	-9.89088
▁अयोध्या	-9.8913
▁yeşil	-9.89132
▁Bal	-9.89183
يان	-9.89246
▁1950	-9.89253
▁ama	-9.89437
cılık	-9.89493
▁sağlar	-9.89497
▁2018	-9.8952
▁1976	-9.89538
▁rol	-9.89566
▁sanatçı	-9.89705
▁الثالث	-9.89773
وز	-9.89776
▁व्यापार	-9.8981
مار	-9.89818
▁Hi	-9.8988
ाव	-9.89968
ret	-9.89995
▁Azerbaycan	-9.90141
▁लोकप्रिय	-9.90141
▁birkaç	-9.90143
yor	-9.90144
▁القرآن	-9.90145
▁مليون	-9.90152
▁1974	-9.90163
▁चुक	-9.90233
▁कथा	-9.90246
48	-9.90263
رغم	-9.90281
her	-9.90295
سا	-9.90307
▁İş	-9.90312
▁مختلفة	-9.90315
▁inşa	-9.90335
رن	-9.90344
▁الحياة	-9.90373
hu	-9.90379
▁Yayınları	-9.9039
شت	-9.90403
▁الماء	-9.90538
▁et	-9.90554
ائي	-9.90604
ूर	-9.90658
▁الز	-9.90683
▁So	-9.90721
▁الط	-9.90752
▁बि	-9.90824
بدأ	-9.90852
bir	-9.90858
▁देशों	-9.90864
▁programı	-9.90921
लि	-9.90976
▁ब्र	-9.91094
▁Kanada	-9.91109
▁bit	-9.9114
▁gösterir	-9.9119
▁طول	-9.9124
▁kent	-9.91249
09	-9.91259
▁oranı	-9.9127
स्थल	-9.91278
23	-9.91284
▁olma	-9.9132
الإضافة	-9.91325
▁नक्षत्र	-9.91331
▁جبال	-9.91344
▁1954	-9.91348
26	-9.91366
▁ऐस	-9.91383
▁मई	-9.91388
ान	-9.91428
▁مدار	-9.91435
مثل	-9.91438
लो	-9.915
▁ince	-9.91587
ड़ा	-9.91593
▁आता	-9.91635
▁Po	-9.9165
idae	-9.91662
▁أعضا	-9.91688
▁लाल	-9.91728
▁Der	-9.91742
▁No	-9.91791
रि	-9.91861
▁एशिया	-9.91918
▁2010-	-9.91921
او	-9.91966
▁योग	-9.91993
▁değer	-9.91998
▁بت	-9.92043
▁kan	-9.92163
▁batı	-9.92182
▁Ve	-9.92226
vo	-9.92263
▁oluşturur	-9.92325
▁hukuk	-9.92361
▁الجزائر	-9.92379
▁terimi	-9.92386
▁durumu	-9.92412
▁sınırları	-9.92413
▁göster	-9.92414
▁أل	-9.92428
oz	-9.9244
تفاعلات	-9.92501
▁स्वयं	-9.92536
▁इटली	-9.92536
▁बैंक	-9.92543
▁1971	-9.92551
رج	-9.9258
▁adet	-9.92587
▁النبي	-9.92644
▁عربية	-9.92672
بري	-9.9269
▁सह	-9.92707
رش	-9.92739
▁defa	-9.92748
▁Van	-9.928
▁رو	-9.9282
42	-9.92826
▁Gün	-9.92885
▁إسبانيا	-9.92888
गढ़	-9.92929
wa	-9.92939
▁üye	-9.92958
▁ada	-9.92976
▁بار	-9.92981
▁मन	-9.9305
▁Lo	-9.93064
fi	-9.93134
▁sistem	-9.93214
▁بلغ	-9.93238
▁شهر	-9.93239
▁1000	-9.93251
لق	-9.9336
▁स्व	-9.93445
meye	-9.93476
▁ekonomi	-9.93501
طر	-9.93505
▁نقطة	-9.93508
▁İsveç	-9.93641
▁दा	-9.93685
▁आधार	-9.93708
▁İrlanda	-9.93755
▁मौत	-9.93761
▁açısından	-9.93763
▁المناطق	-9.93781
tri	-9.93797
▁प्रकाशित	-9.93815
▁Johann	-9.93859
▁katıldı	-9.93869
▁खोज	-9.93879
▁mi	-9.93887
وال	-9.93903
▁المع	-9.93917
▁جبل	-9.94038
▁पुरुष	-9.94059
▁كيميائية	-9.94105
▁मैं	-9.94117
▁nokta	-9.94131
▁spor	-9.94144
▁परिवार	-9.94225
▁müziğinde	-9.94303
▁Ö	-9.94316
▁بحر	-9.94339
▁kuş	-9.94407
olog	-9.94409
डा	-9.94453
▁çalışmaları	-9.94476
85	-9.94542
▁teknik	-9.94594
▁alanları	-9.94599
ner	-9.94609
67	-9.94618
्त	-9.94702
▁Alt	-9.94748
بن	-9.94752
▁taş	-9.94774
▁doğu	-9.94903
▁رمز	-9.94927
▁पर्वत	-9.94947
▁Hollanda	-9.94976
▁उच्च	-9.9499
▁Abdullah	-9.9499
▁وحدات	-9.94992
38	-9.94994
▁vb	-9.95013
▁المعلومات	-9.95026
▁तट	-9.95059
▁Bilgisayar	-9.95104
▁الطاقة	-9.95159
▁1944	-9.95195
▁Dil	-9.95222
▁स्वामी	-9.95237
▁نو	-9.95274
▁GNU	-9.95331
▁sarı	-9.95429
▁جمهورية	-9.9553
▁Du	-9.95802
▁an	-9.95933
▁असम	-9.95944
▁नेपाल	-9.95945
▁noktası	-9.96044
▁fak	-9.9608
ō	-9.96081
▁tamam	-9.96122
बी	-9.96156
▁الغرب	-9.96204
ağı	-9.96208
▁اليابانية	-9.96223
▁Uzun	-9.96236
▁doğdu	-9.96236
▁Eğitim	-9.9624
▁Fizik	-9.9624
▁1946	-9.9624
▁1983	-9.96255
▁yok	-9.96258
▁केरल	-9.96261
▁Hatun	-9.96261
▁العنصر	-9.96276
▁पॉटर	-9.96276
لت	-9.96283
▁İmparatoru	-9.96285
kar	-9.96285
▁الكربون	-9.96302
▁أيام	-9.96324
▁द्वितीय	-9.96355
▁1989	-9.9638
▁सेवा	-9.9638
▁Joseph	-9.96388
از	-9.96517
▁özelliği	-9.96522
كرة	-9.96548
66	-9.96615
▁الدورة	-9.96618
▁parçası	-9.9671
gar	-9.9678
ulusal	-9.96796
▁Baş	-9.96845
▁आग	-9.9686
▁Mu	-9.96896
ंद	-9.96955
met	-9.96993
اج	-9.97055
let	-9.97059
पूर्व	-9.9711
▁أد	-9.97138
▁Har	-9.97224
▁الإسلام	-9.97262
▁(17	-9.97285
▁enerji	-9.97356
▁शिक्षा	-9.97358
गो	-9.97361
قر	-9.97367
lerdir	-9.97436
ंस	-9.97484
}	-9.97496
▁Linnaeus	-9.97506
▁belediye	-9.97506
▁विवरण	-9.97506
▁दिल्ली	-9.97507
▁شركة	-9.97508
بين	-9.97508
▁gece	-9.97509
▁1957	-9.97522
▁किमी	-9.97588
▁मिलता	-9.97649
▁المستوى	-9.97698
▁başında	-9.97751
▁nedenle	-9.97752
निया	-9.97752
عاصمتها	-9.97765
▁रोमन	-9.97769
▁Şiir	-9.97789
▁ज़	-9.97813
isi	-9.97843
▁Ri	-9.97926
▁जि	-9.97945
fer	-9.98057
▁अंग्रेज़ी	-9.98079
▁पिता	-9.98126
▁yönetim	-9.98126
تميز	-9.98137
بان	-9.98155
▁verdi	-9.98168
▁dalı	-9.98201
▁nüfusu	-9.98241
▁الأمريكي	-9.98389
▁والت	-9.98408
▁eş	-9.98433
१	-9.98486
▁الشرقي	-9.98525
▁koyu	-9.98548
حالة	-9.98605
टर	-9.98662
87	-9.98671
▁devre	-9.98732
चल	-9.98748
ff	-9.98756
▁futbol	-9.98777
▁पुस्तक	-9.98778
▁David	-9.98788
▁modern	-9.98788
▁Edward	-9.98788
▁geleneksel	-9.98797
▁üçüncü	-9.98858
जन्म	-9.98866
▁الإنسان	-9.98908
kları	-9.98926
▁بايت	-9.98948
▁Ahmed	-9.98952
▁arası	-9.98968
▁Resim	-9.98979
ış	-9.98993
▁aile	-9.99016
▁बल	-9.99121
▁केवल	-9.99122
टो	-9.99192
▁beş	-9.99243
ियाँ	-9.99264
▁mu	-9.99354
77	-9.9936
▁Paul	-9.99384
▁कुमार	-9.99416
▁nüfus	-9.99445
▁onu	-9.99446
▁art	-9.99598
sının	-9.99662
▁Lu	-9.99706
▁bilimi	-9.99826
▁özgü	-9.99831
ll	-9.99836
▁बाल	-9.99957
gan	-9.99958
▁मत	-10.0002
زا	-10.0003
▁تت	-10.0007
▁छत्तीसगढ़	-10.0009
▁हजार	-10.0009
▁1968	-10.001
▁६	-10.0011
▁Öz	-10.0012
▁Bi	-10.0013
▁toplum	-10.0018
liğini	-10.0022
▁bazen	-10.0027
▁yıllık	-10.0029
वां	-10.0032
▁birimleri	-10.0037
▁घर	-10.0037
▁Açık	-10.0038
▁عبر	-10.0045
▁yönetmen	-10.0048
▁महान	-10.0051
▁madde	-10.0062
▁Günümüzde	-10.0063
क्स	-10.0063
بع	-10.0066
▁Par	-10.0066
िश	-10.007
▁geç	-10.0074
▁yarı	-10.0082
▁عقد	-10.0094
मि	-10.0099
ेयर	-10.0102
▁Sovyet	-10.0105
▁yapısı	-10.0106
مت	-10.0108
▁وس	-10.0117
ydi	-10.0118
▁kon	-10.0121
54	-10.0126
▁Osman	-10.0131
ydı	-10.0133
६	-10.0136
▁1977	-10.0136
▁yılından	-10.0139
▁destek	-10.0139
▁çiçek	-10.014
▁amacı	-10.014
▁Akdeniz	-10.014
▁ब्रिटिश	-10.014
▁yoktur	-10.0141
▁basit	-10.0142
▁1958	-10.0143
▁gerekir	-10.0143
राष्ट्रीय	-10.0144
▁burada	-10.0146
▁मो	-10.0146
▁الحدود	-10.0147
▁देने	-10.0149
▁فوق	-10.0151
▁स्थापित	-10.0152
धार	-10.0156
▁عنصر	-10.0164
▁ऐसा	-10.0166
▁yazarlar	-10.0168
▁üretimi	-10.0172
▁ألف	-10.0174
بعد	-10.0175
▁romanı	-10.0177
▁kurdu	-10.0182
ثر	-10.0183
▁दर	-10.0184
درس	-10.0188
can	-10.0188
ker	-10.0199
ino	-10.02
▁edebiyatı	-10.0203
▁Ga	-10.0212
62	-10.0222
39	-10.0224
▁يد	-10.0231
tü	-10.0236
▁verir	-10.0237
▁Fe	-10.0244
▁web	-10.0244
▁خط	-10.0245
▁işaret	-10.0246
▁मै	-10.0247
lis	-10.0258
مل	-10.0259
▁şekli	-10.0267
▁४	-10.0271
▁सब	-10.0273
▁Hindistan	-10.0274
▁Teknik	-10.0274
▁başlamıştır	-10.0275
▁कुरु	-10.0277
▁Fa	-10.0277
rt	-10.0279
▁Çağ	-10.028
▁Hasan	-10.0282
▁النهر	-10.0282
▁किलोमीटर	-10.0282
▁iddia	-10.0283
▁देवता	-10.0285
▁الل	-10.0285
▁İsveçli	-10.0286
ढ	-10.0287
▁Yunanistan	-10.029
دين	-10.029
▁imzalandı	-10.0291
▁الزمن	-10.0294
que	-10.0295
▁بك	-10.0295
▁Mü	-10.0299
▁Gazi	-10.03
▁erdi	-10.0302
ساحلية	-10.0308
▁müzisyen	-10.0311
أصبحت	-10.0322
رمز	-10.0324
larıyla	-10.0327
▁1945	-10.0332
▁وع	-10.0333
▁كارل	-10.0338
ant	-10.0338
زم	-10.0345
▁Ulus	-10.035
acak	-10.0351
ian	-10.0351
جار	-10.0355
▁تُ	-10.0361
▁görüntü	-10.0368
▁sonraki	-10.0376
▁जिनक	-10.038
05	-10.0383
▁katkı	-10.0385
▁إضافة	-10.0391
▁गीत	-10.0406
▁göç	-10.0408
▁4.	-10.0408
Haliotis	-10.0409
▁जनगणना	-10.0409
▁ışık	-10.0409
▁गयी	-10.0409
yon	-10.041
تس	-10.0411
▁إفريقيا	-10.0411
▁1956	-10.0411
▁وضع	-10.0412
विभिन्न	-10.0415
▁kat	-10.0418
▁katı	-10.042
िम	-10.0421
▁ग्रन्थ	-10.0421
▁आया	-10.0425
ّة	-10.0426
▁सर	-10.0427
▁الحكومة	-10.0428
▁केन्द्र	-10.0431
lla	-10.0431
▁geçmiş	-10.0434
دن	-10.0435
▁haber	-10.0437
▁1939	-10.0438
▁denizci	-10.0442
▁دون	-10.0444
▁şehirler	-10.045
▁يقع	-10.0452
▁ز	-10.0455
صورة	-10.0461
▁Art	-10.0462
▁إس	-10.0464
पि	-10.0465
▁Vi	-10.0465
▁°	-10.0468
esi	-10.0472
▁فون	-10.0474
ensis	-10.0479
دية	-10.048
zade	-10.0483
श्रेष्ठ	-10.0485
▁العالمية	-10.0486
ary	-10.0491
▁Car	-10.0492
राम	-10.0493
▁şairi	-10.0495
▁yaz	-10.0497
▁संग्रह	-10.0507
kat	-10.0511
قا	-10.0513
▁Arapça	-10.0515
مير	-10.0516
▁खेल	-10.0523
▁gerek	-10.0525
▁Sp	-10.0526
पी	-10.0529
ron	-10.053
غر	-10.0535
lak	-10.0538
▁1984	-10.0542
▁Şehir	-10.0546
▁Danimarka	-10.0546
▁tahta	-10.0546
▁آسيا	-10.0546
▁etmektedir	-10.0548
▁oluşturan	-10.0549
▁atom	-10.0549
▁बड़ी	-10.0552
▁top	-10.0556
▁1951	-10.0556
▁बनाने	-10.0562
▁البر	-10.0563
▁सम्बन्ध	-10.0566
▁video	-10.0566
sin	-10.0566
▁रहते	-10.0572
bilimsel	-10.0574
▁حين	-10.0578
▁فر	-10.0585
▁चि	-10.0587
▁teknoloji	-10.0588
ासिक	-10.059
lıdır	-10.0591
▁عبارة	-10.0595
▁أقل	-10.0596
تم	-10.061
evi	-10.0615
▁رقم	-10.0623
ğe	-10.0625
▁çalışmalar	-10.0625
▁fotoğraf	-10.0628
مدينة	-10.0632
0.000	-10.0634
▁إقليم	-10.0644
▁التالي	-10.0646
تل	-10.0652
▁gazeteci	-10.0659
▁रचना	-10.0659
▁فا	-10.0662
▁do	-10.0662
elli	-10.0664
يع	-10.0664
ऊ	-10.0668
▁अव	-10.0669
▁जे	-10.0672
▁Para	-10.0674
جمع	-10.068
▁داخل	-10.068
ेश्वर	-10.0682
▁भर	-10.0683
▁gök	-10.0684
▁olmuş	-10.0684
▁بواسط	-10.0685
▁iletişim	-10.0685
▁प्रेम	-10.0685
▁लाख	-10.0687
▁इनके	-10.0687
▁ön	-10.0688
ेन	-10.0688
▁kazandı	-10.0688
▁olsa	-10.0692
▁पृथ्वी	-10.0694
▁gösteren	-10.0695
▁yaşında	-10.0696
▁مصطلحات	-10.0698
▁yana	-10.0699
نت	-10.07
▁Türkçeye	-10.07
▁Top	-10.0702
▁fark	-10.0704
▁bölgesi	-10.0706
▁Gi	-10.0713
वंश	-10.0715
▁St	-10.0717
शन	-10.0718
▁(20	-10.0718
्म	-10.0719
89	-10.072
33	-10.0728
سن	-10.0734
eddin	-10.0741
كذلك	-10.0744
▁Mac	-10.0751
▁ني	-10.0762
▁المن	-10.0769
▁कभी	-10.0772
▁الرئيس	-10.0772
बर	-10.0773
▁الفترة	-10.0776
▁वा	-10.0777
▁तहसील	-10.0779
دل	-10.0781
▁كيميائي	-10.0785
▁أصبح	-10.0787
cha	-10.0797
▁renk	-10.0802
ष्ट	-10.0803
▁meyve	-10.0806
▁kelime	-10.0812
بار	-10.0815
▁Yüksek	-10.0824
▁फरवरी	-10.0825
▁उत्पन्न	-10.0825
▁Richard	-10.0825
▁Enstitüsü	-10.0826
▁sürekli	-10.0826
▁kurulmuştur	-10.0826
▁çoğunlukla	-10.0826
▁sabit	-10.0826
▁गये	-10.0826
arı	-10.0835
▁Brezilya	-10.0835
▁Hollandalı	-10.0836
▁Hava	-10.0839
▁19.	-10.0839
दी	-10.0841
sk	-10.0846
▁मिले	-10.0846
لاند	-10.0849
▁orman	-10.0853
dar	-10.0854
▁أفريقيا	-10.0855
▁{	-10.0861
▁الفرنسية	-10.0861
▁डे	-10.0865
▁ऐ	-10.0873
▁Barış	-10.0877
عم	-10.0878
▁zengin	-10.0879
▁Ge	-10.0883
din	-10.0891
▁र	-10.0895
ang	-10.0897
▁çocuk	-10.0897
▁Buna	-10.09
bet	-10.0901
rat	-10.0902
▁ara	-10.0905
قيمة	-10.0914
ından	-10.0924
MS	-10.093
▁कश्मीर	-10.0934
▁ar	-10.0935
▁futbolcu	-10.0938
▁الألمانية	-10.0941
▁انته	-10.0956
▁تو	-10.0957
▁İskoç	-10.0958
▁kontrol	-10.0961
▁papa	-10.0963
ده	-10.0967
▁kaynağı	-10.0968
▁radyo	-10.0968
▁University	-10.0968
▁sonrası	-10.0968
▁برمجيات	-10.0969
▁الهيدروجين	-10.0969
▁verilmiştir	-10.0969
▁1949	-10.0971
▁بحيث	-10.0971
▁भाई	-10.0971
▁Millî	-10.0971
▁1952	-10.0977
▁سم	-10.0978
zo	-10.0978
راء	-10.098
▁إبراهيم	-10.0981
▁औ	-10.0986
▁Ver	-10.0989
علماء	-10.0997
▁पद्म	-10.0997
5)	-10.0999
▁مساحة	-10.1003
الي	-10.1005
▁بلدية	-10.102
sinden	-10.1022
داء	-10.1023
▁‘	-10.1027
–19	-10.1031
▁güçlü	-10.1045
▁du	-10.1047
ाली	-10.1052
्यू	-10.1054
▁etkisi	-10.1055
▁çalıştı	-10.1058
las	-10.1064
▁makamları	-10.1064
tor	-10.1066
▁فلا	-10.1068
miz	-10.1072
يث	-10.1081
ub	-10.1088
ts	-10.1097
انية	-10.1099
मे	-10.1103
▁yıllar	-10.111
▁gezegen	-10.1113
▁الوقت	-10.1113
#	-10.1114
▁हाथ	-10.1115
▁1963	-10.1115
▁Çek	-10.1117
▁भाषाएँ	-10.112
▁pa	-10.1122
▁idi	-10.1122
▁ödül	-10.1123
▁بلاد	-10.1124
▁करके	-10.1125
▁Kadıköy	-10.1127
▁Avusturyalı	-10.113
▁Küçük	-10.1134
▁Latince	-10.1138
غن	-10.1141
▁kalın	-10.1141
▁fiziksel	-10.1148
▁yıllarında	-10.1149
▁şarkıcı	-10.115
mar	-10.1151
انت	-10.1155
▁Bölge	-10.1159
▁الجنوبية	-10.116
न्त	-10.1161
वास	-10.1166
▁boy	-10.1167
घ	-10.1169
बे	-10.1175
▁سياسي	-10.1178
▁آ	-10.1178
tal	-10.1186
lanma	-10.1187
▁kümesi	-10.1187
tre	-10.1189
▁Ağ	-10.1193
ند	-10.1201
art	-10.1202
▁sözcüğü	-10.1204
▁बनी	-10.1205
▁हा	-10.1207
üz	-10.1211
▁पी	-10.1216
hal	-10.1222
97	-10.1222
io	-10.1224
▁general	-10.1231
▁رأس	-10.1246
▁yaş	-10.1252
▁element	-10.1257
▁1965	-10.126
▁شركات	-10.126
▁गणितज्ञ	-10.1261
▁الأمر	-10.1261
▁yapmış	-10.1261
▁dikkat	-10.1261
▁kullanılmıştır	-10.1262
सर	-10.1264
▁शताब्दी	-10.1264
▁yapılmış	-10.1274
▁किए	-10.1274
▁يظهر	-10.1274
▁ismini	-10.1275
▁FK	-10.1277
▁सो	-10.1281
▁askeri	-10.1282
▁elektrik	-10.1289
▁yerleri	-10.1291
وادي	-10.1291
ow	-10.1292
▁नव	-10.1296
▁وبعد	-10.1296
tiği	-10.13
▁1972	-10.1303
Z	-10.1306
ائد	-10.1311
▁yıldır	-10.1315
▁चीनी	-10.1317
▁गंगा	-10.1317
لين	-10.1325
म्ब	-10.1327
▁dönemin	-10.1332
37	-10.1335
▁kişinin	-10.1335
che	-10.1336
▁unvanı	-10.1338
▁ذكر	-10.1345
▁21.	-10.1345
sam	-10.1349
▁شبه	-10.1351
▁कला	-10.1357
▁القديم	-10.1369
पन	-10.1372
köy	-10.1373
je	-10.1375
▁रूस	-10.1378
गी	-10.1378
▁सात	-10.1381
▁بول	-10.1384
غي	-10.1397
ينا	-10.1398
▁وإ	-10.1403
▁güzel	-10.1404
▁ول	-10.1404
▁समाज	-10.1406
▁yüzey	-10.1409
▁Eğer	-10.141
▁Çelebi	-10.141
▁Modern	-10.141
أقاليم	-10.141
▁निम्न	-10.141
▁heykeltıraş	-10.141
▁رموز	-10.141
▁mevcuttur	-10.141
illî	-10.1411
▁1955	-10.1411
▁لويس	-10.1412
▁1962	-10.1412
تع	-10.1413
▁kuzeyinde	-10.1413
तु	-10.1414
४	-10.1415
▁iken	-10.1415
▁يعرف	-10.1415
▁العالمي	-10.1415
▁Camii	-10.1418
▁2019	-10.1419
ana	-10.142
▁विषय	-10.1422
▁Ad	-10.1423
▁English	-10.1423
▁içerir	-10.1426
üs	-10.143
कल	-10.143
▁Suresi	-10.1431
▁चिकित्सा	-10.1431
▁ली	-10.1437
▁होकर	-10.144
▁hızlı	-10.1443
▁olmasına	-10.1449
▁sonucunda	-10.1451
زال	-10.1452
▁एस	-10.146
▁1922	-10.1462
▁गु	-10.1472
ama	-10.1475
▁Sure	-10.1475
ish	-10.1492
▁Ol	-10.1496
▁مي	-10.1502
▁</	-10.1509
▁الجزيرة	-10.1514
98	-10.1522
06	-10.1529
57	-10.1534
▁hak	-10.1544
lanması	-10.1546
▁35	-10.1549
▁Can	-10.1552
▁Şah	-10.1553
ستر	-10.1553
▁kâşif	-10.1561
▁hiçbir	-10.1561
▁مصري	-10.1562
▁مجلس	-10.1563
▁güneyinde	-10.1564
32	-10.1568
▁Irak	-10.1568
▁Kıbrıs	-10.1571
र्स	-10.1572
▁Parti	-10.1572
▁المادة	-10.1574
▁Milletler	-10.1575
سان	-10.1583
ويل	-10.1596
▁تسمية	-10.1598
▁पु	-10.1599
टी	-10.1606
جز	-10.1607
▁भू	-10.1609
पूर्ण	-10.1612
63	-10.1613
▁Sal	-10.1626
▁sınıf	-10.1628
जर	-10.1632
▁بور	-10.1636
▁genelde	-10.1639
ks	-10.1643
rit	-10.1648
▁Ek	-10.1648
▁بناء	-10.1654
رة	-10.1657
▁parti	-10.1658
▁منه	-10.166
كت	-10.1663
he	-10.1665
▁Pe	-10.1667
▁sonsuz	-10.1668
▁الغربي	-10.1674
فت	-10.1674
ıcı	-10.1675
▁بني	-10.1677
▁الشمس	-10.1683
▁hale	-10.169
▁شو	-10.1696
▁Kral	-10.1701
▁रह	-10.1703
rı	-10.171
ٌ	-10.1713
▁المغرب	-10.1713
▁At	-10.1713
mp	-10.1715
▁Atatürk	-10.1715
▁शरीर	-10.1715
▁गांधी	-10.1715
▁Hint	-10.1715
▁yönettiği	-10.1715
▁Genellikle	-10.1715
▁प्रान्त	-10.1716
▁1953	-10.1716
▁Aşk	-10.1717
▁1942	-10.1717
▁मणिपुर	-10.1718
▁ولايات	-10.1719
▁Özellikle	-10.172
▁kitap	-10.172
▁esas	-10.1721
▁Kent	-10.1723
▁إله	-10.1723
▁eşit	-10.1728
धा	-10.1732
▁yerlerde	-10.1734
▁تونس	-10.1746
83	-10.1749
ندي	-10.1753
▁الإسلامية	-10.1759
ياما	-10.1759
Ar	-10.1764
▁üniversite	-10.1765
▁gaz	-10.1768
şehir	-10.1769
Juni	-10.1784
▁जय	-10.1786
دون	-10.1787
▁yaşamış	-10.1788
▁हे	-10.1789
▁ड	-10.1794
اري	-10.1798
دور	-10.18
▁Ya	-10.1801
रत	-10.1804
▁العمل	-10.181
▁32	-10.1812
दास	-10.1813
car	-10.1814
هو	-10.1815
▁جر	-10.183
▁अंग्रेजी	-10.1835
▁küme	-10.185
▁kış	-10.1851
تش	-10.1853
▁is	-10.1855
्‍	-10.1862
tık	-10.1871
▁Özgür	-10.1871
▁İbrahim	-10.1871
▁घोषणा	-10.1871
▁धार्मिक	-10.1871
▁Moskova	-10.1871
▁ذرات	-10.1872
şa	-10.1872
▁तौर	-10.1873
▁divan	-10.1873
▁işlemi	-10.1873
▁günlük	-10.1874
▁etmiştir	-10.1875
▁politikacı	-10.1877
▁सम्मान	-10.1878
▁1961	-10.1879
▁रहत	-10.1879
तम	-10.1881
▁biçimde	-10.1883
▁diplomat	-10.1885
ram	-10.1885
chi	-10.1889
▁kendisi	-10.189
िस	-10.189
ेन्द्र	-10.189
▁शासन	-10.1906
▁yerel	-10.1909
▁Gül	-10.1909
▁işleme	-10.1917
▁العلم	-10.1919
▁ضد	-10.1921
▁مؤسس	-10.1924
صح	-10.193
▁ولم	-10.193
▁nesne	-10.1932
▁पत्रिका	-10.1935
▁دوري	-10.1937
▁metal	-10.1938
cü	-10.1941
ük	-10.1942
▁باي	-10.1942
tus	-10.1945
▁ölüm	-10.1952
▁150	-10.1953
▁US	-10.1955
طة	-10.1957
ışı	-10.1964
ुक	-10.1967
▁mü	-10.1968
ja	-10.1972
▁baskı	-10.1975
▁albümü	-10.1975
▁كي	-10.1976
bey	-10.1981
maz	-10.1984
kleri	-10.1986
▁konusunda	-10.1987
▁plan	-10.1993
hat	-10.2009
▁Ke	-10.2009
सित	-10.201
تال	-10.2011
كم	-10.2012
▁Sultanı	-10.2016
▁Portekiz	-10.2018
▁verildi	-10.202
bil	-10.2023
71	-10.2024
▁Friedrich	-10.203
▁उल्लेख	-10.203
▁मनुष्य	-10.203
▁साम्राज्य	-10.203
▁tercih	-10.203
▁अलावा	-10.203
▁सितंबर	-10.203
▁التقويم	-10.203
▁itibarıyla	-10.203
▁الكثير	-10.2031
▁التسمية	-10.2031
▁Coğrafya	-10.2031
▁artık	-10.2032
▁विवाह	-10.2032
▁kuruluş	-10.2032
▁1981	-10.2033
▁1979	-10.2033
▁Galeri	-10.2033
ुर	-10.2034
ृत	-10.2034
laşma	-10.2034
▁مكان	-10.2035
▁1990'	-10.2036
▁Selim	-10.2036
▁ويمكن	-10.2036
▁Venedik	-10.2037
▁مجال	-10.2038
لية	-10.204
▁Norveç	-10.204
▁गा	-10.2047
▁कै	-10.2052
▁Gra	-10.2056
دالة	-10.2058
net	-10.2058
سل	-10.206
द्ध	-10.2062
▁araştırma	-10.2063
▁sahne	-10.2065
▁dişi	-10.2067
▁Örnek	-10.2067
▁Gar	-10.2067
▁tamamladı	-10.2069
▁العدد	-10.2079
▁Kore	-10.2081
▁वर्तमान	-10.2082
▁başkenti	-10.2086
▁kahverengi	-10.2086
▁yöntemi	-10.209
▁eserler	-10.2094
▁إيران	-10.2114
82	-10.2117
ef	-10.2119
▁Ja	-10.2121
न्स	-10.2124
-3	-10.2126
aş	-10.213
न्तु	-10.2135
रु	-10.2141
▁1970	-10.2142
leşme	-10.2149
▁الفرنسي	-10.2151
متد	-10.2155
व्य	-10.2155
▁स्थिति	-10.2157
▁जापान	-10.2158
▁Tam	-10.2161
▁ليس	-10.2172
▁yeri	-10.2173
▁प्रकाश	-10.2178
▁निर्देश	-10.2179
lem	-10.218
▁طاقة	-10.218
▁edilmesi	-10.2182
▁خاص	-10.2183
ज्ञ	-10.2184
دع	-10.2184
▁durumda	-10.2185
▁आवश्यक	-10.2185
▁Kar	-10.2186
▁الاقتصاد	-10.2188
ढ़	-10.2188
▁açı	-10.2188
ولى	-10.2189
▁hâl	-10.2189
▁مح	-10.219
▁yumurta	-10.2191
▁कलियुग	-10.2191
▁मन्दिर	-10.2191
▁सोवियत	-10.2191
▁sağlayan	-10.2192
▁الأحمر	-10.2192
▁حساب	-10.2192
ंच	-10.2192
▁Divan	-10.2192
▁Çok	-10.2193
▁Kimya	-10.2194
▁1986	-10.2194
▁bak	-10.2198
▁Müzesi	-10.2201
▁الشهر	-10.2206
▁الناس	-10.2207
▁छोटे	-10.221
▁Lig	-10.2212
▁eser	-10.2215
عة	-10.2217
▁ظهر	-10.2221
▁गायक	-10.2228
▁ثلاثة	-10.2231
ेक	-10.2236
▁üzerindeki	-10.2237
43	-10.2242
▁as	-10.2243
▁समान	-10.2249
▁eserleri	-10.2252
▁birinci	-10.2258
nca	-10.2259
ذكر	-10.2264
nan	-10.2265
ترا	-10.2271
▁भूमि	-10.2273
▁थ	-10.2274
iyle	-10.2274
تهم	-10.2287
gel	-10.2288
▁edilmiş	-10.2288
▁grupları	-10.2289
क्र	-10.2297
▁akım	-10.2298
▁fiyat	-10.2308
▁१६	-10.2314
▁التفاعل	-10.2317
59	-10.2317
طائرات	-10.2318
-18	-10.2318
رق	-10.232
▁içindeki	-10.2321
▁düz	-10.2333
▁yapar	-10.2334
▁ثلاث	-10.2335
▁बु	-10.234
</	-10.2345
6)	-10.2348
47	-10.235
▁alma	-10.2352
▁geometri	-10.2355
▁Kalecik	-10.2355
▁yapılır	-10.2356
▁Orhan	-10.2357
▁1978	-10.2358
▁çay	-10.2359
▁مربع	-10.2361
▁bugün	-10.2362
▁कहानी	-10.2362
स्क	-10.2362
▁kaç	-10.2367
-12	-10.2371
▁الكويت	-10.2372
▁تتكون	-10.2379
ومي	-10.2382
▁الهند	-10.2384
▁الحرارة	-10.2388
▁On	-10.2391
▁Gölü	-10.2393
▁शक्ति	-10.2394
ولد	-10.2398
وج	-10.2403
▁Ama	-10.2404
unu	-10.2406
▁tak	-10.2408
▁etme	-10.2409
á	-10.2414
▁وح	-10.2416
▁قدم	-10.242
▁san	-10.2422
ns	-10.2426
▁makine	-10.2429
«	-10.2432
ris	-10.2433
▁1930	-10.2434
lanan	-10.2434
▁تمثل	-10.2434
▁başta	-10.2437
▁geçer	-10.2444
▁ثانية	-10.2445
▁निकल	-10.2446
▁فال	-10.2446
▁ست	-10.245
▁وج	-10.2455
▁पत्र	-10.246
▁Yer	-10.2467
▁Karl	-10.2468
▁Dağı	-10.2471
▁دور	-10.2484
▁Belediye	-10.2484
ban	-10.2488
ائر	-10.2504
▁القانون	-10.2507
स्थ	-10.2515
▁yolu	-10.2516
حسب	-10.2518
▁düşük	-10.2521
▁ऐतिह	-10.2522
▁Bakanlığı	-10.2522
▁سنوات	-10.2522
▁Böylece	-10.2523
▁Konak	-10.2523
▁yalnızca	-10.2524
▁1959	-10.2524
▁संगीतकार	-10.2524
راد	-10.2526
▁संस्थान	-10.2527
▁रा	-10.2527
पीठ	-10.2528
▁ayında	-10.2528
▁Sinema	-10.2531
hane	-10.2532
त्	-10.2533
▁निर्देशक	-10.2534
▁فلسطين	-10.2534
▁Hacı	-10.2534
▁الآن	-10.2536
▁الشكل	-10.254
▁ض	-10.2542
نظمة	-10.2544
दु	-10.2546
▁yapıldı	-10.2547
▁تعد	-10.2547
▁Kitap	-10.2548
▁başarı	-10.2555
भा	-10.2557
▁Ödülleri	-10.2558
▁dergisi	-10.256
لب	-10.2562
▁संस्कृति	-10.2567
وك	-10.2572
▁आई	-10.2573
rken	-10.2576
دير	-10.2576
▁دائرة	-10.2577
▁Kadın	-10.2582
▁गुण	-10.2588
▁öz	-10.2595
▁kır	-10.2597
▁lise	-10.2601
الم	-10.2603
فو	-10.2604
▁Aydın	-10.2605
▁değiş	-10.261
▁تضم	-10.261
▁Web	-10.2614
▁çift	-10.2616
▁çıkış	-10.2619
▁Sonra	-10.2625
▁شخص	-10.2626
▁وتم	-10.2627
▁öne	-10.2629
▁فان	-10.2631
लेकर	-10.2635
▁तीसर	-10.2636
▁kız	-10.2639
त्व	-10.2642
▁görevi	-10.2646
ंक	-10.2649
100	-10.265
▁45	-10.2654
▁bitkiler	-10.2655
ियो	-10.2656
▁नर	-10.2656
▁حجم	-10.2659
▁doktor	-10.2661
ıdır	-10.2671
७	-10.2673
عي	-10.2676
▁kök	-10.2676
▁kale	-10.2676
▁वर्ण	-10.2678
معرفة	-10.2679
تشي	-10.2679
▁faaliyet	-10.2688
▁siyaset	-10.269
▁मंगल	-10.2691
▁उद्योग	-10.2691
▁Bayezid	-10.2691
▁Betula	-10.2691
▁Wilhelm	-10.2691
▁district	-10.2691
▁كليفلاند	-10.2691
▁किनारे	-10.2691
▁Avustralya	-10.2691
▁الوحدات	-10.2691
▁बौद्ध	-10.2691
▁सिर्फ	-10.2692
▁nehri	-10.2692
▁style	-10.2692
▁taşıyan	-10.2692
أدوات	-10.2694
▁न्यू	-10.2694
▁Tahir	-10.2694
▁प्रवास	-10.2695
डे	-10.2695
▁विमान	-10.2697
94	-10.2699
▁يقوم	-10.27
ॉन	-10.2701
▁sanatçısı	-10.2704
▁bunlar	-10.2707
▁الأم	-10.2711
yer	-10.2712
ये	-10.2712
▁elektronik	-10.2714
▁كلمات	-10.2715
▁Kutsal	-10.272
▁eğitimi	-10.2722
▁عثمان	-10.2729
▁الآ	-10.2734
yse	-10.2734
▁etrafında	-10.2736
▁कन्या	-10.2738
lanmıştır	-10.274
▁الرئيسية	-10.2741
ib	-10.2745
▁المر	-10.2746
मो	-10.2747
▁الشمالية	-10.2749
नो	-10.2751
31	-10.2754
kal	-10.2757
▁قب	-10.2762
lat	-10.2764
▁doğan	-10.2764
▁gazete	-10.2766
▁bölgede	-10.2768
र्क	-10.2768
▁الشرقية	-10.2769
bat	-10.2772
▁य	-10.2775
nik	-10.2776
▁جزر	-10.2778
▁عهد	-10.2779
تن	-10.2783
ment	-10.2786
▁१०	-10.279
▁ذو	-10.2798
▁kap	-10.2802
▁değiştir	-10.2802
▁ortalama	-10.2803
▁سن	-10.2804
أي	-10.2805
شا	-10.281
▁(1	-10.2813
खा	-10.2815
Ma	-10.2816
▁Sistemi	-10.2819
▁अंतर	-10.2822
45	-10.2833
▁كذلك	-10.2838
▁Cor	-10.284
▁لكل	-10.2841
▁kuramı	-10.2843
▁Ze	-10.285
▁ona	-10.2852
▁hesap	-10.2857
▁Derneği	-10.2864
▁जयंती	-10.2864
▁पर्यटन	-10.2864
▁Albert	-10.2864
ألعاب	-10.2865
▁gelmiştir	-10.2865
▁الوسطى	-10.2865
▁जगह	-10.2866
▁1967	-10.2866
▁यात्रा	-10.2867
▁जिससे	-10.2869
▁giren	-10.2871
▁بير	-10.2875
▁sene	-10.2876
▁العزيز	-10.2876
55	-10.2877
▁يو	-10.2878
▁ödülü	-10.2879
▁İkinci	-10.288
▁merkezli	-10.2882
न्न	-10.2885
imi	-10.2885
▁verdiği	-10.2887
uş	-10.289
युक्त	-10.2891
द्र	-10.2896
ince	-10.2898
▁الفيزياء	-10.29
▁قطر	-10.2904
Parus	-10.2907
▁लेख	-10.2911
रण	-10.2914
▁Per	-10.2915
▁analiz	-10.2917
▁hızı	-10.292
▁الأو	-10.2928
cak	-10.2933
▁dini	-10.2939
▁belde	-10.2942
▁sp	-10.2942
عود	-10.2946
▁hakları	-10.2949
q	-10.2951
▁Ev	-10.2953
अंग्रेज़ी	-10.296
http	-10.2961
▁अभि	-10.2961
▁Q	-10.2962
▁astronom	-10.2963
िर	-10.2968
▁etki	-10.2972
▁دا	-10.2977
يري	-10.298
1)	-10.2981
lanmış	-10.2981
ادة	-10.2983
▁yön	-10.2987
ilen	-10.299
▁الميلاد	-10.2992
lt	-10.2993
▁ميل	-10.2997
فيزياء	-10.3003
3.	-10.3004
لند	-10.3007
्रा	-10.3009
▁चला	-10.3011
خت	-10.3014
زاب	-10.3018
टीक	-10.3019
▁ऑफ	-10.3025
makta	-10.3026
▁वैद	-10.3028
मय	-10.3029
▁تل	-10.303
ağa	-10.3033
ft	-10.3035
▁التعليم	-10.3038
▁İnternet	-10.3039
▁ज्यादा	-10.3039
▁mantık	-10.3039
▁इस्तेमा	-10.3039
▁yaşadığı	-10.304
▁Mezarlığı	-10.304
▁हवाई	-10.3041
▁Familya	-10.3041
▁فارس	-10.3041
▁ilgi	-10.3043
oğduğu	-10.3043
▁दास	-10.3044
ğu	-10.3045
▁2020	-10.3047
▁adlandırılır	-10.3047
▁Başkanı	-10.305
▁Bulgaristan	-10.3051
▁başına	-10.3053
lüğü	-10.3054
▁मिल	-10.3057
▁النوع	-10.3058
▁kullanıcı	-10.3062
▁birim	-10.3064
▁वन	-10.3065
▁दिसंबर	-10.3065
خر	-10.3067
lığa	-10.3073
▁dizisi	-10.3075
▁राशि	-10.3075
idir	-10.3076
يار	-10.3083
▁وهذه	-10.3089
▁anlamda	-10.309
له	-10.3091
▁ak	-10.3092
▁kimyasal	-10.3094
▁ترتيب	-10.3097
▁yöntem	-10.3098
▁canlı	-10.31
▁alanda	-10.3103
est	-10.3106
▁kar	-10.3107
टन	-10.3107
rek	-10.3108
▁कह	-10.311
▁Var	-10.3117
▁isiml	-10.3117
84	-10.3126
▁200	-10.3129
▁eyalet	-10.3133
▁والح	-10.3136
acağı	-10.3136
▁7.	-10.3138
▁Denizi	-10.3141
zar	-10.3144
mon	-10.3144
til	-10.3146
بير	-10.315
فيل	-10.3151
liğ	-10.3151
▁जानत	-10.316
▁Bölümü	-10.316
▁क्षेत्रों	-10.3163
▁रि	-10.3165
شار	-10.3165
مرة	-10.3169
▁इनका	-10.3169
▁harfi	-10.3175
ीकरण	-10.318
▁الكبير	-10.3186
shi	-10.3188
▁Za	-10.3189
بورغ	-10.3196
▁maddeler	-10.3201
▁Ye	-10.3212
▁Ukrayna	-10.3214
▁सन	-10.3214
▁kes	-10.3216
▁Futbol	-10.3218
▁baştankara	-10.3218
▁क्योंकि	-10.3218
▁गणराज्य	-10.3218
▁रचित	-10.3219
▁मिस्र	-10.322
▁kullanılabilir	-10.322
▁mühendislik	-10.3222
▁Et	-10.3227
सन	-10.3229
▁Yahudi	-10.3234
▁doğusunda	-10.3238
लय	-10.3239
▁१२	-10.3239
▁البعض	-10.3239
lenmesi	-10.3241
▁çiz	-10.3242
▁ısı	-10.3244
▁الاست	-10.3248
▁مجموعات	-10.3249
▁1924	-10.325
वादी	-10.3256
▁listeleri	-10.3259
▁×	-10.3263
▁öğretim	-10.3264
▁biçimi	-10.3267
▁5.	-10.3268
▁تعريف	-10.3269
▁التالية	-10.3271
▁सत्य	-10.3273
▁شا	-10.3275
▁kullanılması	-10.3279
79	-10.3279
tion	-10.3282
tic	-10.3285
▁रोम	-10.3287
कु	-10.3288
▁Br	-10.3289
96	-10.3306
-20	-10.3308
▁düşünür	-10.3312
▁yüz	-10.3317
▁1947	-10.3319
إ	-10.3322
झ	-10.3323
छ	-10.3323
▁विक	-10.3323
▁जीत	-10.3326
भारत	-10.3326
هناك	-10.3328
suz	-10.3331
▁رابطة	-10.3334
▁طريقة	-10.3335
▁ट	-10.3338
اسم	-10.334
tin	-10.3348
ची	-10.3354
44	-10.3357
eceği	-10.336
لام	-10.3366
tes	-10.3369
ou	-10.3371
▁ayak	-10.3374
सं	-10.3376
مون	-10.3378
▁आत्म	-10.3378
▁işgal	-10.3381
▁yapmak	-10.3385
▁tekne	-10.3387
▁l	-10.3394
▁kavramı	-10.3395
▁Hüseyin	-10.3399
▁mücadele	-10.3399
▁sayesinde	-10.3399
▁الحاسوب	-10.3399
▁सामाजिक	-10.3399
▁شبكة	-10.34
▁पदार्थ	-10.34
▁Ti	-10.34
▁yönelik	-10.3402
▁1926	-10.3402
न्द	-10.3406
▁अध्यक्ष	-10.3407
▁تتبع	-10.341
▁sayfa	-10.3411
▁الأرقام	-10.3414
sch	-10.3418
▁Okulu	-10.3424
▁العثمانية	-10.3427
▁जर्मनी	-10.3427
sidir	-10.3431
वन	-10.3433
▁gitar	-10.3439
▁युवा	-10.3442
▁Adam	-10.3444
▁ağı	-10.3444
▁२०	-10.3444
اته	-10.3447
180	-10.3449
▁vitamini	-10.345
▁AMD	-10.345
-4	-10.3453
▁أس	-10.3459
▁yasa	-10.346
▁Beyliği	-10.3461
▁piyasa	-10.3462
▁kendini	-10.3463
فة	-10.3467
88	-10.3467
▁başkanlığı	-10.3467
▁كيلومتر	-10.347
८	-10.3473
▁مادة	-10.3473
lin	-10.3474
▁ardı	-10.3476
41	-10.3477
mız	-10.3478
▁الأح	-10.3478
ंतु	-10.3478
मत	-10.3479
▁अली	-10.348
▁değişken	-10.3482
lidir	-10.3485
▁şehrin	-10.349
▁Özellikler	-10.3493
aceae	-10.3496
▁ülkede	-10.3498
▁80	-10.3499
▁bulundu	-10.3507
satın	-10.3507
▁खान	-10.3516
-10	-10.3517
▁गाँव	-10.3518
▁Şu	-10.3519
▁anda	-10.3521
duğu	-10.3529
▁الأمير	-10.3541
▁Güzel	-10.3543
▁الكهربائي	-10.3544
حرارة	-10.3545
▁حركة	-10.3547
راف	-10.3548
▁geliştirme	-10.3552
▁engel	-10.3554
▁अरब	-10.3554
▁bölümünde	-10.3564
فار	-10.3567
▁الث	-10.3568
▁devletin	-10.3577
▁المدار	-10.3577
▁لإ	-10.3579
▁giriş	-10.358
▁بأن	-10.358
लु	-10.3581
lığını	-10.3584
▁Gök	-10.3584
▁Satranç	-10.3585
▁जम्मू	-10.3585
▁Grup	-10.3585
▁डी	-10.3585
▁Kardeş	-10.3585
▁तमिलनाडु	-10.3585
▁नवंबर	-10.3585
▁yemek	-10.3586
▁kullanarak	-10.3586
▁VIII	-10.3586
000	-10.3588
▁yoluyla	-10.3588
▁बदल	-10.3588
▁Burada	-10.3589
▁Tüm	-10.359
▁प्रकाशन	-10.3595
▁sözcükler	-10.3599
▁tane	-10.36
▁hakim	-10.36
▁kesin	-10.36
▁را	-10.3602
▁mezar	-10.3608
▁إليها	-10.3609
mesini	-10.3609
▁صغيرة	-10.3609
▁kayıt	-10.361
لك	-10.3611
▁الطب	-10.3612
▁işlem	-10.3614
्व	-10.3614
▁مقال	-10.3618
▁أعلى	-10.3619
▁kuvvet	-10.3619
▁sol	-10.3621
▁السعودية	-10.3622
▁seri	-10.3629
▁Yaşam	-10.363
▁toprak	-10.3631
رى	-10.3632
رين	-10.3635
ón	-10.3635
▁François	-10.3636
▁Zaman	-10.3636
▁sırada	-10.3637
▁मीटर	-10.3646
▁by	-10.365
▁Hayatı	-10.3652
▁Prof	-10.3654
▁الحالة	-10.3654
▁makamı	-10.366
ius	-10.366
▁करें	-10.3661
ट्ट	-10.3662
▁Ber	-10.3666
▁الحروف	-10.3671
▁Sol	-10.3675
▁zor	-10.3676
▁atan	-10.3676
leyen	-10.3684
▁1920	-10.3685
▁kodu	-10.3686
ِي	-10.3686
كتب	-10.369
▁can	-10.3705
▁yılda	-10.3706
اوي	-10.3706
▁insanların	-10.3707
Ş	-10.371
film	-10.3712
2.	-10.3714
ارة	-10.3714
▁sağ	-10.3715
▁gruplar	-10.372
▁memeliler	-10.372
iyor	-10.3721
▁ortam	-10.3721
सु	-10.3722
▁dünyada	-10.3724
▁pi	-10.3725
▁Cha	-10.3726
▁السابق	-10.3733
رات	-10.3733
▁فت	-10.3733
▁جديد	-10.3734
▁1923	-10.3735
▁park	-10.3737
▁ثاني	-10.3742
▁uzay	-10.3743
▁sürümü	-10.3747
1,	-10.375
حل	-10.3754
वान	-10.3756
8)	-10.3757
ोल	-10.3758
ضم	-10.3762
▁seçil	-10.3763
▁बच्च	-10.3764
شو	-10.377
▁sosyal	-10.3771
▁Latin	-10.3771
شتهر	-10.3771
▁Hikmet	-10.3773
▁TBMM	-10.3773
▁klasik	-10.3773
▁mucit	-10.3773
▁nasıl	-10.3773
▁serbest	-10.3773
▁संविधान	-10.3773
▁حاصل	-10.3773
▁संदर्भ	-10.3774
▁संघर्ष	-10.3774
▁हिंदू	-10.3774
▁अयोध्याकुल	-10.3774
▁Birinci	-10.3774
▁ateş	-10.3774
▁Katolik	-10.3774
▁bakımından	-10.3774
▁توماس	-10.3774
▁mezun	-10.3775
▁باشا	-10.3775
▁جغرافيا	-10.3775
معركة	-10.3775
▁tarım	-10.3775
▁halka	-10.3777
▁Takım	-10.3777
▁الصيغة	-10.3778
▁asit	-10.378
▁वर्णन	-10.3783
▁64	-10.3785
▁Yeşil	-10.3786
yn	-10.3786
▁üzerinden	-10.3788
▁kitapları	-10.379
ilmesi	-10.379
▁ممثل	-10.3791
▁السلطة	-10.3795
▁Yönetmen	-10.3796
▁ilçeleri	-10.3797
يكي	-10.3799
يّة	-10.3806
▁VI	-10.3806
▁Macaristan	-10.3806
جا	-10.381
▁المركبات	-10.3811
▁dalga	-10.3814
▁hazır	-10.3814
▁Üniversitesinde	-10.3814
▁Belediyesi	-10.3816
قدر	-10.3822
نز	-10.3823
▁derin	-10.3823
af	-10.3825
▁इं	-10.3828
mez	-10.3831
خل	-10.3833
▁Akademisi	-10.3842
▁CD	-10.3844
▁mühendis	-10.3845
▁36	-10.3846
्न	-10.3847
tif	-10.3847
ियन	-10.3848
▁zamanında	-10.3849
وني	-10.3849
▁تفاعل	-10.3851
طب	-10.3853
▁yoğun	-10.3853
siyle	-10.3864
▁sayıları	-10.3864
35	-10.3865
200	-10.3869
▁bazıları	-10.387
▁doku	-10.387
▁१७	-10.3871
ise	-10.3872
▁sistemler	-10.3873
▁altın	-10.3885
eti	-10.3891
▁ilişkin	-10.3896
▁बस	-10.3899
▁Veri	-10.3901
▁Mal	-10.3902
7)	-10.3904
▁الو	-10.3905
ska	-10.3908
▁mitolojisinde	-10.3913
▁başı	-10.3915
▁etmesi	-10.3922
▁الثامن	-10.3925
▁مركب	-10.3927
▁وما	-10.3929
بحيرة	-10.3931
ılır	-10.3931
▁جمع	-10.3932
▁For	-10.3943
▁sıcak	-10.3948
53	-10.395
▁كتابة	-10.3953
تواجد	-10.3955
द्	-10.3958
▁जादू	-10.3966
▁समुदाय	-10.3966
▁Antalya	-10.3966
▁Floransa	-10.3966
▁yavaş	-10.3966
▁मिश्र	-10.3966
▁कॉलेज	-10.3966
▁الأوروبي	-10.3966
▁शाखा	-10.3966
▁Sırp	-10.3966
حصول	-10.3966
▁açıldı	-10.3966
▁جيمس	-10.3966
▁विजय	-10.3967
▁gerekli	-10.3968
▁yayımlanan	-10.3968
▁المحيط	-10.3968
▁türüdür	-10.3969
▁أيزو	-10.3971
▁الترتيب	-10.3975
▁الخط	-10.3976
▁Ege	-10.3977
▁تش	-10.3981
▁परि	-10.3983
▁futbolcuları	-10.3984
▁يحتوي	-10.3985
ेल	-10.3986
▁मार्ग	-10.3986
▁çekirdek	-10.3989
▁standart	-10.399
▁Malus	-10.3993
▁अमर	-10.3993
डो	-10.4
▁üçgen	-10.4001
ेश	-10.4003
▁cam	-10.4007
▁Roman	-10.4012
▁فرع	-10.4013
▁yüksel	-10.4018
unun	-10.4019
خا	-10.4019
اغ	-10.402
▁silah	-10.402
▁فن	-10.4024
ih	-10.4028
ولي	-10.4032
▁قاد	-10.4037
▁Ser	-10.4037
▁فإنه	-10.4038
▁गुजराती	-10.4038
▁जु	-10.4039
par	-10.404
▁Java	-10.4041
▁yardımcı	-10.4048
▁वेद	-10.405
▁anlamında	-10.405
▁وك	-10.4052
▁نشيد	-10.4055
▁kaldı	-10.4057
▁حي	-10.4059
ell	-10.4061
▁CH	-10.4062
▁Ki	-10.4067
▁الألماني	-10.4069
▁oyuncuları	-10.4073
فضل	-10.4074
▁sure	-10.4079
▁ث	-10.4082
▁öğrenci	-10.4088
34	-10.4092
▁çalış	-10.4093
▁جزء	-10.4096
حلة	-10.4098
▁फल	-10.4099
▁كتب	-10.4101
dıkları	-10.4104
पश्चिम	-10.4105
The	-10.4108
▁دار	-10.4118
▁الكيميائي	-10.4122
▁Ulu	-10.4124
ica	-10.4124
▁Tur	-10.4129
▁مل	-10.413
▁uç	-10.4131
▁Meksika	-10.4132
▁Pro	-10.4136
▁दक्षिणी	-10.4141
▁Spor	-10.4143
▁(16	-10.4144
▁قانون	-10.4146
▁okulu	-10.4147
dil	-10.4147
▁tip	-10.4148
br	-10.4149
▁sayfası	-10.415
يش	-10.415
ünkü	-10.4155
▁Sosyal	-10.4155
▁ağacı	-10.4159
िये	-10.416
ova	-10.4161
رئاسة	-10.4162
▁Giovanni	-10.4162
▁सम्राट	-10.4162
▁सकती	-10.4162
▁खिलाफ	-10.4162
▁यज्ञ	-10.4162
▁semt	-10.4163
▁Saint	-10.4163
▁ödeme	-10.4164
▁başlıca	-10.4164
▁وغيرها	-10.4165
طا	-10.4167
▁alınan	-10.4167
▁كر	-10.4167
▁ري	-10.4168
▁Tıp	-10.4169
▁بلدات	-10.4169
ियम	-10.417
▁1935	-10.4171
▁प्राय	-10.4172
▁Romanya	-10.4173
▁الإلكترونات	-10.4173
अंतर्राष्ट्रीय	-10.4174
▁تي	-10.4174
▁yönetimi	-10.4174
ाह	-10.4174
▁Adana	-10.4175
▁yabancı	-10.4175
▁सीता	-10.4176
▁लिखी	-10.4177
▁الرقم	-10.4178
▁الطبيعة	-10.4178
احية	-10.4179
▁महादेव	-10.4181
▁अंत	-10.4184
▁يتكون	-10.4185
يلي	-10.4188
▁güneş	-10.4191
▁عين	-10.4192
▁هونشو	-10.4196
▁طائرة	-10.4196
ío	-10.4196
▁अप	-10.4205
याद	-10.4205
▁çevresinde	-10.4209
هن	-10.4213
حر	-10.4213
▁Av	-10.4217
▁Tek	-10.4219
don	-10.4223
▁hayvanlar	-10.4223
▁الصينية	-10.4225
▁१५	-10.4226
ız	-10.4229
ليل	-10.423
▁dans	-10.423
▁Ter	-10.4235
बल	-10.4239
▁bilgini	-10.4239
مس	-10.424
▁liste	-10.4244
▁tanı	-10.4244
▁doğumu	-10.4247
▁tablo	-10.4252
işi	-10.4257
▁بالم	-10.4263
ورو	-10.4263
لم	-10.4263
▁fa	-10.4267
▁राय	-10.4273
णी	-10.4275
▁जिन	-10.4276
bit	-10.4278
वत	-10.428
▁डि	-10.4283
ريا	-10.4284
▁kurulu	-10.4291
▁اكتشاف	-10.4291
▁kod	-10.4292
▁şarkı	-10.4294
▁पूर्ण	-10.4294
▁ग्रह	-10.4296
▁1918	-10.4297
सल	-10.4297
حة	-10.4299
müş	-10.43
▁hız	-10.4301
▁ürünleri	-10.4315
▁dışı	-10.4316
şah	-10.4317
▁fizik	-10.4317
ाबाद	-10.4317
▁olaylar	-10.4325
فهو	-10.4325
هي	-10.4326
▁oyna	-10.4328
▁kullanım	-10.433
▁140	-10.4334
▁وق	-10.4342
نقسم	-10.4342
▁sözcük	-10.4344
▁model	-10.4345
tığı	-10.4351
▁İmparator	-10.4353
▁سير	-10.4355
▁Mar	-10.4357
▁dağ	-10.4358
▁Yaz	-10.436
▁yuva	-10.4361
▁इस्लाम	-10.4361
▁عواصم	-10.4362
▁आंदोलन	-10.4362
▁कृषि	-10.4362
▁प्रारूप	-10.4362
▁defnedilenler	-10.4362
▁المختلفة	-10.4362
▁gelmektedir	-10.4362
archive	-10.4362
▁राजनीतिज्ञ	-10.4362
▁सीटें	-10.4362
▁باستخدام	-10.4362
▁तहसीलें	-10.4363
▁görülen	-10.4363
▁1938	-10.4365
▁بما	-10.4366
▁türlü	-10.4369
▁kullandığı	-10.4369
ात्मा	-10.4369
▁hayatı	-10.437
lanır	-10.4373
▁क्र	-10.4377
▁We	-10.4379
▁الأساسية	-10.438
unda	-10.4383
اتها	-10.4384
نغ	-10.4384
▁मर	-10.4385
▁İn	-10.4386
▁anlam	-10.4388
▁Mars	-10.4392
▁vergi	-10.4393
▁sayıların	-10.4395
▁şirketi	-10.4395
▁प्रसाद	-10.4396
صف	-10.4402
ill	-10.4405
▁Do	-10.4412
▁batısında	-10.4413
▁مثلا	-10.4422
▁لبنان	-10.4423
ात	-10.4425
▁७	-10.4425
▁kalma	-10.4425
هام	-10.443
▁القاعدة	-10.4433
AN	-10.4434
▁yedi	-10.4434
▁kol	-10.4437
▁नाथ	-10.4438
▁Kanunu	-10.4438
मारे	-10.4439
▁يع	-10.444
जे	-10.444
दर	-10.4441
▁kardeşi	-10.4448
▁أمريكية	-10.4448
५	-10.4448
▁الرسمية	-10.4453
र्ड	-10.4453
▁८	-10.4454
▁çek	-10.4454
▁سطح	-10.4455
१९	-10.446
▁önceki	-10.4462
بول	-10.4465
era	-10.4466
▁सौ	-10.4466
إدارة	-10.4469
▁अस	-10.4477
▁1940	-10.4478
ां	-10.4478
▁seçildi	-10.4483
▁Kor	-10.4486
table	-10.4487
▁نفسه	-10.4487
▁biçiminde	-10.45
▁مثال	-10.4504
كين	-10.4504
▁सुन	-10.4507
▁sistemin	-10.4516
▁yumuşak	-10.4517
so	-10.4518
▁bunun	-10.4519
▁başlandı	-10.4522
▁programları	-10.4524
▁be	-10.4526
برنامج	-10.4528
سكي	-10.4529
هندسة	-10.4532
ä	-10.4537
▁पंच	-10.454
ياً	-10.4541
चे	-10.4544
قوات	-10.4545
▁köşe	-10.4546
▁belge	-10.4552
▁ماري	-10.4555
edi	-10.4556
▁kilometre	-10.4557
▁perde	-10.4557
▁Bay	-10.456
▁tahmin	-10.456
▁Küre	-10.4563
▁Çocuk	-10.4565
▁antik	-10.4565
ğa	-10.4565
कांग्रेस	-10.4566
▁Donanması	-10.4566
▁Oğuz	-10.4566
▁talep	-10.4566
▁الرحمن	-10.4566
▁دمشق	-10.4566
▁अध्ययन	-10.4566
▁पवित्र	-10.4566
▁मौसम	-10.4566
Falco	-10.4566
▁aslında	-10.4566
▁Kurulu	-10.4566
▁कानून	-10.4566
▁२०११	-10.4566
▁tanımlanan	-10.4566
▁हेतु	-10.4566
▁Giray	-10.4566
▁كثير	-10.4566
▁ayrılır	-10.4568
▁भूमिका	-10.4569
▁الإمبراطور	-10.4569
▁halde	-10.4569
▁yardım	-10.4571
غير	-10.4574
gı	-10.4578
▁होगा	-10.4578
▁لأ	-10.4578
▁hastalığı	-10.4579
▁يعود	-10.458
▁kamu	-10.4582
▁mm	-10.4583
▁سابقة	-10.4586
▁sağlamak	-10.4586
▁1941	-10.4588
جير	-10.4591
▁سوريا	-10.4594
▁हत्या	-10.4596
▁بيت	-10.4597
يرا	-10.46
ınca	-10.4603
بك	-10.4604
our	-10.4604
▁1937	-10.4605
▁Mil	-10.4605
▁سام	-10.4611
▁الكتابة	-10.4612
▁Yunanca	-10.4613
▁cami	-10.4618
▁gövde	-10.4618
▁Mor	-10.4618
ting	-10.4619
▁Beyoğlu	-10.4622
▁إيطاليا	-10.4623
▁وقت	-10.4631
▁الأدب	-10.4633
ılması	-10.4635
▁पो	-10.4636
▁حدود	-10.4636
र्ट	-10.4637
▁शास्त्र	-10.4638
▁Sch	-10.4639
başı	-10.4642
▁हम	-10.4644
▁Pri	-10.4644
▁lideri	-10.4645
▁Ada	-10.4646
▁قوة	-10.4651
▁verme	-10.466
▁जिनमे	-10.4663
cilik	-10.4664
cılar	-10.4669
أن	-10.4675
مية	-10.4685
रू	-10.4688
▁yapma	-10.469
غور	-10.4691
ادي	-10.4693
र्ज	-10.4696
oksi	-10.47
▁झ	-10.4701
اكو	-10.4706
▁sanatçıları	-10.471
top	-10.4715
شير	-10.4721
▁yöntemleri	-10.4723
صل	-10.4725
▁(15	-10.4727
اكس	-10.4733
▁ileri	-10.4733
▁البريطاني	-10.4733
أكثر	-10.4734
▁Yıl	-10.4735
ضاف	-10.4736
▁संगम	-10.4738
▁القياس	-10.4742
tepe	-10.4748
▁1980'	-10.475
ize	-10.475
नाइट	-10.4751
ستان	-10.4754
▁غو	-10.4755
▁تا	-10.4756
▁Prusya	-10.4757
▁كلية	-10.4757
वाह	-10.476
ृ	-10.476
▁sert	-10.4762
▁أشهر	-10.4763
لس	-10.4766
▁proje	-10.4766
▁ziyaret	-10.4767
▁Kız	-10.4767
▁९	-10.4768
قام	-10.4771
▁Galatasaray	-10.4774
▁Kuşatması	-10.4774
▁السفلى	-10.4774
▁अकादम	-10.4774
▁ऋतु	-10.4774
▁निर्माता	-10.4774
▁popüler	-10.4774
▁İsmail	-10.4774
▁الكبرى	-10.4774
lenmiş	-10.4774
▁Nevşehir	-10.4774
▁महासागर	-10.4774
إناث	-10.4775
▁पांच	-10.4776
▁arazi	-10.4776
▁1931	-10.4777
▁yapmıştır	-10.4777
ـ«	-10.4778
▁नौ	-10.4778
▁उत्पादन	-10.4779
▁دولار	-10.478
▁Din	-10.478
▁ثنائي	-10.4781
▁kullanan	-10.4782
▁1910	-10.4782
كة	-10.4782
▁34	-10.4786
▁وعند	-10.4787
ميل	-10.4788
▁تقوم	-10.4788
▁निर्मित	-10.4788
▁İskoçya	-10.479
ानन्द	-10.479
bek	-10.4791
altı	-10.4791
يكو	-10.4792
▁otomobil	-10.4794
▁مقر	-10.4798
meyen	-10.4799
▁السلام	-10.48
▁سلال	-10.48
aj	-10.4802
▁Anne	-10.4803
▁inceler	-10.4804
of	-10.4805
▁önem	-10.4805
▁الرياضيات	-10.4806
▁إنتاج	-10.4812
▁bal	-10.4821
▁taşı	-10.4823
▁çalı	-10.4824
▁Mark	-10.4825
▁बम	-10.4826
▁एल	-10.4827
▁आने	-10.4827
▁चा	-10.4832
tek	-10.4835
▁جدا	-10.4835
▁33	-10.4847
▁numarası	-10.4849
▁تن	-10.4851
نية	-10.4853
▁ticaret	-10.4853
▁karşın	-10.4857
▁مار	-10.4858
▁Yapı	-10.486
iç	-10.4863
▁Kon	-10.4868
▁özgür	-10.4869
▁teori	-10.4873
▁Nu	-10.4876
بية	-10.4879
▁1943	-10.4883
▁uzak	-10.4885
يته	-10.4888
ımı	-10.4889
▁zamanla	-10.4905
▁اسمه	-10.4907
▁fotoğrafçı	-10.491
▁वर्षा	-10.4924
▁إلي	-10.4925
▁(10	-10.4928
قط	-10.4929
غل	-10.4931
▁kıl	-10.4931
غني	-10.4933
sur	-10.4934
▁Ch	-10.4935
ura	-10.4935
▁sonrasında	-10.4938
mur	-10.494
▁Baba	-10.4941
▁الخامس	-10.4947
أساطير	-10.4949
▁lider	-10.4954
▁birisi	-10.4954
▁getir	-10.4955
▁तु	-10.4956
▁adında	-10.4957
ayet	-10.4957
hen	-10.4963
▁kıta	-10.4965
ماس	-10.4967
▁özellikler	-10.4968
âr	-10.4975
مه	-10.4977
جن	-10.4982
α	-10.4986
ॅ	-10.4987
ā	-10.4987
▁bilinmektedir	-10.4987
▁अंतरिक्ष	-10.4987
▁अतिरिक्त	-10.4987
▁आंध्र	-10.4987
▁कंपनी	-10.4987
▁भूगोल	-10.4987
▁शुरुआत	-10.4987
أقصى	-10.4987
▁ticari	-10.4987
▁1925	-10.4987
▁البيانات	-10.4987
▁يجب	-10.4987
▁hekim	-10.4987
▁آلهة	-10.4987
▁روبرت	-10.4987
▁بيانات	-10.4987
▁Ferrari	-10.4987
▁ver	-10.4987
▁التراث	-10.4987
▁Kraliyet	-10.4988
▁Francisco	-10.4988
▁Sosyalist	-10.4988
▁साक्षर	-10.4989
▁نوبل	-10.4989
च्छ	-10.4989
▁Üst	-10.4989
▁सेनानी	-10.499
▁للعناصر	-10.499
▁इन्होंने	-10.4991
▁الصف	-10.4991
▁1927	-10.4991
▁1929	-10.4991
▁1912	-10.4991
▁Orman	-10.4991
▁çağdaş	-10.4992
▁Macar	-10.4992
▁valisi	-10.4993
▁अरुणा	-10.4994
▁Memlûk	-10.4996
posta	-10.4996
▁गू	-10.4996
acı	-10.4998
▁कहलाता	-10.4998
▁موسيقية	-10.5
▁makinesi	-10.5001
▁Oyuncu	-10.5002
▁karşılık	-10.5003
ire	-10.5004
▁الحزب	-10.5007
▁kendisine	-10.5009
▁مس	-10.5009
▁kavram	-10.5011
▁सिख	-10.5013
▁يابانية	-10.5015
müştür	-10.5016
▁çapında	-10.5017
ريك	-10.5017
▁90	-10.5021
▁المجال	-10.5022
▁शि	-10.5022
▁بورصة	-10.5024
▁katmanı	-10.503
qui	-10.503
▁बसा	-10.5032
कोट	-10.5033
▁काव्य	-10.5034
▁الكهربائية	-10.5034
ِّ	-10.5034
▁होना	-10.5036
▁Hal	-10.5038
▁चंद्र	-10.504
▁benzeri	-10.5042
▁kararı	-10.5045
▁وكل	-10.5047
ıyor	-10.5048
▁Bel	-10.505
▁نبات	-10.5051
▁दूरी	-10.5052
देश	-10.5053
sti	-10.5062
▁भूत	-10.5063
कोच	-10.5063
▁إذ	-10.5064
▁सिर	-10.5066
▁Jan	-10.5066
▁وصف	-10.5074
▁geçiş	-10.5077
▁Sir	-10.5078
▁جوزي	-10.5081
▁sanayi	-10.5083
gon	-10.5083
▁ملوك	-10.5086
▁قامت	-10.5086
शि	-10.5087
▁ध	-10.5088
▁مملكة	-10.509
▁سوري	-10.5092
▁آر	-10.5095
▁बर	-10.5096
ाने	-10.5099
▁Kan	-10.5103
فض	-10.5105
▁فعل	-10.5105
▁باللغ	-10.5106
جان	-10.5113
▁११	-10.5116
▁Dal	-10.5118
بات	-10.5118
án	-10.512
ıyla	-10.5132
िनी	-10.5137
▁yaprak	-10.5143
▁araştırmalar	-10.5143
▁تشكل	-10.5144
▁prensi	-10.5145
ज़ा	-10.5151
▁الياباني	-10.5152
▁bas	-10.5153
▁kurum	-10.5157
▁arada	-10.5157
▁toplan	-10.5159
▁غي	-10.5164
▁निवास	-10.5172
▁उन्हो	-10.5175
▁يح	-10.5176
चा	-10.5179
▁1960'	-10.5181
▁70	-10.5183
▁भाव	-10.5184
هد	-10.5189
▁أح	-10.5189
▁Ah	-10.519
▁ton	-10.5191
▁simge	-10.5191
يكان	-10.5193
▁الآخر	-10.5195
▁आठ	-10.5196
▁zarar	-10.5197
dağılı	-10.5202
▁yapılması	-10.5204
▁Demokrat	-10.5204
▁Kaliforniya	-10.5204
▁पाँच	-10.5204
▁शर्मा	-10.5204
॥	-10.5204
▁sinyal	-10.5204
▁Müdürlüğü	-10.5204
▁alındı	-10.5205
▁mavi	-10.5205
▁Murat	-10.5205
▁boyutlu	-10.5205
▁yayınlanan	-10.5206
▁المسلمين	-10.5206
▁Timur	-10.5206
▁विभाग	-10.5206
पति	-10.5206
▁शाह	-10.5207
▁फेर	-10.5207
▁متعلق	-10.5208
▁tanınan	-10.5208
▁ليبيا	-10.5209
▁USB	-10.5209
▁Kızıl	-10.5209
▁yazılan	-10.521
▁toplantı	-10.5212
▁جاء	-10.5212
▁إسرائيل	-10.5212
▁العصور	-10.5214
▁sözleşme	-10.5217
▁Carpinus	-10.5219
▁الضغط	-10.5219
▁dönüş	-10.522
زيد	-10.522
▁الإمبراطورية	-10.5221
▁iklim	-10.5222
una	-10.5224
▁Pierre	-10.5225
▁स्रोत	-10.5225
▁Musa	-10.5225
قوم	-10.5225
شعر	-10.5227
▁الرومانية	-10.5228
tom	-10.523
▁oldukları	-10.5233
▁hukuku	-10.5236
bin	-10.5236
▁أهل	-10.5242
▁Em	-10.5244
▁gir	-10.5248
▁Resmi	-10.5252
ano	-10.5254
▁وسام	-10.5259
ılmış	-10.5261
▁بالنسب	-10.5261
मल	-10.5262
▁etkili	-10.5272
▁kazan	-10.5274
▁sınırlı	-10.5275
▁يستعمل	-10.5282
▁Bilim	-10.5284
▁Ü	-10.5285
▁teknolojisi	-10.5287
▁ومنها	-10.5288
▁sınır	-10.5288
▁قيد	-10.5291
war	-10.5292
ल्ड	-10.53
▁रेल	-10.5301
▁Savaş	-10.5304
tör	-10.5308
rmiştir	-10.5308
▁نظرا	-10.5308
▁çeşit	-10.5308
▁संत	-10.5309
▁yönel	-10.531
layan	-10.5316
وث	-10.5317
▁Almanca	-10.532
▁والن	-10.5324
▁بنت	-10.5328
मर	-10.5328
▁لذلك	-10.5329
▁6.	-10.5329
hel	-10.5336
▁Bor	-10.5345
Si	-10.5347
▁so	-10.5348
.000	-10.535
▁dağılımı	-10.5355
▁araçları	-10.5358
▁Konu	-10.5361
▁isti	-10.5361
▁katman	-10.5363
▁Rum	-10.5364
يتو	-10.5367
▁वायु	-10.5367
▁सै	-10.5367
ियर	-10.5369
▁نادي	-10.5371
ارد	-10.5372
▁सभा	-10.5372
▁gri	-10.5374
▁Ala	-10.5375
▁rakam	-10.5379
çık	-10.5379
نون	-10.5385
▁السياسي	-10.5386
موسيقى	-10.5389
▁بعدها	-10.5392
▁توفي	-10.5393
▁जर्मन	-10.5393
▁देत	-10.5394
बदल	-10.5395
▁hasta	-10.5401
▁स्	-10.5405
▁Cem	-10.5406
▁çocuğu	-10.5406
▁مو	-10.5412
▁تعرف	-10.5415
dikleri	-10.5418
▁dalları	-10.5419
▁çözüm	-10.5421
▁ser	-10.5422
▁yanlış	-10.5424
▁तेज	-10.5425
▁Genç	-10.5426
▁Sırbistan	-10.5427
▁Şehzade	-10.5427
▁अधिकांश	-10.5427
▁तेलंगाना	-10.5427
▁Sivas	-10.5427
▁शुरु	-10.5427
▁karısı	-10.5427
▁ऊपर	-10.5427
▁Microsoft	-10.5427
▁topluluğu	-10.5427
▁الأبيض	-10.5427
▁स्वर्ण	-10.5427
▁الذرات	-10.5427
▁Berlin	-10.5427
▁Selçuklu	-10.5428
▁रखें	-10.5428
▁मानते	-10.543
▁toplumsal	-10.543
نر	-10.5431
▁गठन	-10.5432
▁1916	-10.5432
▁maden	-10.5432
يرو	-10.5432
▁ekran	-10.5434
▁2022	-10.5435
▁tabanlı	-10.5436
▁इंडिया	-10.5436
▁Konya	-10.5438
▁Temel	-10.5439
▁ülkelerde	-10.544
▁أمريكا	-10.5441
▁संस्थापक	-10.5441
▁जारी	-10.5443
▁اللون	-10.5446
▁Kuvvetleri	-10.5448
▁soyut	-10.5449
▁yüzden	-10.5452
اشي	-10.5455
▁August	-10.5455
▁dosya	-10.5455
▁الكم	-10.5458
▁الرئيسي	-10.5461
▁عنها	-10.5461
▁dalıdır	-10.5464
▁Mary	-10.5465
लिखित	-10.5465
▁sergi	-10.5466
▁tabi	-10.5467
▁بان	-10.5468
▁türler	-10.5468
مع	-10.5469
▁kullanıldığı	-10.5471
▁फिल्मों	-10.5474
▁buna	-10.5476
▁Martin	-10.5477
فاء	-10.5478
▁लि	-10.5481
▁लिखा	-10.5486
इन	-10.5492
lim	-10.5493
by	-10.5499
▁edebiyatında	-10.5502
tti	-10.5502
ائية	-10.5503
▁kuşları	-10.5509
▁पुरान	-10.551
'''	-10.5511
▁دير	-10.5512
▁Ru	-10.5514
ाइड	-10.5515
एस	-10.5516
زن	-10.5518
▁طوكيو	-10.5518
▁Eserleri	-10.5523
▁لأول	-10.5524
▁gen	-10.5527
▁düş	-10.5528
قد	-10.5538
▁odun	-10.554
masına	-10.554
▁olmadığı	-10.554
▁إليه	-10.5546
▁akımı	-10.5547
▁बो	-10.5547
lenen	-10.5549
َر	-10.5554
▁bağlan	-10.5555
▁توزيع	-10.556
ilmiş	-10.556
▁घटना	-10.5561
OS	-10.5564
कू	-10.5564
0)	-10.5568
▁قدر	-10.5573
▁السي	-10.5574
▁منهم	-10.5575
▁يهود	-10.5576
▁جعل	-10.5579
गु	-10.5581
▁besin	-10.5585
وصل	-10.5587
▁antlaşma	-10.5588
حي	-10.559
eli	-10.5595
▁عائلة	-10.5596
rom	-10.5597
▁#	-10.5597
▁نقل	-10.5597
▁Yan	-10.5597
قصة	-10.5598
▁सन्त	-10.5599
▁oyunları	-10.56
▁बहु	-10.5601
liğin	-10.5602
▁Bilgi	-10.5607
▁صوت	-10.5607
rem	-10.5612
▁शंकर	-10.5614
bra	-10.5614
▁حل	-10.5615
▁ويتم	-10.5615
قواعد	-10.5616
▁ألمان	-10.5617
▁धन	-10.5617
▁रो	-10.562
▁Bak	-10.5626
ांग	-10.5628
ولاية	-10.5628
يوس	-10.563
rum	-10.5631
▁suyun	-10.5634
▁İsviçre	-10.5637
▁ومع	-10.5638
رمان	-10.5639
▁لن	-10.5643
▁حاكم	-10.5643
▁ثابت	-10.5646
مات	-10.565
▁Türkçede	-10.565
া	-10.5654
ə	-10.5654
▁Birçok	-10.5654
▁Yarımadası	-10.5654
▁bayrağı	-10.5654
▁हरियाणा	-10.5654
▁1907	-10.5654
▁औसत	-10.5654
▁नागरिक	-10.5654
▁मुख्यमंत्री	-10.5654
▁Nehri	-10.5654
▁dolayısıyla	-10.5654
▁الفضاء	-10.5654
▁inceleyen	-10.5654
▁لندن	-10.5654
▁mümkündür	-10.5655
▁dijital	-10.5655
▁नदियाँ	-10.5655
text	-10.5656
▁takip	-10.5656
▁vade	-10.5657
▁موسى	-10.5657
रम	-10.5658
▁uzanan	-10.5658
▁desteği	-10.5658
▁मील	-10.5659
▁Tiyatro	-10.566
▁مقاطعات	-10.5661
▁पाया	-10.5661
▁الجغرافيا	-10.5661
▁1900	-10.5662
▁sürgün	-10.5665
▁पै	-10.5665
▁سليمان	-10.5665
▁ödülünü	-10.5666
▁आधारित	-10.5669
▁Windows	-10.5669
▁الجمهورية	-10.5669
▁القدم	-10.5672
mann	-10.5673
▁olay	-10.5675
▁yağ	-10.5675
▁गिर	-10.5676
▁Tor	-10.5676
▁الإنجليزية	-10.5676
▁यु	-10.5677
▁أع	-10.5678
ُّ	-10.5679
▁بدون	-10.5679
▁Kalesi	-10.568
▁الحركة	-10.5681
ذر	-10.5682
▁Beyaz	-10.5683
▁1921	-10.5683
▁Of	-10.5683
▁rengi	-10.5685
▁الإدارية	-10.5686
▁kur	-10.5691
▁الفر	-10.5696
▁مركبات	-10.5703
دام	-10.5704
▁ميناء	-10.5707
▁ऑ	-10.5708
▁أوساكا	-10.5709
ेर	-10.5723
▁مصطلح	-10.5726
▁yaprakları	-10.5727
▁işletme	-10.5728
ny	-10.5728
çu	-10.5731
راس	-10.5734
▁elektron	-10.5735
▁पि	-10.5736
▁فلز	-10.5737
▁जान	-10.5737
حاء	-10.5739
Ta	-10.5751
for	-10.5758
سميت	-10.576
▁site	-10.5762
▁başbakanı	-10.5763
▁गणित	-10.5763
▁تفسير	-10.5766
دان	-10.5769
üstü	-10.5773
شع	-10.5783
تابعة	-10.5784
▁duyu	-10.5784
berg	-10.5785
▁सू	-10.5787
▁Tatar	-10.5788
▁جنس	-10.579
▁شاعر	-10.5791
▁Ülke	-10.5792
ضع	-10.5795
ans	-10.5797
▁kanun	-10.5802
ुम	-10.5805
▁معهد	-10.5808
sü	-10.5809
▁araç	-10.5809
▁عنه	-10.581
▁sunucu	-10.5811
▁38	-10.5813
▁Qu	-10.5814
▁Mat	-10.5821
اخ	-10.5821
شين	-10.5823
▁bil	-10.5823
قية	-10.5829
▁pe	-10.5829
▁gönderil	-10.583
▁बर्	-10.5831
यो	-10.5835
▁bağlantısı	-10.5835
▁yerler	-10.5835
ılan	-10.5835
▁Hristiyan	-10.5839
▁Gen	-10.5842
▁Ara	-10.5842
▁Ham	-10.5847
▁الأخير	-10.5847
برامج	-10.5848
▁الفرعي	-10.5849
▁Sü	-10.5851
गम	-10.5852
ous	-10.5852
▁الأردن	-10.5854
▁Fin	-10.5858
▁Oyun	-10.5859
▁durumunda	-10.5862
سية	-10.5865
▁kuralları	-10.5867
سنة	-10.5869
ून	-10.587
दि	-10.5874
▁الجنوبي	-10.5882
ميز	-10.5882
▁öykü	-10.5884
▁يصل	-10.5884
▁mümkün	-10.5885
▁döndü	-10.5886
▁deri	-10.5886
▁न्याय	-10.5886
ν	-10.5886
→	-10.5886
▁Araştırma	-10.5886
▁mensup	-10.5886
▁इत्यादि	-10.5886
▁ध्यान	-10.5886
−	-10.5886
▁Yazılım	-10.5886
▁Manisa	-10.5886
▁hedef	-10.5886
▁أوهايو	-10.5886
▁الأعداد	-10.5886
▁रजिस्ट	-10.5886
▁كيوشو	-10.5886
▁इंग्लैंड	-10.5887
▁إنشاء	-10.5887
▁Prag	-10.5887
▁आर्थिक	-10.5887
▁Azeri	-10.5887
▁विरोध	-10.5887
▁balık	-10.5888
▁जबकि	-10.5889
▁1933	-10.589
▁Nazi	-10.589
▁boz	-10.5891
▁kültürel	-10.5894
▁किये	-10.5895
▁mutasavvıf	-10.5896
▁Elektronik	-10.5896
▁Un	-10.5896
▁علوية	-10.5898
▁başarılı	-10.5898
▁اللاتينية	-10.5899
▁مك	-10.5901
▁أجل	-10.5902
▁College	-10.5902
▁kişisel	-10.5903
▁Kanuni	-10.5903
▁toprakları	-10.5903
▁tanıt	-10.5905
▁Hicr	-10.591
▁8.	-10.591
ite	-10.591
▁المثال	-10.5911
we	-10.5916
▁Boy	-10.5917
▁الأكبر	-10.5918
▁Portekizli	-10.5919
▁önerme	-10.5919
باليابانية	-10.5921
▁الحديثة	-10.5923
▁evrim	-10.5924
غول	-10.5926
▁özellik	-10.5927
▁yere	-10.5929
▁التيار	-10.5931
▁diller	-10.5931
▁مدرسة	-10.5933
▁1896	-10.5935
▁१३	-10.5935
▁...	-10.5935
▁جديدة	-10.5937
▁اليونان	-10.594
▁OS	-10.5948
▁birliği	-10.595
▁गांव	-10.5951
ation	-10.5953
ظمة	-10.5961
▁asıl	-10.5962
صاب	-10.5971
▁लग	-10.5979
سيل	-10.5979
▁Far	-10.598
▁görüş	-10.5981
age	-10.5983
▁yen	-10.5986
Ç	-10.5995
▁gül	-10.6001
▁kuruluşu	-10.6003
▁bünyesinde	-10.6004
Me	-10.6006
▁2021	-10.6007
▁पक्ष	-10.6008
ग्	-10.6015
▁alet	-10.6017
▁durumlarda	-10.6024
▁kadınlar	-10.6024
▁aç	-10.6029
ाना	-10.6034
▁Tri	-10.6037
▁حزب	-10.6039
▁हस्त	-10.6043
▁दस	-10.6044
▁deprem	-10.6045
▁karakteri	-10.6046
64)	-10.6048
▁tarihte	-10.6051
▁المركز	-10.6051
▁öğretmen	-10.6056
kin	-10.6059
▁بلا	-10.6063
शी	-10.6064
▁oy	-10.6064
सेन	-10.6065
▁isimleri	-10.6066
▁dergi	-10.6068
ladı	-10.607
▁المحافظة	-10.6072
alı	-10.6075
مور	-10.6076
ildi	-10.608
▁الذري	-10.6085
▁gücü	-10.6085
▁स्पेन	-10.609
جهد	-10.6095
▁Adası	-10.6096
▁Yedi	-10.6096
وش	-10.6098
kuruluşu	-10.6109
بلديات	-10.6111
لغة	-10.6112
irleşmiş	-10.6113
ايا	-10.6114
▁komut	-10.6115
3,	-10.6115
▁imza	-10.6119
bilim	-10.6119
▁छोड़	-10.6122
▁تقريبا	-10.6124
▁Alexander	-10.6124
▁Dükü	-10.6124
▁Vakfı	-10.6124
▁Yıldız	-10.6124
▁झारखण्ड	-10.6124
▁Şeyh	-10.6124
▁التغييرات	-10.6124
▁शांति	-10.6125
▁Henri	-10.6125
▁२०१०	-10.6125
▁Aleksandr	-10.6125
nus	-10.6125
▁فيزيائية	-10.6125
▁वीर	-10.6125
▁مواد	-10.6125
▁yapmaktadır	-10.6126
▁अनुमान	-10.6126
▁Doğal	-10.6128
▁بمعنى	-10.6129
▁देवताओं	-10.6129
▁الملفات	-10.613
▁فهي	-10.613
▁adlandırılan	-10.6133
▁قر	-10.6133
▁Siyas	-10.6134
▁karşılığı	-10.6136
▁sonu	-10.6136
ps	-10.6137
▁başladığı	-10.6142
▁Max	-10.6142
ism	-10.6145
▁موريتانيا	-10.6147
▁البرازيل	-10.6147
चु	-10.6157
▁पता	-10.6161
▁tanımı	-10.6163
दार	-10.6164
▁olmakla	-10.6165
▁الجامعة	-10.617
au	-10.617
▁जाति	-10.6174
▁olduğundan	-10.6176
▁جائز	-10.6178
منطقة	-10.6179
▁del	-10.618
القرب	-10.619
-8	-10.6193
▁الجو	-10.6195
▁Ur	-10.6201
▁दिल	-10.621
▁हिन्द	-10.6213
▁एम	-10.6213
طبق	-10.6215
▁yerini	-10.6217
▁Fil	-10.6217
िस्ट	-10.6219
ंट	-10.6221
▁Kale	-10.6222
ثان	-10.6223
yol	-10.6224
▁37	-10.6225
▁anlaşıl	-10.6227
taş	-10.623
▁ho	-10.6234
عكس	-10.6234
▁alanlarda	-10.6234
ıyordu	-10.6236
ार्थ	-10.624
▁....	-10.6242
▁قرية	-10.6245
02	-10.6248
▁molekül	-10.6255
▁müze	-10.6261
▁طرف	-10.6263
▁وأن	-10.6263
▁ग्राम	-10.6268
%)	-10.6271
▁sar	-10.6272
▁ليون	-10.6275
घा	-10.6275
▁yayımlandı	-10.6277
▁tasarımı	-10.6279
ثقافة	-10.6279
قاس	-10.6285
▁1936	-10.6285
kov	-10.6288
madan	-10.6296
▁Hukuk	-10.6298
▁500	-10.63
▁zamanlarda	-10.63
▁الكتاب	-10.6303
कृत	-10.6304
▁डॉ	-10.6307
▁yargı	-10.6307
▁पड़ा	-10.6308
▁ol	-10.631
▁يعد	-10.6312
عاد	-10.6316
▁बच	-10.6316
र्ग	-10.6317
▁kısım	-10.6319
▁Park	-10.6324
▁صالح	-10.6327
▁yüzü	-10.6328
▁عسكري	-10.6328
▁السادس	-10.6332
▁तार	-10.6334
धर	-10.6334
فية	-10.6339
▁سعود	-10.634
ice	-10.6342
कों	-10.6343
▁Va	-10.6343
▁Jose	-10.6348
▁معين	-10.6352
▁yelken	-10.6353
▁زمن	-10.6357
▁Pazar	-10.6358
▁Merkezi	-10.6358
▁Af	-10.636
▁राजनीति	-10.6361
▁yerli	-10.6364
▁kurulmuş	-10.6368
background	-10.6368
▁Elizabeth	-10.6368
▁Marmara	-10.6368
▁civarında	-10.6368
▁kötü	-10.6368
▁sebep	-10.6368
▁telefon	-10.6368
▁مواضيع	-10.6368
▁छोटा	-10.6368
▁प्राकृतिक	-10.6368
▁Napolyon	-10.6368
▁الكلمات	-10.6368
▁बांग्लादेश	-10.6369
▁أعداد	-10.6369
▁الراين	-10.6369
▁न्यायालय	-10.6369
▁internet	-10.6369
▁जानकारी	-10.6369
▁Kısa	-10.6369
▁التشغيل	-10.6369
▁hiç	-10.6369
إشارة	-10.6369
▁ordusu	-10.6369
▁cebir	-10.6369
▁duvar	-10.6369
▁प्रांत	-10.6369
▁grafik	-10.637
▁çıkmıştır	-10.637
▁عرض	-10.637
▁قبرص	-10.637
leştirme	-10.6372
▁فوجي	-10.6372
▁gösterilir	-10.6372
▁मानस	-10.6372
▁العشرين	-10.6373
▁وزير	-10.6373
▁izin	-10.6373
▁Bas	-10.6373
▁ederek	-10.6373
▁metin	-10.6374
51	-10.6374
००	-10.6375
نظر	-10.6375
देवता	-10.6375
▁alarak	-10.6375
جة	-10.6376
▁متعددة	-10.6379
▁Merkez	-10.6379
▁deneme	-10.6379
▁المصدر	-10.6382
▁Jüpiter	-10.6385
▁إسلامية	-10.6386
▁başkanları	-10.6386
▁التاسع	-10.6391
▁belirt	-10.6392
▁aşağı	-10.6399
▁romancı	-10.6399
▁الحالي	-10.6399
▁شخصي	-10.64
▁فرق	-10.64
▁التجارية	-10.6401
ong	-10.6402
تعمل	-10.6406
▁नया	-10.6406
▁الأر	-10.6407
▁!	-10.6408
▁Şen	-10.6408
مستوى	-10.6411
▁Gür	-10.6412
▁اقتصاد	-10.6416
bor	-10.6417
▁كثيرة	-10.6417
यन	-10.6418
the	-10.6419
ğin	-10.6419
9)	-10.6423
रूप	-10.6425
ابي	-10.6426
üş	-10.6427
▁uzunluğu	-10.6432
▁أرض	-10.6433
▁ईसा	-10.6433
▁المح	-10.6435
ثي	-10.6435
▁الحر	-10.6437
رز	-10.6438
▁وبال	-10.6439
mesine	-10.6439
▁üret	-10.644
▁مطار	-10.6443
▁१४	-10.6445
▁harf	-10.645
नए	-10.6451
▁كربون	-10.6451
ty	-10.6458
▁الشعب	-10.6459
▁Parkı	-10.646
▁पुराण	-10.646
ملك	-10.6464
▁kökeni	-10.6465
▁buz	-10.6466
dy	-10.6471
▁منجل	-10.6472
ران	-10.6473
بد	-10.6476
Al	-10.6477
र्न	-10.648
▁डाल	-10.648
▁تاريخية	-10.6483
▁टीम	-10.6483
पाल	-10.6486
▁yay	-10.6486
▁bina	-10.6491
▁savunma	-10.6492
val	-10.6493
صنف	-10.6493
وان	-10.6495
gal	-10.6498
68	-10.6499
▁सुन्दर	-10.65
▁büyü	-10.6502
ुआ	-10.6505
▁المق	-10.6509
र्ण	-10.6511
▁heykel	-10.6511
mekte	-10.6514
▁खा	-10.6516
متر	-10.6516
▁ressamı	-10.6518
▁تحديد	-10.6522
▁Kol	-10.6525
▁والص	-10.6526
▁خواص	-10.6527
▁par	-10.6528
2-	-10.6529
▁kullan	-10.653
▁kasaba	-10.6532
▁विधि	-10.6537
ोन	-10.6539
▁अन्त	-10.6543
▁kuru	-10.6545
layarak	-10.6547
▁अंक	-10.6548
▁ağır	-10.6548
▁وتضم	-10.6552
नु	-10.6556
घर	-10.656
▁الإمام	-10.6561
▁माल	-10.6563
▁düşünce	-10.6564
▁romanları	-10.6567
nes	-10.6568
▁غاز	-10.6568
▁;	-10.657
▁duy	-10.657
▁حسن	-10.6571
▁الجديد	-10.6579
▁मोह	-10.658
‍	-10.6587
▁Dev	-10.6588
سرعة	-10.6592
قول	-10.6592
▁Ed	-10.6593
▁एन	-10.6595
▁Ant	-10.6596
▁महाराज	-10.6598
▁*	-10.6608
▁Ordu	-10.6609
▁الإسلامي	-10.661
▁adlandırıl	-10.6613
▁he	-10.6615
ata	-10.6615
الأبجدية	-10.6617
▁yazılmış	-10.6617
▁alfabesi	-10.6617
▁Arjantin	-10.6617
▁فمثلا	-10.6617
▁Murad	-10.6618
▁हनुमान	-10.6618
ο	-10.6618
а	-10.6618
▁Yönetim	-10.6618
▁hümanist	-10.6618
▁kakadu	-10.6618
▁ऑस्ट्रेलिया	-10.6618
▁दृष्टि	-10.6618
ε	-10.6618
▁belirgin	-10.6618
بالإنجليزية	-10.6618
▁mekaniği	-10.6618
▁1908	-10.6618
▁mizah	-10.6618
▁إدوارد	-10.6619
▁parlak	-10.6619
▁kapalı	-10.6619
▁Fakat	-10.6619
دري	-10.6619
▁Ömer	-10.662
▁रावण	-10.662
كار	-10.662
▁संधि	-10.662
▁اليمن	-10.662
رون	-10.6621
▁महीन	-10.6621
▁Con	-10.6621
तौर	-10.6621
▁इसलिए	-10.6621
कुल	-10.6622
▁Halil	-10.6622
▁bitirdi	-10.6622
▁Gemi	-10.6622
▁tıp	-10.6622
▁yapılmıştır	-10.6623
▁Gazetesi	-10.6624
▁أبجدية	-10.6624
حماية	-10.6624
▁المتوسط	-10.6625
▁Dişi	-10.6625
उद	-10.6625
▁يعمل	-10.6628
▁रहने	-10.6628
▁ayır	-10.6635
▁kanat	-10.6638
علم	-10.6639
ünün	-10.6639
زار	-10.664
▁الشاعر	-10.664
▁kullanır	-10.6642
▁kal	-10.6647
ابة	-10.6647
▁Samu	-10.6648
▁भिन्न	-10.6649
dis	-10.6649
▁yapıldığı	-10.6651
▁birleşik	-10.6653
▁الشعبية	-10.6655
▁Farsça	-10.6655
▁तत्त्व	-10.6655
عرض	-10.6656
▁अरबी	-10.6664
aset	-10.6667
गे	-10.6668
▁Kuş	-10.6669
▁saf	-10.6672
▁Cr	-10.6672
فين	-10.6674
amaz	-10.6677
▁aracı	-10.668
الة	-10.6685
▁(4	-10.6687
▁geçirdi	-10.6688
▁koruma	-10.6692
▁सार	-10.6694
▁tasarım	-10.6694
▁लो	-10.6699
وكي	-10.6705
▁الثالثة	-10.6706
kaga	-10.672
▁Marie	-10.672
▁منصب	-10.6725
▁ilişkileri	-10.6726
طبخ	-10.6728
▁Ok	-10.673
bel	-10.6735
▁العملية	-10.6736
▁Sarı	-10.6739
ys	-10.6741
▁العامة	-10.6745
▁bilgiler	-10.675
▁بذلك	-10.6754
▁nedeni	-10.6759
▁insanları	-10.6761
▁نتيج	-10.6764
▁kral	-10.6767
▁Je	-10.6774
▁hareketi	-10.6774
▁pro	-10.6777
▁अर	-10.6777
▁kaya	-10.6784
▁işçi	-10.6784
▁hücre	-10.6787
▁geliştir	-10.679
▁türün	-10.679
cc	-10.6792
▁शासक	-10.6797
▁इनमे	-10.6798
ami	-10.6798
▁Mon	-10.6801
▁yerde	-10.6807
zer	-10.6815
▁पार	-10.6816
▁kazanan	-10.682
▁قسم	-10.6828
▁düşün	-10.6831
ड़ी	-10.6832
▁الحديث	-10.6835
▁जैस	-10.6836
تفاعل	-10.6837
▁bağ	-10.6839
▁liman	-10.6839
▁soru	-10.6842
▁ter	-10.6842
تبع	-10.6843
▁denge	-10.6843
▁gitti	-10.685
▁gelme	-10.685
خاصة	-10.685
▁الكر	-10.6853
▁modeli	-10.6854
▁أعمال	-10.6856
▁pazar	-10.6859
شجرة	-10.686
▁terim	-10.6862
برا	-10.6864
▁والف	-10.6864
▁جن	-10.6865
medi	-10.6869
صاد	-10.687
▁yaşar	-10.6871
▁करा	-10.6871
गंज	-10.6871
▁Francis	-10.6874
süz	-10.6874
omünist	-10.6874
▁mikro	-10.6874
▁अग्नि	-10.6875
▁Elektrik	-10.6875
▁InDesign	-10.6875
▁hafif	-10.6875
▁उपलब्ध	-10.6875
▁पौरवकुल	-10.6875
▁विद्रोह	-10.6875
▁Mekke	-10.6875
▁henüz	-10.6875
▁olsun	-10.6875
▁عصر	-10.6875
▁yeterli	-10.6875
▁ज्योतिष	-10.6875
▁الناتج	-10.6875
▁kamera	-10.6875
▁विस्तार	-10.6875
▁الأوراق	-10.6876
▁जैन	-10.6876
▁المياه	-10.6876
▁Medici	-10.6876
▁alınarak	-10.6876
▁दर्ज	-10.6877
▁كاتب	-10.6877
▁Işık	-10.6877
▁denilen	-10.6878
▁ko	-10.6878
▁sahil	-10.6879
▁1913	-10.688
▁पूजा	-10.688
▁sağlık	-10.688
धि	-10.6881
▁मात्रा	-10.6881
ista	-10.6882
▁1915	-10.6883
्री	-10.6883
सू	-10.6883
▁Hanım	-10.6884
▁Tiyatrosu	-10.6885
▁hayatını	-10.6885
▁lisans	-10.6886
ليام	-10.6886
▁örnekler	-10.6887
▁आते	-10.6891
▁حياته	-10.6892
▁Saat	-10.6892
▁الإله	-10.6893
انا	-10.6895
▁الكلمة	-10.6897
▁gazetesi	-10.6898
سين	-10.6898
▁aralarında	-10.6898
▁الفلزات	-10.6899
▁halkın	-10.6899
▁War	-10.69
यी	-10.6904
▁Red	-10.6905
▁الجمع	-10.6905
▁sap	-10.6905
▁Mer	-10.6905
▁السورة	-10.6906
ड़े	-10.6912
▁Pan	-10.6913
▁karın	-10.6913
kçe	-10.6914
▁تحمل	-10.6915
▁ben	-10.6916
▁pat	-10.6919
▁رومان	-10.6919
▁Yani	-10.6919
▁الأخيرة	-10.692
▁السياسية	-10.6922
yen	-10.6925
▁Savaşları	-10.6926
▁الض	-10.6927
▁tipi	-10.6929
▁hali	-10.6929
▁विष्णु	-10.6931
▁Köy	-10.6932
tis	-10.6939
▁keşfedildi	-10.6939
وكو	-10.694
शु	-10.6942
▁kentin	-10.6942
▁taşın	-10.6946
▁हु	-10.6947
▁seçim	-10.6949
▁فيصل	-10.6949
cy	-10.695
▁पू	-10.695
▁Don	-10.6953
veya	-10.6953
▁بأ	-10.6955
▁birden	-10.6956
▁أمير	-10.696
▁ذرة	-10.6961
▁varsa	-10.6963
चर	-10.6964
▁oran	-10.6964
يتي	-10.6965
▁kişilik	-10.6966
▁नील	-10.6966
यें	-10.6967
▁hüküm	-10.6968
bul	-10.6969
▁bölgeler	-10.6969
وار	-10.6971
▁المجر	-10.6972
▁anlaşma	-10.6973
▁طرق	-10.6975
▁not	-10.6979
▁oda	-10.698
▁आए	-10.698
न्ध	-10.6981
सि	-10.6982
▁أغلب	-10.6986
▁boya	-10.6986
صلة	-10.6988
▁Müslüman	-10.699
▁TV	-10.6992
▁पल	-10.6996
▁süren	-10.6997
iyon	-10.6998
▁serisi	-10.7002
▁yerinde	-10.7003
▁तल	-10.7006
▁ağaçları	-10.7011
▁(6	-10.7014
▁والس	-10.7016
▁والد	-10.7018
लैंड	-10.7019
▁صفر	-10.7028
gh	-10.7034
▁değerli	-10.704
▁कार	-10.7041
نظم	-10.7042
▁शहरों	-10.7042
▁İlçede	-10.7042
ज़ी	-10.7043
▁Mas	-10.705
▁felsefesi	-10.7051
▁şarkıcıları	-10.7055
▁yazdı	-10.7056
td	-10.7056
▁حر	-10.7057
oş	-10.7061
▁yörünge	-10.7062
0%	-10.7062
فصل	-10.7064
ريان	-10.707
▁tohum	-10.7073
sından	-10.7074
▁حصل	-10.7075
▁özelliklerini	-10.7077
▁Alan	-10.708
▁والك	-10.708
▁سبب	-10.7084
نَ	-10.7085
▁karakter	-10.7091
حكم	-10.7092
▁السابع	-10.7097
ora	-10.7097
قصر	-10.7097
▁Ab	-10.7099
▁६३	-10.7101
ेशन	-10.7104
▁العلمي	-10.7106
▁Demir	-10.7107
▁algı	-10.7109
▁Kürt	-10.7109
▁पड़	-10.7109
نان	-10.7111
▁Ban	-10.7113
▁aday	-10.7117
tro	-10.7119
▁Mel	-10.712
▁الإلكتروني	-10.712
▁yük	-10.7122
▁Yaşamı	-10.7122
dığını	-10.7123
▁sat	-10.7125
▁vi	-10.7125
▁هار	-10.7126
▁şa	-10.7127
▁ظل	-10.7127
صي	-10.7128
حاول	-10.7128
روب	-10.7128
▁no	-10.713
▁مد	-10.713
▁لين	-10.7136
onfüçyüsçü	-10.7138
▁Etimoloji	-10.7138
▁French	-10.7138
▁mesafe	-10.7138
▁أبناء	-10.7138
▁الأرجنتين	-10.7138
▁प्रारंभ	-10.7138
▁लक्ष्मण	-10.7138
▁Ermenistan	-10.7138
▁نقاط	-10.7138
▁تشارل	-10.7138
▁pozitif	-10.7138
▁geliştirilen	-10.7138
▁कंप्यूटर	-10.7139
▁basınç	-10.7139
▁रजत	-10.7139
دراسات	-10.7139
▁Mühendisliği	-10.7139
▁konser	-10.7139
▁أستراليا	-10.7139
▁Çar	-10.714
▁مالي	-10.714
▁erken	-10.7141
▁शुभ	-10.7141
▁arka	-10.7141
▁باريس	-10.7141
▁İvan	-10.7142
▁1909	-10.7142
حفظ	-10.7143
▁Yerel	-10.7143
▁dayanır	-10.7143
landığı	-10.7145
وصول	-10.7145
▁الدم	-10.7146
▁Padişahı	-10.7147
▁يحدث	-10.7147
▁शैली	-10.7148
*	-10.7149
▁بنو	-10.7149
▁Ex	-10.7149
log	-10.7149
▁kenar	-10.715
عيد	-10.7151
▁yazma	-10.7151
▁गति	-10.7152
▁(2	-10.7153
تسو	-10.7153
▁जिन्हे	-10.7156
▁İskender	-10.7156
▁عد	-10.7158
▁caz	-10.7159
▁Polonyalı	-10.7159
▁अत्य	-10.716
▁400	-10.716
▁الطبيعية	-10.7161
▁فلزات	-10.7163
▁विचार	-10.7171
▁(3	-10.7173
▁ders	-10.7174
▁Üç	-10.7176
▁sırt	-10.7177
gin	-10.7178
ciler	-10.7184
▁yorum	-10.7184
lon	-10.7185
▁सहित	-10.7187
▁Hans	-10.7191
▁hakkı	-10.7193
राह	-10.7196
▁edilme	-10.7202
▁روسيا	-10.7205
न्य	-10.7206
▁شخصية	-10.7207
▁टी	-10.7208
▁معا	-10.721
▁dair	-10.721
▁araya	-10.7213
▁قبيلة	-10.7219
cık	-10.7221
hl	-10.7224
▁مقياس	-10.7225
ted	-10.7227
ayağı	-10.7232
▁Babası	-10.7233
▁عملات	-10.7241
▁أمين	-10.7243
▁भा	-10.7245
ّا	-10.7252
▁Sovyetler	-10.7255
▁مصرية	-10.7266
61)	-10.7269
▁وهم	-10.7269
▁boyu	-10.727
▁form	-10.7271
त्त	-10.7272
▁Maria	-10.7278
انيا	-10.7285
قرار	-10.7286
▁sev	-10.7288
وجب	-10.729
تجه	-10.7293
ola	-10.7293
▁eleştiri	-10.7293
▁रात	-10.7294
▁bulunması	-10.7298
▁kültürü	-10.7299
kel	-10.7299
▁bölgelerinde	-10.7303
حدد	-10.7304
▁dayan	-10.7304
▁ucu	-10.7309
ografi	-10.7311
▁azal	-10.7317
▁130	-10.7317
سير	-10.7319
▁görevini	-10.7326
ria	-10.7326
yken	-10.7329
lenebilir	-10.733
▁عدم	-10.733
▁hükümdar	-10.7334
ِن	-10.7335
▁ثنائية	-10.7335
▁Tal	-10.7335
ألف	-10.7339
▁शास्त्री	-10.7339
-15	-10.7349
▁جان	-10.7349
dığında	-10.7354
▁gözlem	-10.7354
▁कर्म	-10.7355
▁öncesi	-10.7356
▁cins	-10.7356
uc	-10.736
غار	-10.7362
düğü	-10.7364
hor	-10.7366
عر	-10.7366
▁العثماني	-10.7368
▁अज	-10.737
tay	-10.7371
اكي	-10.7371
▁bildir	-10.7372
▁tel	-10.7374
pan	-10.7378
lendirme	-10.7382
रिया	-10.7386
▁السن	-10.7389
्वा	-10.7389
▁albümleri	-10.739
uf	-10.739
▁ülkeleri	-10.739
طاقة	-10.7391
▁حق	-10.7397
يابانيون	-10.7399
▁zorunda	-10.74
▁miktarı	-10.7404
ttin	-10.7404
▁Heinrich	-10.7408
▁Yerleşim	-10.7408
▁Yusuf	-10.7408
▁Yıldırım	-10.7408
▁komşu	-10.7408
▁kulübü	-10.7408
▁sıvı	-10.7408
▁محمود	-10.7408
▁अनुसंधान	-10.7408
▁जमशेदपुर	-10.7408
▁परम्परा	-10.7408
▁मतलब	-10.7408
▁यदुकुल	-10.7408
▁सांस्कृति	-10.7408
▁अमरीका	-10.7408
▁1904	-10.7408
▁köle	-10.7408
▁تشغيل	-10.7408
▁२००१	-10.7408
▁सैनिक	-10.7408
▁الجزيئات	-10.7408
▁سلطان	-10.7408
أقدم	-10.7409
▁gıda	-10.7409
▁Turizm	-10.7409
▁etnik	-10.7409
▁Mimar	-10.741
▁المثلث	-10.741
▁Peter	-10.741
▁ईसाई	-10.7411
▁करीब	-10.7411
▁edilebilir	-10.7411
▁mekanik	-10.7411
▁kazanmıştır	-10.7411
▁yönetmeni	-10.7412
ौल	-10.7414
▁Zeus	-10.7415
▁üretil	-10.7417
▁كندا	-10.7417
▁برمجة	-10.7417
ons	-10.7418
न्दर	-10.7419
lamak	-10.7421
yar	-10.7421
पत	-10.7421
यान	-10.7422
▁معالم	-10.7422
▁आती	-10.7423
▁استخدم	-10.7425
▁جهة	-10.7427
▁aksiyom	-10.7428
وضع	-10.7428
▁İsviçreli	-10.7428
▁Geç	-10.7428
▁Notlar	-10.7429
▁كيلو	-10.7429
वल	-10.7429
विज्ञान	-10.7429
İstanbul	-10.743
▁mo	-10.7431
▁تحويل	-10.7432
▁رياضية	-10.7437
कारी	-10.7439
▁Ming	-10.744
▁Tanrı	-10.744
▁مختلف	-10.7441
▁والع	-10.7443
▁المصرية	-10.7443
▁inceleme	-10.7444
▁bunu	-10.7445
▁bıraktı	-10.7448
▁kullanılmaya	-10.745
▁terk	-10.7452
▁1934	-10.7452
याँ	-10.7454
▁الذرية	-10.7455
ميكانيكا	-10.7455
▁عرف	-10.7457
▁Sam	-10.7459
▁चल	-10.7461
▁kısımları	-10.7463
▁Ses	-10.7466
▁koşulları	-10.7467
▁रोग	-10.7469
▁الكبيرة	-10.747
▁كانوا	-10.747
▁Ash	-10.747
▁مكة	-10.7471
▁etmeye	-10.7471
▁Les	-10.7472
▁almak	-10.7473
▁bakan	-10.7474
▁الخاصة	-10.7479
सदी	-10.7481
▁sesi	-10.7482
درجة	-10.7482
▁قليل	-10.7485
▁تشير	-10.7486
▁تح	-10.7486
▁عاش	-10.7488
▁Ger	-10.749
iv	-10.749
▁1919	-10.7494
يران	-10.7494
liler	-10.7494
▁Tan	-10.7494
صم	-10.7498
▁Okyanusu	-10.7498
▁أشكال	-10.7499
▁أصول	-10.7499
▁bölüm	-10.7499
يرة	-10.75
▁fikir	-10.7501
▁vermek	-10.7502
हर	-10.7511
▁اسمها	-10.7513
▁partiler	-10.7515
▁عاد	-10.7517
ल्स	-10.7518
حقق	-10.752
▁الأس	-10.7523
▁Mak	-10.7524
▁بعضها	-10.7525
▁varlığı	-10.753
▁yöre	-10.7534
पुरी	-10.7535
▁mat	-10.7537
▁जीवनी	-10.7541
२०	-10.7542
▁محل	-10.7547
ुल	-10.7548
إي	-10.7551
▁جانب	-10.7552
▁faaliyetleri	-10.7552
▁kimi	-10.7556
▁Nur	-10.7557
▁van	-10.7559
▁أهمية	-10.7559
▁बढ़	-10.7563
▁1970'	-10.7564
▁yapraklar	-10.7565
▁yıldız	-10.7565
▁Tom	-10.7567
▁Bağ	-10.7568
▁platform	-10.7572
▁biçim	-10.7573
nç	-10.7575
▁Göl	-10.7578
▁بإ	-10.7579
▁uygulan	-10.758
ebilen	-10.7585
▁alıcı	-10.7586
▁gazeteler	-10.7598
▁bölümleri	-10.76
▁كاف	-10.76
▁للت	-10.7601
örü	-10.7605
▁familya	-10.7608
करण	-10.7613
▁yapıları	-10.7616
▁रोक	-10.762
▁tüyleri	-10.7621
मति	-10.7626
فعال	-10.7628
tah	-10.7642
▁ماك	-10.7643
▁بري	-10.7645
▁ـ	-10.7647
Ge	-10.7647
धी	-10.7648
علاقة	-10.7648
▁açıklama	-10.7651
णा	-10.7653
▁Yazı	-10.7655
▁نسب	-10.7655
▁kenti	-10.7656
▁net	-10.7656
▁Eu	-10.7659
cal	-10.766
▁जग	-10.7661
BT	-10.7663
فعل	-10.7675
▁मी	-10.7677
▁bol	-10.7677
▁Tar	-10.7681
▁Az	-10.7682
ırlar	-10.7684
ष्ठ	-10.7685
▁teşkil	-10.7686
▁Sınıf	-10.7686
▁Fortran	-10.7686
▁akademisyen	-10.7686
▁başlangıcı	-10.7686
▁تطوير	-10.7686
▁ईश्वर	-10.7686
▁दिसम्बर	-10.7686
▁नृत्य	-10.7686
▁रेणु	-10.7686
▁लंदन	-10.7686
▁संक्रमण	-10.7686
▁Küba	-10.7686
▁doğrultusunda	-10.7686
▁दशक	-10.7686
▁मान्यता	-10.7686
▁Meyve	-10.7686
▁तैयार	-10.7686
▁zayıf	-10.7686
▁नवम्बर	-10.7686
▁aşırı	-10.7686
▁karmaşık	-10.7686
ीश्वर	-10.7686
▁समाचार	-10.7686
▁स्त्री	-10.7687
▁يحمل	-10.7687
▁अंतिम	-10.7687
kuyu	-10.7687
▁Ph	-10.7687
▁वर्मा	-10.7687
▁Çünkü	-10.7687
▁opera	-10.7687
▁İbn	-10.7688
▁प्रशासनिक	-10.7688
▁aktif	-10.7688
▁आयु	-10.7689
▁कर्ण	-10.769
▁المجموعات	-10.769
37)	-10.7691
▁v	-10.7694
▁डा	-10.7695
▁ويكون	-10.7696
▁Neok	-10.7697
lması	-10.7699
▁الروابط	-10.7699
▁सुरक्षा	-10.7702
▁kalır	-10.7702
▁الطرق	-10.7702
▁सके	-10.7704
▁World	-10.7705
▁परिचय	-10.7705
▁ويسم	-10.7705
▁beden	-10.7708
▁भौ	-10.7709
▁त्रि	-10.771
▁نص	-10.771
خصائص	-10.7712
▁लगे	-10.7712
▁kullanma	-10.7713
▁geleneği	-10.7715
▁belgesel	-10.7716
▁دينية	-10.7716
▁زيت	-10.7717
▁şekil	-10.7718
▁çekim	-10.7719
▁Sun	-10.7724
ung	-10.7727
▁gider	-10.7728
▁şeklindedir	-10.7731
▁Konusu	-10.7731
ix	-10.7731
▁1932	-10.7733
▁معينة	-10.7734
▁श्रेणी	-10.7735
سة	-10.7735
▁चक्र	-10.7736
▁وخ	-10.7736
▁kimya	-10.7737
ره	-10.7738
▁uydu	-10.7738
▁التوزيع	-10.7739
▁Kır	-10.7741
▁yurt	-10.7741
جون	-10.7746
▁منظمة	-10.7747
▁الحسن	-10.7752
:#	-10.7755
تكنولوجيا	-10.7755
▁देखा	-10.7755
▁يعني	-10.7758
▁मंत्री	-10.7767
▁بكر	-10.7767
▁फा	-10.7768
▁إل	-10.7769
تعرف	-10.7772
▁अन्तर	-10.7773
▁تقسيم	-10.7779
وه	-10.778
اة	-10.7783
▁Sta	-10.7784
▁takvimin	-10.7786
▁५	-10.7788
▁تس	-10.7792
ju	-10.7792
رتبة	-10.7793
▁اختيار	-10.7794
▁यही	-10.7795
▁yola	-10.7798
uğu	-10.7799
▁المس	-10.78
▁alanlarında	-10.7803
bol	-10.7805
likler	-10.7806
▁300	-10.781
▁Dan	-10.7812
▁डाक	-10.7814
▁كين	-10.7817
شف	-10.782
غان	-10.782
▁bunları	-10.7823
▁नारायण	-10.7824
sak	-10.7826
bre	-10.7826
▁कौ	-10.7827
जो	-10.7828
▁ölü	-10.7829
▁एड	-10.783
स्थान	-10.7831
▁am	-10.7831
▁أشجار	-10.7832
▁süs	-10.7833
हन	-10.7834
िय	-10.7835
أكبر	-10.7835
دائي	-10.7837
▁örgüt	-10.7841
etik	-10.7843
▁Op	-10.7851
▁Dur	-10.7854
▁زاوية	-10.7856
▁işle	-10.7857
▁162	-10.7859
▁sanatçılar	-10.7863
▁kanser	-10.7865
▁भार	-10.7865
maktaydı	-10.7866
▁yukarı	-10.7869
▁نور	-10.7869
▁geliştirilmiş	-10.787
▁(14	-10.787
▁içi	-10.7871
▁समझ	-10.7872
▁fi	-10.7874
ذا	-10.7879
२५	-10.788
لعب	-10.7884
0,000	-10.7884
िए	-10.7887
▁deney	-10.7887
▁yazılı	-10.7889
ارية	-10.7889
▁والإ	-10.789
▁الإحصائي	-10.789
▁Vol	-10.7892
عين	-10.7896
▁9.	-10.7901
▁Bil	-10.7903
▁görün	-10.7905
▁Not	-10.7909
ili	-10.7912
▁Kat	-10.7913
▁यूनान	-10.7915
batı	-10.792
▁سر	-10.7922
▁क्रम	-10.7923
▁आर	-10.7924
▁olanak	-10.7926
▁Kitapları	-10.7926
▁kaynaklan	-10.7927
í	-10.7927
بدو	-10.7927
لن	-10.7928
iana	-10.7929
mayı	-10.7931
▁الرابع	-10.7931
▁الإداري	-10.7931
أجهزة	-10.7933
मार	-10.7933
ريش	-10.7937
▁يا	-10.7938
يابان	-10.7945
▁اللا	-10.7945
زل	-10.795
gun	-10.7955
▁غالبا	-10.7957
▁प्रतीक	-10.7957
▁أور	-10.7958
ثورة	-10.796
▁سليم	-10.796
▁kullanılma	-10.796
▁şöyle	-10.7961
▁भु	-10.7961
jo	-10.7966
▁ülkesi	-10.7966
ئة	-10.7967
▁Sayfa	-10.7967
بور	-10.7967
▁समाप्त	-10.7968
▁maç	-10.7969
▁z	-10.797
color	-10.797
▁kedi	-10.797
؟	-10.7972
द्योगिक	-10.7972
▁Society	-10.7972
▁Ticaret	-10.7972
▁Yüksel	-10.7972
▁प्रतिशत	-10.7972
▁महाविद्यालय	-10.7972
▁माध्यम	-10.7972
▁विद्वान	-10.7972
▁शृंखला	-10.7972
▁सभ्यता	-10.7972
▁Gregory	-10.7972
▁जिलों	-10.7972
▁sivri	-10.7972
▁Çalışma	-10.7972
▁चाहिए	-10.7972
▁स्कूल	-10.7972
▁gezgin	-10.7972
▁सप्ताह	-10.7972
▁गौतम	-10.7972
▁الوحيد	-10.7972
ظل	-10.7972
▁نيوتن	-10.7972
▁sınıflandırma	-10.7972
▁aktör	-10.7972
▁حائز	-10.7972
▁hukukçu	-10.7972
▁Planck	-10.7972
▁Kurumu	-10.7972
▁42	-10.7972
▁Ağrı	-10.7973
▁oluşmaktadır	-10.7973
▁anılır	-10.7973
▁الكريم	-10.7973
▁National	-10.7973
▁الأسود	-10.7973
▁عز	-10.7974
▁شيء	-10.7975
▁bağlantı	-10.7977
▁حسين	-10.7977
قلعة	-10.7977
ring	-10.7978
▁ब्ल	-10.7978
▁İşçi	-10.7979
▁çam	-10.798
▁سل	-10.798
▁demir	-10.7981
▁1895	-10.7981
▁dokuz	-10.7981
▁बिना	-10.7981
▁1917	-10.7981
▁الإنترنت	-10.7982
▁ekonomisi	-10.7984
cağı	-10.7984
▁Kilisesi	-10.7984
▁yakınlarında	-10.7984
▁parça	-10.7985
▁मराठी	-10.7986
▁التقليدية	-10.7986
▁الجيش	-10.7987
▁مجر	-10.7988
▁برج	-10.7989
पु	-10.7991
▁yazılımı	-10.7991
hman	-10.7991
▁Belçika	-10.7991
▁düzen	-10.7993
▁satış	-10.7993
▁السياحة	-10.7996
▁تغير	-10.7997
ical	-10.7997
▁ispat	-10.7998
▁International	-10.7999
▁الآية	-10.7999
▁मिलत	-10.7999
▁şarkısı	-10.8001
نتمي	-10.8002
▁suyu	-10.8002
فرة	-10.8003
ديد	-10.8004
▁Juan	-10.8005
▁جول	-10.8005
▁النص	-10.8007
▁ilinde	-10.8007
▁وعدد	-10.8007
बार	-10.8009
حوالي	-10.801
إضافة	-10.8011
श्री	-10.8011
▁biyoloji	-10.8011
▁American	-10.8011
▁जगत	-10.8012
खण्ड	-10.8015
खंड	-10.8017
▁अर्थात	-10.8018
▁حرة	-10.8019
حتى	-10.802
▁متوسط	-10.8022
ium	-10.8022
Hex	-10.8022
▁الهندسة	-10.8025
mes	-10.8027
▁Mont	-10.803
▁अंतर्	-10.803
▁Çi	-10.8031
▁السابقة	-10.8034
▁Prensi	-10.8035
▁kalem	-10.8036
▁रसायन	-10.8037
राव	-10.8037
▁1905	-10.8046
▁सम्	-10.8046
▁अं	-10.8046
▁هم	-10.8049
▁الميلادي	-10.8049
▁tepe	-10.8052
▁سياسية	-10.8053
▁dal	-10.8057
▁uzaklıkta	-10.8065
दो	-10.8067
▁Th	-10.8067
▁firması	-10.8075
▁hepsi	-10.8075
▁सर्वाधिक	-10.8078
رف	-10.8079
▁Lise	-10.808
▁çap	-10.8083
يخ	-10.8084
▁ettir	-10.8085
▁1890	-10.8087
▁صاحب	-10.8091
▁हरि	-10.8093
▁süresi	-10.8094
▁أخ	-10.8097
▁الشمالي	-10.8097
fen	-10.8099
قى	-10.8099
▁فريد	-10.8104
لهذا	-10.8105
▁çeşitleri	-10.8107
▁önemlidir	-10.8108
▁हास	-10.8112
▁Çayı	-10.8113
▁مق	-10.8113
▁kay	-10.8115
AS	-10.8116
▁مُ	-10.8118
ثن	-10.8118
mışlardır	-10.8121
▁الدولية	-10.8127
▁Taş	-10.8129
دار	-10.8139
نتج	-10.814
▁الأندلس	-10.8144
▁ويب	-10.8144
▁kalk	-10.8145
صنع	-10.8149
▁Tak	-10.8154
وى	-10.8159
▁स्तर	-10.816
▁वै	-10.816
lenme	-10.8164
▁آن	-10.8169
▁oluşu	-10.8177
▁kahraman	-10.8181
▁पहुँच	-10.8182
▁yarış	-10.8182
يًا	-10.8182
यर	-10.8183
▁नागालै	-10.8185
▁أب	-10.8186
مكتبة	-10.8186
▁kural	-10.8188
▁تأ	-10.8193
▁basıl	-10.8196
soy	-10.8197
div	-10.8206
▁kilise	-10.8206
▁Festival	-10.8208
यू	-10.8214
▁(11	-10.8214
ladığı	-10.8215
▁Şa	-10.8215
▁बै	-10.8216
عمل	-10.8216
▁grubun	-10.8218
▁hatta	-10.8224
▁नाग	-10.8227
▁فرنسي	-10.8227
▁पाल	-10.8229
▁hikâye	-10.823
▁पहाड़	-10.8232
▁şiddet	-10.8234
▁etmiş	-10.8235
▁etkilen	-10.8236
लम	-10.8237
▁والب	-10.8238
▁halkı	-10.8239
▁şart	-10.824
▁Vatan	-10.824
▁düzey	-10.824
oğulları	-10.8241
زان	-10.8244
▁otur	-10.8244
▁numara	-10.8253
▁bölümünü	-10.8253
▁नंद	-10.8262
لاحظ	-10.8263
ijital	-10.8265
▁mevcut	-10.8265
▁प्रधान	-10.8266
▁Kastamonu	-10.8266
ū	-10.8266
▁Celsius	-10.8266
▁Michael	-10.8266
▁Varşova	-10.8266
▁kâğıt	-10.8266
▁tespit	-10.8266
▁الألكانات	-10.8266
▁श्रीलंका	-10.8266
▁يأتي	-10.8266
▁हिमाचल	-10.8266
▁Cambridge	-10.8266
▁तीर्थ	-10.8266
▁घोषित	-10.8266
▁isteyen	-10.8266
▁الضوء	-10.8266
ोच्च	-10.8266
▁Edirne	-10.8266
▁الأبعاد	-10.8266
▁Pascal	-10.8266
▁profesyonel	-10.8266
बो	-10.8266
▁turizm	-10.8266
▁nerede	-10.8266
▁Sadrazamı	-10.8266
▁Dağılım	-10.8266
▁يوسف	-10.8266
▁alternatif	-10.8267
▁पैदा	-10.8267
بحتة	-10.8267
▁kullanılarak	-10.8267
hisar	-10.8268
▁سبيل	-10.8268
▁VII	-10.8268
▁galeri	-10.8268
ांतर	-10.8268
++	-10.8268
▁व्यवस्था	-10.8268
▁yüzme	-10.8268
Celtis	-10.8269
▁1902	-10.8269
▁amaçlı	-10.827
▁böylece	-10.827
▁الطائرة	-10.8273
▁1869	-10.8275
▁denk	-10.8275
رسل	-10.8275
▁Sinan	-10.8276
▁ब्राह्मण	-10.8278
▁साल्वाडोर	-10.8278
▁bitir	-10.8278
▁Ap	-10.8281
▁يكتب	-10.8283
one	-10.8284
▁स्थानीय	-10.8285
▁yapımcısı	-10.8286
▁كلم	-10.8287
▁Yazar	-10.8288
▁sistemlerin	-10.8288
▁koru	-10.8288
▁الطريقة	-10.8289
▁aylık	-10.8291
▁sağlan	-10.8292
▁تطبيق	-10.8292
كية	-10.8294
▁Atlas	-10.8295
▁الكنيسة	-10.8295
▁घाटी	-10.8295
▁طبيعية	-10.8299
▁مض	-10.83
▁وإن	-10.83
▁यहूदी	-10.83
De	-10.8301
نشأ	-10.8302
▁हि	-10.8302
▁باب	-10.8303
▁الثورة	-10.8305
मक	-10.8305
leyici	-10.8307
عطاء	-10.8307
Q	-10.8308
▁Fark	-10.8309
▁Kırmızı	-10.8309
ville	-10.8309
▁Dergisi	-10.8309
اخر	-10.831
क्षेत्र	-10.8312
▁الجمعة	-10.8313
[	-10.8313
▁الجديدة	-10.8314
▁ilçesidir	-10.8314
▁विश्वास	-10.8315
▁hattat	-10.8316
▁almış	-10.8317
▁الموسيقى	-10.8317
▁भीम	-10.8318
▁لينكس	-10.8318
▁الأساطير	-10.8318
▁الصور	-10.832
▁taşır	-10.8321
-...	-10.8323
▁gönder	-10.8325
▁कॉ	-10.8325
uri	-10.833
▁يرجع	-10.8333
▁एक्स	-10.8333
مم	-10.8334
▁نفسها	-10.8337
ستون	-10.8338
▁makale	-10.8341
▁120	-10.8343
लाल	-10.8344
▁inan	-10.8347
▁خليج	-10.8347
▁मल	-10.835
क्त	-10.8353
عام	-10.8353
Rus	-10.8356
▁دولية	-10.8356
يها	-10.8357
دول	-10.8357
▁elemanı	-10.8359
गोलिक	-10.836
mbo	-10.8363
▁kurumu	-10.8366
▁Bra	-10.8367
▁kulüpleri	-10.8368
▁سانت	-10.8368
▁Tra	-10.837
▁طالب	-10.8372
كاوا	-10.8374
▁hat	-10.8378
وجه	-10.8379
▁عضو	-10.8381
حق	-10.8384
▁konuları	-10.8387
▁anlat	-10.8388
▁mon	-10.8389
▁Kom	-10.839
▁वर	-10.8394
▁Hay	-10.8399
▁साम	-10.84
كاف	-10.8401
▁—	-10.8404
▁गुप्त	-10.8405
▁قص	-10.8405
▁فتح	-10.8409
tma	-10.8409
▁निक	-10.841
▁تطور	-10.8411
नीय	-10.8412
▁evlendi	-10.8413
▁لاعب	-10.8414
▁بغداد	-10.8414
▁hızla	-10.8419
▁tartışma	-10.8419
عرف	-10.842
ونغ	-10.8421
तल	-10.8421
ddin	-10.8421
lanabilir	-10.8422
▁Gal	-10.8423
▁yayınlar	-10.8423
yordu	-10.8423
▁co	-10.8424
▁Tah	-10.8425
▁böyle	-10.8429
रिक	-10.843
▁ود	-10.8431
شك	-10.8435
ولا	-10.8435
cs	-10.8436
स्ट्र	-10.8436
▁it	-10.8439
kut	-10.8443
प्प	-10.8444
▁عامة	-10.8444
▁طبقا	-10.8446
▁kentinde	-10.8447
ux	-10.8448
بلدة	-10.8448
लिंग	-10.8451
▁taraf	-10.8452
مول	-10.8456
▁dolaş	-10.8459
▁ख़	-10.8469
laştırma	-10.8471
üne	-10.8471
masını	-10.8472
▁रू	-10.8475
हो	-10.8475
روح	-10.8476
▁३०	-10.8477
بايت	-10.8479
▁izle	-10.8479
ath	-10.8484
▁saha	-10.8485
ó	-10.8489
دخل	-10.8489
ليس	-10.849
يبي	-10.8491
▁لهم	-10.8493
▁dilinde	-10.8494
og	-10.8496
غال	-10.8498
विन	-10.8499
abilme	-10.8501
AD	-10.8509
ानी	-10.8512
▁لأنه	-10.8512
्नी	-10.8514
▁port	-10.8516
▁Fen	-10.8518
likleri	-10.8519
▁Ey	-10.852
حدها	-10.8523
ांक	-10.8524
▁مسلم	-10.8525
▁bağımsızlığın	-10.8527
▁Ag	-10.8528
▁صغير	-10.853
▁edebi	-10.853
port	-10.8531
भी	-10.8531
▁كول	-10.8532
ysa	-10.8534
gg	-10.8539
abilen	-10.8539
वर्ती	-10.8539
▁politik	-10.854
▁uyum	-10.854
▁خصائص	-10.8541
▁kanıt	-10.8541
▁doğum	-10.8548
▁elemanları	-10.8549
خط	-10.8549
▁संस्था	-10.8553
▁أسس	-10.8553
▁بح	-10.8555
سياسة	-10.8556
▁şehrinde	-10.8556
▁मना	-10.8557
▁अर्	-10.8558
▁القر	-10.8558
▁icat	-10.856
▁Öl	-10.8562
▁simgesi	-10.8562
▁ليست	-10.8562
▁biyo	-10.8566
رتفع	-10.8567
μ	-10.8569
RGB	-10.8569
▁Dobruca	-10.8569
▁meslek	-10.8569
▁strateji	-10.8569
▁yüzölçümü	-10.8569
▁تيفيناغ	-10.8569
▁आरंभ	-10.8569
▁छोटी	-10.8569
▁नेतृत्व	-10.8569
▁प्रक्रिया	-10.8569
▁सरस्वती	-10.8569
▁सिनेमा	-10.8569
▁bağımlı	-10.8569
▁hariç	-10.8569
▁Sitesi	-10.8569
▁Yüzyıl	-10.8569
▁منتصف	-10.8569
▁1903	-10.8569
▁eylem	-10.8569
موانئ	-10.8569
طالع	-10.8569
col	-10.8569
▁Antiller	-10.8569
▁Artvin	-10.8569
▁कोशिका	-10.8569
▁oluşturduğu	-10.8569
▁Suriye	-10.8569
▁الطعام	-10.8569
▁kimyager	-10.8569
▁العصر	-10.857
▁सुंदर	-10.857
▁Güngören	-10.857
▁उत्पत्ति	-10.857
▁Toprak	-10.857
▁أجزاء	-10.857
▁पशु	-10.857
مين	-10.8571
▁anılan	-10.8571
▁يوهان	-10.8571
▁بريطانيا	-10.8572
▁göstermektedir	-10.8573
▁şunlardır	-10.8573
▁1906	-10.8573
▁والتطبيقية	-10.8573
▁ग्रंथ	-10.8573
▁मिलकर	-10.8574
▁Hanlığı	-10.8575
معابد	-10.8575
▁tepki	-10.8575
▁gizli	-10.8575
▁Milli	-10.8576
▁bugünkü	-10.8576
▁1877	-10.8576
▁giden	-10.8576
▁فولت	-10.8577
▁सफल	-10.8578
▁भावना	-10.8579
▁familyasın	-10.858
paşa	-10.8581
مقاومة	-10.8583
▁الذرة	-10.8584
▁Şarkı	-10.8586
▁Georg	-10.8587
▁Helen	-10.8588
▁ساكسونيا	-10.8589
▁Arjantinli	-10.859
नाम	-10.8591
âm	-10.8592
▁yaşarlar	-10.8594
▁नई	-10.8595
▁أطلق	-10.8595
▁هنا	-10.8595
▁elinde	-10.8596
▁जोड़	-10.8597
▁kurul	-10.8597
فرقة	-10.8597
niz	-10.8598
▁स्प	-10.8599
قال	-10.86
काण्ड	-10.8602
ello	-10.8603
وين	-10.8603
▁vardı	-10.8604
▁المعادن	-10.8605
▁आत्मा	-10.8607
▁القسم	-10.8609
▁eleştirmen	-10.8609
▁Grand	-10.8613
▁मिलन	-10.8613
▁मेला	-10.8615
▁gazetecilik	-10.8615
▁عسكرية	-10.862
▁النصف	-10.862
fizik	-10.8621
वायु	-10.8622
▁أوتو	-10.8622
lma	-10.8622
शंकर	-10.8622
▁Türkler	-10.8623
صقلية	-10.8625
▁Kanadalı	-10.8626
▁1882	-10.8627
ğü	-10.8633
▁إم	-10.8633
▁Hem	-10.8634
▁राव	-10.8635
▁1923-	-10.8637
▁الطائرات	-10.8639
▁Papa	-10.8644
Bu	-10.8644
▁savaşı	-10.8645
▁أربعة	-10.8647
ائه	-10.8649
▁الإي	-10.8649
▁نارا	-10.865
▁des	-10.8654
اعة	-10.8654
sıyla	-10.8655
▁मुख	-10.8656
syon	-10.8657
▁चरण	-10.8657
▁çıkması	-10.866
कट	-10.8667
▁परम	-10.8668
▁elması	-10.8668
▁Kendi	-10.8671
मैन	-10.8673
ses	-10.8677
▁EN	-10.8678
▁रेखा	-10.868
▁grupta	-10.868
row	-10.8682
▁المزار	-10.8687
راءة	-10.8693
واحي	-10.8694
▁أمثل	-10.8694
▁البي	-10.8695
حت	-10.8695
ât	-10.8701
ودي	-10.8701
▁başlamış	-10.8708
▁kuruluşlar	-10.8708
ीकृत	-10.8708
▁लड़	-10.8711
▁فريدري	-10.8712
▁fabrika	-10.8713
▁रस	-10.8717
▁dile	-10.8717
▁السل	-10.872
nel	-10.8724
▁चन्द्र	-10.873
▁قيم	-10.873
ालय	-10.8732
تقدم	-10.8735
▁पुन	-10.8737
▁kuruluşları	-10.8738
aklı	-10.8739
lemek	-10.8739
▁55	-10.8741
▁hizmetleri	-10.8741
▁yapmaya	-10.8745
dal	-10.8749
صور	-10.8751
بث	-10.8753
▁yapılmakta	-10.8754
سيا	-10.8755
▁Dönemi	-10.8756
▁olmaması	-10.8761
▁geldiği	-10.8762
▁Pre	-10.8763
▁ياباني	-10.8765
ात्मक	-10.8767
▁tanımla	-10.8767
▁adına	-10.8767
▁نظر	-10.8768
▁tesis	-10.8769
▁إد	-10.8769
نفس	-10.8772
▁önde	-10.8773
بس	-10.878
ero	-10.8781
liğine	-10.8783
يتا	-10.8784
▁mineral	-10.8784
▁حدث	-10.8787
▁çekilmiş	-10.8787
فان	-10.8789
नक	-10.8789
ربط	-10.8793
तो	-10.8794
▁dünyası	-10.8795
▁Gro	-10.8795
▁uzunluğunda	-10.8796
bilir	-10.8796
दे	-10.8797
▁مغن	-10.8798
▁فور	-10.88
▁Pas	-10.8806
layıcı	-10.8812
▁مبان	-10.8817
▁önünde	-10.8818
▁(5	-10.882
▁karbon	-10.8824
sıdır	-10.8825
▁1924-	-10.883
▁الشام	-10.8832
▁المصري	-10.8832
راق	-10.8834
▁Dağları	-10.8836
▁gelişmiş	-10.8839
▁عراقي	-10.884
▁kurulması	-10.884
▁göl	-10.8841
▁الواقع	-10.8841
▁कृ	-10.8841
भाग	-10.8843
قوانين	-10.8844
▁अंग्रेज	-10.8848
معادلة	-10.8849
▁pul	-10.8852
▁vali	-10.8852
معادن	-10.8857
▁कुश	-10.8861
▁Port	-10.8864
▁خارج	-10.8866
حافظ	-10.8872
▁Hanı	-10.8873
istan	-10.8874
▁فصل	-10.8875
▁إلكترون	-10.8875
▁النو	-10.8876
▁وليس	-10.8877
eğer	-10.8877
▁الغاز	-10.8877
▁başbakan	-10.8878
▁मुक्त	-10.8878
sunu	-10.8879
▁Arnavut	-10.888
▁karikatür	-10.888
ρ	-10.8881
اختصار	-10.8881
`	-10.8881
▁Ferdinand	-10.8881
▁Karaburun	-10.8881
▁Uygulama	-10.8881
▁Yavuz	-10.8881
▁soğuk	-10.8881
▁ölçeği	-10.8881
▁البنائية	-10.8881
▁عائشة	-10.8881
▁مخارج	-10.8881
▁अफ्रीका	-10.8881
▁आक्रमण	-10.8881
▁किंगडम	-10.8881
▁परिवर्तन	-10.8881
▁मुस्लिम	-10.8881
▁रक्षा	-10.8881
▁विस्फोट	-10.8881
▁हैदराबाद	-10.8881
▁وتعني	-10.8881
▁पंडित	-10.8881
▁Morfoloji	-10.8881
▁tıbb	-10.8881
▁العليا	-10.8881
▁Video	-10.8881
▁वापस	-10.8881
▁Litvanya	-10.8881
▁dağıldı	-10.8881
▁Mahmut	-10.8881
▁tekniği	-10.8881
▁لقاح	-10.8881
La	-10.8882
▁gördüğü	-10.8882
▁विद्यालय	-10.8882
▁دارفور	-10.8882
▁खाड़ी	-10.8882
▁Yayıncılık	-10.8882
▁رسام	-10.8882
Ü	-10.8882
▁Hayvan	-10.8882
▁حكام	-10.8882
▁vadi	-10.8882
▁Press	-10.8882
▁Ebru	-10.8882
▁bulunmuştur	-10.8882
ذهب	-10.8883
▁Aziz	-10.8883
▁Bell	-10.8883
▁ortasında	-10.8883
▁बाबा	-10.8883
▁kuyruklu	-10.8883
▁क्रिया	-10.8883
▁sebebiyle	-10.8884
▁Metin	-10.8884
html	-10.8884
▁girmiştir	-10.8885
▁açılan	-10.8885
▁Kraliçesi	-10.8885
▁subay	-10.8886
▁barış	-10.8886
▁1901	-10.8887
▁Serisi	-10.8889
▁المساحة	-10.8891
تستعمل	-10.8891
▁अक्स	-10.8891
▁आकार	-10.8893
▁cinsi	-10.8893
صعب	-10.8894
زهر	-10.8896
▁kontrolü	-10.8897
▁المصطلح	-10.89
▁birisidir	-10.8901
زة	-10.8901
▁ففي	-10.8903
▁ब्रह्मा	-10.8903
▁Bunlardan	-10.8905
▁Bedesteni	-10.8905
طول	-10.8906
▁gereken	-10.8906
▁قديمة	-10.8906
▁العهد	-10.8907
▁ब्रह्म	-10.8908
▁kas	-10.8908
عاصمة	-10.8909
▁gelmesi	-10.891
▁عيسى	-10.8911
▁للأ	-10.8914
▁राग	-10.8914
▁النقل	-10.8914
▁çalışmaya	-10.8914
▁المعروفة	-10.8917
▁değerleri	-10.8917
▁Başkanlığı	-10.8917
يكس	-10.8917
▁सुर	-10.8919
نقطة	-10.8919
حتوى	-10.8922
पो	-10.8923
▁çalışır	-10.8923
हीन	-10.8929
align	-10.8929
▁cerrahi	-10.8929
azım	-10.8933
मूल	-10.8933
çü	-10.8934
▁Men	-10.8935
ताज	-10.8935
▁aşk	-10.8936
▁Türler	-10.8937
▁اليونانية	-10.8937
سلاح	-10.8939
gün	-10.894
rası	-10.8941
▁isyan	-10.8942
▁daire	-10.8942
▁grubunda	-10.8943
▁भूषण	-10.8945
▁मिली	-10.8945
अलग	-10.8947
निधन	-10.8948
form	-10.8949
▁felsefe	-10.8949
Amerikalı	-10.8951
mı	-10.8951
الثقافة	-10.8952
ينغ	-10.8952
▁حجر	-10.8954
حقوق	-10.8955
स्व	-10.8956
साथ	-10.8958
वाई	-10.8963
▁kazananlar	-10.8964
▁ساعة	-10.8964
IP	-10.8965
لمدينة	-10.8966
बू	-10.8969
▁seyahat	-10.8969
▁मणि	-10.8971
▁معنى	-10.8973
teri	-10.8977
باء	-10.8979
azar	-10.8979
▁ederler	-10.8979
,000	-10.898
▁Kel	-10.898
▁Yu	-10.8981
▁gemisi	-10.8981
▁مجموع	-10.8983
▁hata	-10.8984
▁إيه	-10.8985
▁birlikleri	-10.8986
▁الرمز	-10.899
رسول	-10.8995
▁Eli	-10.8996
▁bulma	-10.8997
▁Ölüm	-10.8998
قسم	-10.9
ेंट	-10.9006
▁कोड	-10.901
لط	-10.9012
ाद	-10.9013
▁العين	-10.9014
▁माने	-10.9016
ماء	-10.9016
बुल	-10.9018
र्व	-10.902
ilir	-10.9022
حركة	-10.9028
▁खास	-10.903
▁रेडियो	-10.9039
▁cinsin	-10.904
▁ku	-10.9043
ساب	-10.9046
▁bölgeleri	-10.9049
▁Turk	-10.9052
ब्र	-10.9053
▁بروتون	-10.9054
Sa	-10.9059
▁الأن	-10.9059
▁politika	-10.9059
باع	-10.906
▁kitaplar	-10.906
▁السكر	-10.9061
▁इलाक	-10.9063
र्थ	-10.9064
سكر	-10.9067
▁बसे	-10.9068
▁yayınlandı	-10.9068
ney	-10.907
▁endüstri	-10.907
▁تجمع	-10.9071
ैन	-10.9075
▁unsur	-10.9076
CC	-10.9078
▁مهم	-10.908
ज़र	-10.9081
▁دراسة	-10.9082
يتش	-10.9091
▁yıkıldı	-10.9094
▁sayılı	-10.9096
vâ	-10.9098
99)	-10.9098
fr	-10.9101
▁كثاف	-10.9104
kra	-10.9104
▁مقابل	-10.9108
masıyla	-10.9113
▁وان	-10.9115
लोक	-10.9118
लिया	-10.9121
bay	-10.9123
َة	-10.9126
قار	-10.9127
दीप	-10.9129
حضر	-10.9132
रसा	-10.9134
زه	-10.9136
▁donanım	-10.9136
pon	-10.9136
ंश	-10.9139
▁canlılar	-10.9139
▁ihtiyaç	-10.9141
ettin	-10.9142
▁değişme	-10.9144
نين	-10.9146
चक	-10.9147
▁alması	-10.9149
▁aygıt	-10.915
ैल	-10.915
नीचे	-10.915
पुरा	-10.9154
▁لك	-10.9154
فتح	-10.9156
ّر	-10.9158
itz	-10.9159
जय	-10.9161
▁medya	-10.9162
▁كن	-10.9163
▁अधिकत	-10.9164
▁०	-10.9165
▁komutan	-10.9166
िप	-10.9166
▁मंडल	-10.9166
▁معروف	-10.9167
▁kişilerin	-10.9168
SD	-10.917
▁çalışması	-10.9173
▁وف	-10.9178
▁स्वा	-10.9179
CO	-10.9181
जि	-10.9188
مجموعة	-10.9188
▁الحديد	-10.919
▁माँ	-10.9195
▁البا	-10.9198
▁فأ	-10.92
وخ	-10.92
▁بينها	-10.92
▁kısmında	-10.92
▁eserlerin	-10.9202
▁Passer	-10.9202
▁tamamlandı	-10.9203
▁नाटक	-10.9204
▁buldu	-10.9204
▁Alfred	-10.9204
▁Estonya	-10.9204
▁algoritma	-10.9204
▁yuvarlak	-10.9204
▁الجزيء	-10.9204
▁कनाडा	-10.9204
▁खनिज	-10.9204
▁दार्शनिक	-10.9204
▁पहुंच	-10.9204
▁मशहूर	-10.9204
▁संस्करण	-10.9204
▁साहिब	-10.9204
▁(2003)	-10.9204
▁Arthur	-10.9204
▁सितम्बर	-10.9204
▁لقياس	-10.9204
▁وبعض	-10.9204
▁राजनेता	-10.9204
▁الدنيا	-10.9204
▁شعراء	-10.9204
▁विधानसभा	-10.9204
▁स्टेशन	-10.9204
▁lezbiyen	-10.9204
▁Modena	-10.9204
▁गायिका	-10.9204
▁Mersin	-10.9205
▁oluşmuştur	-10.9205
▁प्रवेश	-10.9205
anılmaktadır	-10.9205
▁रेलवे	-10.9205
▁kullanıldı	-10.9205
▁Mantık	-10.9205
▁वाहन	-10.9206
▁arana	-10.9206
▁झीलें	-10.9206
▁اكتشف	-10.9207
▁विदेश	-10.9208
▁रानी	-10.9208
▁جسم	-10.9208
▁المجتمع	-10.9209
▁düzenlenen	-10.9209
▁शनि	-10.9209
▁1928	-10.9209
▁dayalı	-10.921
▁1894	-10.921
تحقيق	-10.921
▁الكون	-10.921
▁الانتقالية	-10.921
▁1898	-10.921
▁1857	-10.9211
▁Ziya	-10.9211
▁बनाए	-10.9211
▁mekan	-10.9211
▁Metal	-10.9211
▁العضوية	-10.9213
▁girer	-10.9213
▁النفط	-10.9215
▁siyasetçiler	-10.9216
▁dördüncü	-10.9217
▁الأعلى	-10.9218
▁getiren	-10.9218
▁سبعة	-10.9219
▁yağış	-10.922
▁coğrafi	-10.922
▁günümüze	-10.922
kul	-10.922
▁anlatan	-10.9221
▁लेखन	-10.9221
hir	-10.9223
▁الأعمال	-10.9224
gor	-10.9224
يكا	-10.9225
▁süt	-10.9225
ex	-10.9225
▁deneyim	-10.9225
▁النووية	-10.9227
▁Porto	-10.9228
▁الزراعة	-10.9228
▁Düz	-10.9229
ّل	-10.923
به	-10.9231
▁कल	-10.9232
نزلت	-10.9233
alım	-10.9233
▁يمثل	-10.9234
▁getirildi	-10.9234
▁تاكا	-10.9235
نتشر	-10.9236
▁Sin	-10.9237
CD	-10.924
▁العلوم	-10.9241
▁maddesi	-10.9242
صوت	-10.9244
▁değerler	-10.9245
cul	-10.9246
▁المد	-10.9247
▁وقال	-10.9247
▁الواقعة	-10.9249
lenir	-10.9252
▁Ac	-10.9253
▁ayrım	-10.9258
▁देता	-10.9259
▁korunması	-10.9259
▁الشعر	-10.926
▁مشروع	-10.9261
▁ilçesinde	-10.9261
▁लिखे	-10.9262
TÜ	-10.9264
▁ilkesi	-10.9266
▁जाए	-10.9266
▁يمر	-10.9268
▁değişim	-10.9269
मुख	-10.927
▁Osmanlılar	-10.9272
▁filminde	-10.9276
▁Math	-10.9278
▁anlatır	-10.9279
Arapça	-10.9279
توضيح	-10.928
ull	-10.9281
▁ikili	-10.9281
▁معبد	-10.9282
▁أمان	-10.9282
वर्ष	-10.9284
▁kısaltması	-10.9285
▁صف	-10.9285
▁शुद्ध	-10.9286
सभा	-10.9287
▁yoğunluğu	-10.9289
An	-10.929
vis	-10.9292
▁Mario	-10.9292
▁fırkateyn	-10.9293
▁فو	-10.9293
▁العلماء	-10.9294
▁إلكترونات	-10.9294
▁ام	-10.9295
▁alın	-10.9298
ـ)	-10.93
ساوي	-10.9307
iyordu	-10.9307
▁أفضل	-10.9308
▁يشكل	-10.931
توفر	-10.9311
▁Ağa	-10.9311
قوى	-10.9314
▁sembol	-10.9315
lâ	-10.9317
▁(12	-10.9323
▁استعمال	-10.9324
▁تصل	-10.9324
elle	-10.9324
था	-10.9327
▁جنو	-10.9328
tte	-10.9329
▁işlemleri	-10.933
دمج	-10.933
द्य	-10.9333
ضاء	-10.9334
علوم	-10.9336
▁kıyı	-10.9336
▁arkadaşı	-10.9337
حرف	-10.9339
▁Sar	-10.9341
▁Andrea	-10.9341
وضح	-10.9346
▁बह	-10.935
▁يوشي	-10.9351
▁etkin	-10.9353
eci	-10.9355
▁इतन	-10.9355
yarak	-10.9356
▁yaşama	-10.9358
وبة	-10.9359
▁mitolojisi	-10.9359
▁سين	-10.9364
▁लंब	-10.9365
الب	-10.9367
▁Min	-10.9368
▁125	-10.9369
▁disk	-10.9371
▁geçerli	-10.9372
▁yayınladı	-10.9372
▁kurallar	-10.9372
▁uğraş	-10.9374
▁भवन	-10.9375
▁ün	-10.9381
▁kütlesi	-10.9384
كيل	-10.9384
üsü	-10.9384
برة	-10.9385
▁مون	-10.9388
▁ورد	-10.9389
▁kare	-10.9389
34)	-10.939
الاسم	-10.9392
21)	-10.9397
▁घ	-10.9398
▁هما	-10.9402
▁kendisini	-10.9402
▁يدع	-10.9404
دفع	-10.9405
▁ارتفاع	-10.9414
▁dayana	-10.9414
रस	-10.9415
▁konuşma	-10.9416
▁سمي	-10.9417
▁مرض	-10.9417
fir	-10.9419
▁غالب	-10.942
ायन	-10.9421
TP	-10.9422
III	-10.9422
ico	-10.9423
hil	-10.9425
sar	-10.9425
▁آثار	-10.9426
▁böl	-10.9426
▁اتجاه	-10.9427
▁عرفت	-10.9428
▁May	-10.9428
▁Kay	-10.9432
▁eksen	-10.9434
▁لما	-10.9438
▁Kurt	-10.9439
Man	-10.944
▁عمان	-10.9444
▁الأصل	-10.9445
▁Yapraklar	-10.9446
▁हल	-10.9446
▁işi	-10.9447
LG	-10.9448
ân	-10.9453
▁حال	-10.9453
▁Protestan	-10.9453
▁Söz	-10.9455
गन	-10.9456
▁पेट	-10.9457
فور	-10.9458
र्य	-10.9458
एक	-10.9462
▁eleman	-10.9464
▁tanımlar	-10.9465
mişlerdir	-10.9467
लेने	-10.9477
▁Ağaç	-10.9483
▁ماسا	-10.9483
▁लगत	-10.9489
▁kaynakları	-10.9491
▁yolları	-10.9492
▁şiirleri	-10.9492
▁الحاكم	-10.9492
▁elma	-10.9493
ilebilir	-10.9493
gah	-10.9495
▁حلقي	-10.9496
▁söylen	-10.9496
▁sıcaklığı	-10.9497
▁Yayın	-10.9498
▁meclis	-10.9498
▁نشاط	-10.95
ett	-10.9501
▁75	-10.9503
▁Başkan	-10.9503
▁पुर	-10.9511
▁usta	-10.9511
▁مور	-10.9515
سعة	-10.9515
▁प्रसिद्	-10.9517
▁الخشب	-10.9522
▁التقسيم	-10.9523
▁ova	-10.9527
▁sınırı	-10.9529
رتبط	-10.9531
urtuluş	-10.9536
▁İsm	-10.9536
▁लिंक	-10.9537
▁Yimou	-10.9537
τ	-10.9537
─	-10.9537
▁Başbakan	-10.9537
▁Grubu	-10.9537
▁eşcinsel	-10.9537
▁nükle	-10.9537
▁röportaj	-10.9537
▁Çevre	-10.9537
▁İklim	-10.9537
▁الزراعية	-10.9537
▁جزيء	-10.9537
▁फ़रवरी	-10.9537
▁फुट	-10.9537
▁मथुरा	-10.9537
▁मरुस्थल	-10.9537
▁महत्त्व	-10.9537
▁सहायक	-10.9537
▁Kayseri	-10.9537
▁Komitesi	-10.9537
▁Portakal	-10.9537
▁अध्याय	-10.9537
▁करोड़	-10.9537
▁घायल	-10.9537
▁परिणाम	-10.9537
▁Claude	-10.9537
▁amiral	-10.9537
▁نظير	-10.9537
وستفاليا	-10.9537
▁مسافة	-10.9537
▁Batman	-10.9537
▁hidrojen	-10.9537
▁प्रकृति	-10.9537
▁Bartın	-10.9537
▁कम्युनिस्ट	-10.9537
▁الأسبوع	-10.9537
▁Toplum	-10.9537
▁Siyah	-10.9537
▁सहयोग	-10.9538
▁इकाई	-10.9538
▁टेस्ट	-10.9538
▁مساحتها	-10.9538
▁temiz	-10.9538
▁Kaymakamlığı	-10.9538
▁aracılığıyla	-10.9538
▁sayılabilir	-10.9538
▁गैस	-10.9538
▁آرثر	-10.9538
▁गोपाल	-10.9538
قطع	-10.9538
▁सूचना	-10.9538
▁संग्राम	-10.9538
▁अशोक	-10.9538
▁herkes	-10.9538
▁कपूर	-10.9538
दूत	-10.9538
▁فريق	-10.9539
▁पार्क	-10.9539
▁hisse	-10.954
▁الجبال	-10.954
▁uçak	-10.9541
▁Award	-10.9541
▁अहमद	-10.9541
▁Göksu	-10.9541
▁घिरा	-10.9542
▁ilişki	-10.9542
▁eşittir	-10.9543
▁gelişme	-10.9543
▁प्रचल	-10.9544
سلطة	-10.9544
▁1897	-10.9544
▁1911	-10.9545
▁sayısal	-10.9547
▁رجل	-10.9547
▁düzenleme	-10.9547
▁2023	-10.9547
▁الغذائية	-10.9548
▁Avni	-10.9549
▁kamp	-10.9549
▁çizim	-10.955
▁التعريف	-10.9551
▁mimarisi	-10.9552
▁ملفات	-10.9552
حصل	-10.9555
▁Kamu	-10.9555
صيد	-10.9556
▁التجاري	-10.9556
نواة	-10.9558
टे	-10.9558
▁hayatına	-10.9559
▁etkile	-10.9559
▁gazeteciliği	-10.9561
▁aralık	-10.9561
▁मिलते	-10.9565
▁yazan	-10.9565
▁الموسيقية	-10.9565
▁sertlik	-10.9567
▁पत्थर	-10.9569
▁परीक्षण	-10.9569
▁çevril	-10.957
▁वेब	-10.9571
▁Euro	-10.9571
ائع	-10.9573
सो	-10.9574
جيل	-10.9576
▁المكان	-10.9577
▁फैला	-10.9578
▁النقطة	-10.9578
नाग	-10.9579
▁وليام	-10.9581
روا	-10.9583
sit	-10.9584
▁48	-10.9584
رأس	-10.9585
وها	-10.9588
صد	-10.959
▁القص	-10.959
▁Nor	-10.9594
▁وفق	-10.9599
▁وفا	-10.9601
▁malzeme	-10.9602
mat	-10.9603
▁nem	-10.9606
▁الأمازيغ	-10.9607
▁प्रणाल	-10.9607
▁Veli	-10.9609
▁2004)	-10.9609
▁الحق	-10.9609
▁wit	-10.961
▁सिद्धान्त	-10.9614
▁شمع	-10.9614
▁ثالث	-10.9614
▁रूसी	-10.9614
▁बहत	-10.9616
<	-10.9617
▁الدالة	-10.9619
ेंद्र	-10.9621
▁106	-10.9622
ole	-10.9624
طف	-10.9624
▁पति	-10.9627
عائلة	-10.9628
En	-10.9629
▁घाट	-10.9631
▁उर्दू	-10.9632
▁edin	-10.9634
▁Boz	-10.9637
▁250	-10.9638
▁peri	-10.9641
▁व्य	-10.9643
▁2002'	-10.9644
▁جامع	-10.9648
▁tarzı	-10.9649
مورا	-10.9651
ble	-10.9657
▁पैर	-10.9666
▁निर्	-10.9667
▁الوزراء	-10.9669
▁sıfır	-10.967
▁Tr	-10.9671
ولوجي	-10.9671
▁(13	-10.9673
▁Poli	-10.9675
▁كمية	-10.9677
cia	-10.9678
▁fiil	-10.9679
▁ayın	-10.968
▁kıyısında	-10.968
▁süreci	-10.9682
▁46	-10.9686
▁درج	-10.9691
▁تحول	-10.9691
▁kaldır	-10.9691
▁adıdır	-10.9691
▁tanrı	-10.9692
त्य	-10.9695
name	-10.9704
▁بالأ	-10.9707
▁başlaması	-10.971
▁Yi	-10.971
▁biz	-10.9719
▁çiçekler	-10.9719
▁170	-10.9722
▁महाद्वीप	-10.9723
sek	-10.9726
▁Gece	-10.9727
▁شعب	-10.9731
▁सूत्र	-10.9732
▁Sak	-10.9733
▁grubunu	-10.9736
▁ठ	-10.9737
ोस	-10.9738
▁taşıma	-10.974
▁sefer	-10.9745
urdu	-10.9749
ियां	-10.975
▁أساس	-10.9751
▁devri	-10.9752
▁ürün	-10.9755
▁kısmını	-10.9762
ges	-10.9766
▁أوك	-10.9769
▁tamamı	-10.977
▁وط	-10.9776
िला	-10.9777
▁kanalı	-10.9777
فيد	-10.978
भि	-10.9781
▁देख्	-10.9782
मेर	-10.9783
▁sisteminde	-10.9783
larca	-10.9784
आर	-10.9785
/1	-10.9789
لحن	-10.9791
▁जहाज	-10.9793
emez	-10.9796
▁1914	-10.9797
ound	-10.9801
رياضيات	-10.9803
elek	-10.9803
▁كلها	-10.9805
▁تسميته	-10.9806
leyerek	-10.9811
त्री	-10.9812
▁İs	-10.9816
▁إب	-10.9819
▁Hü	-10.9823
0000	-10.9826
▁yaşamını	-10.9827
▁جين	-10.9833
▁الجمل	-10.9833
धन	-10.9841
▁إداري	-10.9842
▁बंद	-10.9844
محلية	-10.9844
بحر	-10.9848
▁Tim	-10.985
abilmektedir	-10.985
oid	-10.9851
خطوط	-10.9852
▁ağırlık	-10.9854
ाग	-10.9854
२३	-10.9855
▁çeviri	-10.9855
قمة	-10.9859
१७	-10.9864
شكل	-10.9866
فئة	-10.9867
ling	-10.9867
▁क्ल	-10.9868
قرى	-10.987
▁Ker	-10.9871
▁?)	-10.9872
▁ülkelerin	-10.9874
تقي	-10.9874
लिये	-10.9876
▁ذ	-10.9878
▁yalnız	-10.9878
oc	-10.9879
▁suç	-10.9879
▁Black	-10.9879
▁sorumlu	-10.9879
वट	-10.988
▁Kış	-10.988
ङ	-10.9881
ς	-10.9882
▁Mozilla	-10.9882
▁Yozgat	-10.9882
▁bellek	-10.9882
▁eğri	-10.9882
▁kromozom	-10.9882
▁orijinal	-10.9882
▁التكافؤ	-10.9882
▁مؤقت	-10.9882
▁अभियान्त्रिकी	-10.9882
▁आयुर्वेद	-10.9882
▁तुर्की	-10.9882
▁तूफान	-10.9882
▁परियोजना	-10.9882
▁बंदरगाह	-10.9882
▁बराबर	-10.9882
▁योजना	-10.9882
Prunus	-10.9882
▁Arkeoloji	-10.9882
▁Sakarya	-10.9882
▁الأوسط	-10.9882
▁Teknoloji	-10.9882
▁bayrak	-10.9882
▁عديدة	-10.9882
▁BBC	-10.9882
▁macera	-10.9882
▁Hitler	-10.9882
▁protein	-10.9882
▁1876	-10.9882
▁Burdur	-10.9882
▁cilt	-10.9882
▁şeker	-10.9882
▁esnekliği	-10.9882
▁أعلن	-10.9882
▁iğne	-10.9882
▁Bankası	-10.9883
▁yağmur	-10.9883
ल्ला	-10.9883
▁النصوص	-10.9883
▁हुये	-10.9883
▁الجامعات	-10.9883
▁hamle	-10.9883
▁statüsü	-10.9883
▁الأراضي	-10.9883
▁tören	-10.9883
▁विशाल	-10.9883
▁kurgu	-10.9883
▁yangın	-10.9883
▁وجه	-10.9883
▁साधन	-10.9883
▁Francesc	-10.9884
▁İz	-10.9884
▁जॉन	-10.9884
▁अनुवाद	-10.9884
▁हास्य	-10.9884
▁Harry	-10.9885
▁सतह	-10.9885
▁Kap	-10.9885
▁görülebilir	-10.9886
▁geçmektedir	-10.9886
▁الجسم	-10.9886
▁idam	-10.9887
▁इन्	-10.9887
▁bırak	-10.9887
▁tatlı	-10.9887
▁Önce	-10.9887
▁Rize	-10.9887
▁yüzünden	-10.9887
▁çıkmış	-10.9888
▁मू	-10.9888
▁43	-10.9889
▁değişir	-10.9889
▁सफलता	-10.9889
▁المعدنية	-10.9891
▁टीका	-10.9891
▁القومي	-10.9892
▁içeriği	-10.9892
▁الهجري	-10.9894
▁kaynaklarda	-10.9894
▁üretilen	-10.9895
▁tanım	-10.9896
▁Diyarbakır	-10.9896
▁सम्प्रदाय	-10.9896
▁Koca	-10.9897
▁आर्	-10.9897
▁العبرية	-10.9897
▁الفرق	-10.9898
▁الديمقراطية	-10.9898
▁जुड़े	-10.9899
act	-10.9899
▁الأمم	-10.99
▁الكو	-10.9901
▁تجارية	-10.9901
بيل	-10.9902
षण	-10.9902
▁gelmiş	-10.9903
▁saz	-10.9903
ंबर	-10.9905
▁Seyyid	-10.9905
▁परिषद	-10.9905
▁devrimci	-10.9906
توس	-10.9906
muştur	-10.9908
▁دين	-10.991
▁القدس	-10.991
▁الليبي	-10.991
▁kg	-10.9913
▁महाराजा	-10.9914
▁geçme	-10.9915
▁पुराने	-10.9915
▁psikoloji	-10.9917
▁दि	-10.9919
▁gezegenler	-10.9919
▁جد	-10.992
▁हिसा	-10.9921
▁يكن	-10.9926
▁ke	-10.9927
हे	-10.9929
السويد	-10.9932
▁Zey	-10.9932
धिक	-10.9932
organik	-10.9935
▁yöneticisi	-10.9935
▁गीतकार	-10.9936
▁mevsimi	-10.9936
▁yaşamı	-10.994
▁فنان	-10.9941
5%	-10.9943
▁दुर्ग	-10.9946
eceğini	-10.9946
نع	-10.9948
▁1899	-10.9948
خير	-10.9948
burg	-10.995
▁الفحم	-10.9952
▁saygı	-10.9952
▁kimse	-10.9952
▁familyası	-10.9956
▁يست	-10.9958
▁Arch	-10.9959
▁هيئ	-10.996
/201	-10.9961
ender	-10.9963
▁con	-10.9964
▁الكاف	-10.9964
meyi	-10.9964
▁समस्त	-10.9965
▁amaçla	-10.9968
PF	-10.9969
mm	-10.997
▁alanlar	-10.9971
▁çıkarıl	-10.9973
▁Sistem	-10.9973
▁الصفر	-10.9975
▁النار	-10.9977
▁Jacques	-10.998
45)	-10.998
Türk	-10.9981
संग्रह	-10.9982
Türkçe	-10.9983
▁saldırı	-10.9983
▁mühendisi	-10.9984
तंत्र	-10.9985
ीव	-10.9988
سجل	-10.9989
▁الأد	-10.999
▁dev	-10.9993
▁كار	-10.9994
▁आस	-10.9995
▁anlatıl	-10.9997
▁رام	-11
ales	-11
ग़	-11.0001
▁Is	-11.0001
▁عط	-11.0002
▁يلي	-11.0003
स्प	-11.0003
kim	-11.0005
واء	-11.0006
▁verilmesi	-11.0014
▁Time	-11.0015
▁başlarında	-11.0016
ملاح	-11.0016
▁الإغريق	-11.0017
gari	-11.002
▁köyü	-11.0021
▁महल	-11.0022
غون	-11.0022
سفة	-11.0025
▁Dada	-11.0029
▁تركيب	-11.003
طار	-11.0031
▁हवा	-11.0032
▁farkı	-11.0034
تقنية	-11.0035
landırma	-11.0038
▁39	-11.0039
▁kişileri	-11.0042
▁दिनों	-11.0045
क्रम	-11.0047
▁السيد	-11.0049
बाई	-11.0052
तुल्	-11.0053
▁127	-11.0056
asyonu	-11.0058
▁नियम	-11.0059
▁Wal	-11.0063
âl	-11.0064
▁تنظيم	-11.0064
ياس	-11.0066
रै	-11.0068
▁Pu	-11.0071
यम	-11.0074
▁giy	-11.0076
१३	-11.0076
▁Eyaleti	-11.0077
عمرو	-11.008
▁Balkan	-11.0082
تشابه	-11.0083
way	-11.0083
▁festival	-11.0085
uç	-11.0088
शास्त्र	-11.0088
▁Net	-11.0088
mayan	-11.0089
▁albüm	-11.0089
alp	-11.0092
صيف	-11.0097
تور	-11.0097
▁değişiklik	-11.0099
lerce	-11.01
▁निकट	-11.0101
▁128	-11.0103
▁efsane	-11.0106
▁Os	-11.0106
▁البو	-11.0109
▁kenarları	-11.0109
معدل	-11.011
▁birbirleri	-11.0111
▁قطع	-11.0111
▁Çinli	-11.0115
▁أُ	-11.0117
▁başlanmıştı	-11.0117
tch	-11.012
▁kuvvetleri	-11.0131
ारी	-11.0134
▁bölgelerde	-11.0137
▁silahlar	-11.0137
▁hala	-11.0137
▁perdesi	-11.0137
▁أساسي	-11.0144
▁(8	-11.015
ثيل	-11.0152
वाला	-11.0153
▁مالك	-11.016
ख्या	-11.0163
▁hangi	-11.017
▁büyüklüğünde	-11.0176
diğini	-11.0177
▁الرسم	-11.018
cik	-11.0182
▁Mora	-11.0185
▁رب	-11.0186
▁عشرة	-11.0187
ग्न	-11.019
yl	-11.0191
-14	-11.0192
تزوج	-11.0192
▁Gaz	-11.0195
نزل	-11.0197
▁كهربائي	-11.0198
▁طبيعي	-11.0199
▁كويتي	-11.0199
▁senarist	-11.0199
تجارة	-11.0206
▁الخاص	-11.0209
▁benze	-11.021
rop	-11.021
fu	-11.0211
▁Indian	-11.0212
▁söyle	-11.0215
▁Bilimler	-11.0217
▁toplamı	-11.0217
▁dek	-11.0217
▁Müze	-11.0219
▁çekirdeği	-11.022
▁yerleşti	-11.0221
merkezine	-11.0224
▁ima	-11.0225
▁वी	-11.0226
▁kopya	-11.0226
AR	-11.0227
▁الفل	-11.0228
रथ	-11.0229
▁Üniversite	-11.0233
▁Karşı	-11.0233
▁भक्त	-11.0236
نيتروجين	-11.0239
▁Sheffield	-11.0239
▁milletvekili	-11.0239
▁şerit	-11.0239
▁الأولمبية	-11.0239
▁بطريقة	-11.0239
▁वृद्धि	-11.0239
▁सम्मेलन	-11.0239
▁सिंहभूम	-11.0239
е	-11.0239
▁Şerif	-11.0239
▁الأطلسي	-11.0239
▁अच्छी	-11.0239
▁अमरीकी	-11.0239
▁तहत	-11.0239
▁özerk	-11.0239
▁engerek	-11.0239
▁idari	-11.0239
▁فاعل	-11.0239
▁Bitki	-11.0239
▁النيجر	-11.0239
▁fayda	-11.0239
▁किताब	-11.0239
▁الرازي	-11.0239
▁karşısında	-11.0239
ाक्षर	-11.0239
▁kaşif	-11.0239
▁milyar	-11.024
▁सूरज	-11.024
▁कन्नड़	-11.024
▁yaşındayken	-11.024
▁oluşumlar	-11.024
▁जातक	-11.024
▁sürdürdü	-11.024
▁اليسار	-11.024
▁Theodor	-11.024
▁kraliçesi	-11.024
▁महत्व	-11.024
▁Tarım	-11.024
▁dramati	-11.024
▁خالد	-11.024
▁[[	-11.0241
▁Antonio	-11.0241
▁Geniş	-11.0241
▁Server	-11.0241
▁Yugoslavya	-11.0241
تبادل	-11.0241
▁नियुक्त	-11.0241
▁aksine	-11.0241
▁मित्र	-11.0242
buselik	-11.0242
▁شهاد	-11.0242
kutsal	-11.0242
▁मुगल	-11.0242
▁hayal	-11.0242
cher	-11.0243
▁alınmıştır	-11.0243
▁Haber	-11.0243
▁तेल	-11.0243
▁छात्र	-11.0243
▁الشاي	-11.0243
إذا	-11.0244
▁1868	-11.0244
▁yetişen	-11.0246
▁يعتقد	-11.0246
▁çıkı	-11.0246
▁عمليات	-11.0247
▁मनु	-11.0249
▁نجد	-11.025
▁Kazak	-11.0251
▁فكان	-11.0251
▁düzenli	-11.0251
جال	-11.0252
▁Amanita	-11.0253
▁1830	-11.0254
▁يقول	-11.0255
▁fil	-11.0257
▁değin	-11.026
▁ويعتبر	-11.0261
▁yelkenli	-11.0261
▁ويستخدم	-11.0262
▁görüntüleme	-11.0262
▁पुराणों	-11.0263
▁Cuma	-11.0263
▁तिब्बत	-11.0263
▁सत्ता	-11.0264
चित	-11.0264
▁Eb	-11.0264
▁الأصوات	-11.0265
مضيق	-11.0265
▁Batt	-11.0265
▁bakış	-11.0267
▁Baze	-11.0267
▁المسيحية	-11.0268
▁vs	-11.0268
▁البلدان	-11.0269
أداة	-11.0271
▁जैसा	-11.0271
▁الأسماء	-11.0271
▁جامعات	-11.0271
▁الزاوية	-11.0271
▁uygulaması	-11.0272
▁Star	-11.0273
▁bulunabilir	-11.0273
ben	-11.0274
▁geliştirilmesi	-11.0274
mekteydi	-11.0275
▁Hor	-11.0276
▁Felsefe	-11.0276
▁Yüz	-11.0277
▁रु	-11.0277
ائج	-11.0278
▁إدارية	-11.0282
▁الروسية	-11.0282
▁عشيرة	-11.0283
शील	-11.0283
▁जू	-11.0283
▁البحرين	-11.0285
▁कब	-11.0285
▁girmesi	-11.0286
▁saniye	-11.0286
laştı	-11.0286
▁رسمية	-11.0286
بني	-11.0287
▁yara	-11.0287
▁örnekleri	-11.0288
▁dilidir	-11.0291
▁Türkmen	-11.0291
▁الأصلية	-11.0294
▁oluşturmak	-11.0294
▁लाग	-11.0294
▁Sayı	-11.0296
مثال	-11.0297
▁الألف	-11.0297
▁البلديات	-11.0298
lendi	-11.0298
▁Koleji	-11.0301
▁anlatım	-11.0304
ew	-11.0304
▁birbiri	-11.0304
FF	-11.0307
▁mide	-11.0308
▁1889	-11.0309
▁المعروف	-11.031
▁alacak	-11.031
▁البريطانية	-11.031
▁سيد	-11.031
▁मूर्ति	-11.0312
نظام	-11.0315
▁اللهج	-11.0316
▁اقتصادي	-11.0318
बंध	-11.0318
▁şairler	-11.0323
عَ	-11.0325
mit	-11.0327
▁बोस	-11.0329
▁sonuç	-11.0329
▁kazı	-11.033
▁İspanyolca	-11.0333
تطور	-11.0333
▁Au	-11.0337
▁teoremi	-11.0338
▁verileri	-11.0343
ضيف	-11.0343
مائة	-11.0343
▁खुद	-11.0348
▁احت	-11.035
▁मण्डल	-11.035
كثاف	-11.0352
▁hayat	-11.0355
حضارة	-11.0355
▁मोटर	-11.0355
द्द	-11.0356
فريد	-11.0357
▁bölün	-11.0357
▁Saf	-11.0357
चाई	-11.0359
भारतीय	-11.0359
▁''	-11.036
تصبح	-11.036
▁dağılım	-11.0361
▁mali	-11.0361
▁पड़त	-11.0363
است	-11.0363
حدث	-11.0363
tical	-11.0373
("	-11.0373
युग	-11.0373
▁محط	-11.0376
▁topluluk	-11.0378
▁dansı	-11.0379
likle	-11.0381
▁अग्र	-11.0382
▁الرم	-11.0383
▁الآل	-11.0383
قطار	-11.0385
▁İst	-11.0391
ue	-11.0392
▁tümü	-11.0396
▁hükûmeti	-11.0397
▁Reis	-11.0398
500	-11.0398
▁جبر	-11.0399
▁Kaya	-11.0399
▁وبين	-11.0399
▁etkileşim	-11.04
▁2000'	-11.0404
▁Türküler	-11.0407
▁kütle	-11.0409
irler	-11.0409
▁merkezinde	-11.0412
▁oynan	-11.0414
▁دينار	-11.0416
▁كلا	-11.0418
جيب	-11.0419
ator	-11.042
▁iri	-11.0421
400	-11.0421
تنتج	-11.0424
▁insanın	-11.0425
شهد	-11.0426
ंगे	-11.0427
نها	-11.0428
TA	-11.043
▁fabrikası	-11.0435
▁Ken	-11.0437
▁or	-11.0438
baş	-11.0439
▁Gil	-11.0441
२८	-11.0442
रंग	-11.0443
▁Hel	-11.0446
▁قرب	-11.0452
▁أخذ	-11.0454
▁अति	-11.0455
▁dönme	-11.0457
▁saklan	-11.0457
لفظ	-11.0461
▁Yarı	-11.0462
▁projesi	-11.0468
uv	-11.047
स्‍	-11.0472
▁Sev	-11.0473
▁kil	-11.0474
▁kullanıl	-11.0474
برز	-11.0475
▁Akademi	-11.0476
बर्ग	-11.0478
داد	-11.0479
▁بدل	-11.048
▁Dede	-11.0482
▁böcek	-11.0482
▁तिरु	-11.0485
▁kaydedil	-11.0492
▁प्रत्य	-11.0493
▁kariyeri	-11.0494
شة	-11.0499
udi	-11.0511
▁समा	-11.0516
▁الرومان	-11.0516
يط	-11.0522
कर्म	-11.0523
▁التل	-11.0525
رح	-11.0529
▁Bulgar	-11.0532
تسع	-11.0532
भाव	-11.0533
▁Win	-11.0533
▁اليوناني	-11.0536
▁चौ	-11.0537
▁ألماني	-11.0539
▁sü	-11.0541
صناعات	-11.0541
भूत	-11.0543
▁MS	-11.0543
▁edil	-11.0545
ान्त	-11.0546
▁ex	-11.0547
بيع	-11.0547
▁deyişle	-11.0551
▁Fra	-11.0552
▁yavru	-11.0553
FA	-11.0555
لاف	-11.0556
▁topla	-11.0558
▁الاستخدام	-11.0562
▁sanatları	-11.0563
كامي	-11.0563
بولي	-11.0564
نه	-11.0565
▁Okul	-11.0567
umu	-11.0568
انغ	-11.0569
▁الصلب	-11.0571
▁أربع	-11.0572
▁القائم	-11.0573
▁الألب	-11.0573
चाल	-11.0574
▁उपनिवेश	-11.0574
▁Emin	-11.0575
▁şekilleri	-11.0576
nar	-11.058
▁mutlak	-11.058
ग्रह	-11.0581
sey	-11.0583
▁بالت	-11.0585
छा	-11.0585
▁sağla	-11.0585
leştirilmesi	-11.0587
▁सत	-11.0588
▁serçe	-11.0588
▁وجد	-11.0589
▁yasak	-11.059
▁Cu	-11.059
َم	-11.059
▁birleştir	-11.0594
تنا	-11.0597
▁النشاط	-11.0597
وارد	-11.0598
▁حد	-11.06
▁المستخدم	-11.06
▁Gel	-11.06
▁القمر	-11.0601
ख़	-11.0602
▁değiştirme	-11.0604
▁Trans	-11.0604
▁pop	-11.0605
larak	-11.0606
راجع	-11.0606
▁kurumları	-11.0606
▁gördü	-11.0607
▁Program	-11.0608
▁ücret	-11.0608
▁ayrıldı	-11.0609
فير	-11.0609
▁olacak	-11.0609
▁क्रांति	-11.0609
▁Dolayısıyla	-11.061
▁mareşal	-11.061
▁mensubu	-11.061
▁reaksiyon	-11.061
▁ölçek	-11.061
▁البرمجة	-11.061
▁تضاريس	-11.061
▁ريتشارد	-11.061
▁مصطف	-11.061
▁Beşiktaş	-11.061
▁José	-11.061
▁Vladimir	-11.061
▁gereği	-11.061
▁performans	-11.061
▁ألكسندر	-11.061
▁आरम्भ	-11.061
▁नदियों	-11.061
▁पहचान	-11.061
▁भूटान	-11.061
▁श्रीमद्भागवत	-11.061
▁yürürlüğ	-11.061
▁शेष	-11.061
▁सहायता	-11.061
▁Kullanım	-11.061
▁الممكن	-11.061
▁ذكور	-11.061
▁अच्छा	-11.061
▁Daniel	-11.061
▁rahat	-11.061
▁भूकंप	-11.061
▁العاشر	-11.061
▁الماضي	-11.061
▁Bakanı	-11.061
ploid	-11.061
▁पकड़	-11.061
▁वृक्ष	-11.061
▁क्रांतिकारी	-11.061
▁२००६	-11.061
▁olabileceği	-11.061
▁اختراعات	-11.061
▁तापमान	-11.061
▁karışık	-11.061
▁Gürcü	-11.061
▁ayrılmıştır	-11.061
▁السلطان	-11.061
▁समाजवादी	-11.061
▁حكومة	-11.0611
▁जादूगर	-11.0611
▁Denizcilik	-11.0611
▁Programlama	-11.0611
▁tasarla	-11.0611
▁dışarı	-11.0611
▁cumhurbaşkanı	-11.0611
▁भय	-11.0611
▁القوة	-11.0611
▁normal	-11.0612
▁Şili	-11.0612
▁سعيد	-11.0612
▁यादव	-11.0612
▁Riko	-11.0612
▁أصغر	-11.0612
▁profesörü	-11.0612
▁1500	-11.0612
▁कथाकार	-11.0612
▁فلكي	-11.0613
▁उपन्यासकार	-11.0613
▁बुद्धि	-11.0613
▁غينيا	-11.0613
▁गोल	-11.0613
▁ऑफ़	-11.0613
eng	-11.0613
▁हंस	-11.0613
▁hakem	-11.0614
300	-11.0614
جسيم	-11.0614
▁सामान	-11.0615
▁Hız	-11.0616
▁Radyo	-11.0616
▁1831	-11.0616
▁शोध	-11.0617
▁yeraltı	-11.0617
▁क्या	-11.0617
▁الاستقلال	-11.0618
▁Kulesi	-11.0618
▁içerme	-11.0618
redi	-11.0618
▁1862	-11.0618
▁tanrıçaları	-11.0619
▁التصنيف	-11.0619
حكوم	-11.0619
▁2011-	-11.062
▁Bugün	-11.062
▁उत्पाद	-11.0622
▁icatları	-11.0622
▁Ayrı	-11.0622
▁kalp	-11.0622
▁1870	-11.0622
▁प्रदर्शन	-11.0623
kaya	-11.0624
▁160	-11.0625
▁anti	-11.0625
melidir	-11.0626
▁الأمازيغية	-11.0627
▁jeoloji	-11.0628
شرق	-11.0628
▁eşya	-11.0628
▁süreç	-11.0629
تاد	-11.063
▁جيد	-11.0632
▁पोप	-11.0632
▁المسافة	-11.0632
▁adları	-11.0633
▁turist	-11.0633
▁बनाई	-11.0634
lılar	-11.0634
▁مرتبطة	-11.0635
ियस	-11.0636
▁yakınında	-11.0636
▁पाई	-11.0637
▁harita	-11.0637
▁varlık	-11.0637
▁Pers	-11.0637
▁الداخلية	-11.0638
▁العادية	-11.064
▁kulak	-11.0644
▁تحليل	-11.0645
▁test	-11.0646
توقع	-11.0646
بسط	-11.0648
▁जनक	-11.0649
▁gibidir	-11.065
▁القائمة	-11.0651
▁sürgünler	-11.0653
▁أمر	-11.0654
▁72	-11.0655
vin	-11.0656
▁dışındaki	-11.0657
▁الجزائرية	-11.0659
2005	-11.0662
▁açığ	-11.0663
त्रिम	-11.0664
▁تختلف	-11.0665
▁Laz	-11.0666
▁लक्ष्मी	-11.0675
▁yapıya	-11.0675
▁البرنامج	-11.0679
▁davranış	-11.0681
قارب	-11.0682
▁Sarayı	-11.0683
▁مكتب	-11.0685
▁مسجد	-11.0686
تشكل	-11.0687
عادل	-11.0687
▁البحرية	-11.0688
▁غزو	-11.0696
▁Hat	-11.0697
-11	-11.0698
१८	-11.0698
▁तरफ	-11.0705
▁أوم	-11.0706
مدى	-11.0707
▁yaşan	-11.0709
ريل	-11.071
▁devrim	-11.0714
تخذ	-11.0716
عدم	-11.0716
ثير	-11.0718
▁frekans	-11.0718
II	-11.0719
بقية	-11.0719
रेन	-11.072
ral	-11.072
▁Mah	-11.0721
bas	-11.0721
▁sayısının	-11.0723
▁السوري	-11.0723
▁قضاء	-11.0724
▁kolu	-11.0725
üp	-11.0728
▁धु	-11.073
मंडल	-11.0733
اتجاه	-11.0734
جعل	-11.0734
सिंह	-11.0736
कृष्ण	-11.0736
अंग्रेजी	-11.0736
SA	-11.0738
▁çevresi	-11.0738
ağaç	-11.0743
▁رئيسية	-11.0743
ड्र	-11.0745
ंडा	-11.0745
▁And	-11.0746
▁Edebiyatı	-11.075
पात	-11.0754
▁المه	-11.0756
▁مفهوم	-11.0756
भाषा	-11.0757
rim	-11.0758
▁चर	-11.0759
▁Genelde	-11.0759
ايير	-11.0759
▁değişimi	-11.0761
▁yapılma	-11.0764
▁وفاته	-11.0765
loji	-11.0766
▁makineleri	-11.0766
تغير	-11.0767
▁hükûmet	-11.0768
▁dosyası	-11.0769
وجي	-11.0771
فون	-11.0772
▁fu	-11.0772
▁kaba	-11.0773
▁astronomi	-11.0773
سلاف	-11.0774
يقال	-11.0775
ight	-11.0776
▁Inter	-11.0776
▁format	-11.0776
ciliği	-11.0778
न्ड	-11.0779
▁çıkışı	-11.0781
▁örtü	-11.0781
▁yönetiminde	-11.0784
▁كور	-11.0786
▁zamanlar	-11.0786
▁२४	-11.0788
▁تصنيع	-11.0788
آثار	-11.0788
▁Lama	-11.0789
yim	-11.079
▁sürü	-11.0791
lığına	-11.0793
▁Santa	-11.0794
vat	-11.0796
▁बंगाली	-11.0798
▁Gri	-11.0805
शिप	-11.0807
▁rastlan	-11.0808
▁सिल	-11.0809
हरा	-11.081
▁biçimleri	-11.081
▁फो	-11.0811
▁الأب	-11.0812
यां	-11.0813
▁عرب	-11.0814
▁isimler	-11.0818
डिया	-11.0818
تشا	-11.0824
▁Göz	-11.0827
stra	-11.0828
शिश	-11.0828
लिन	-11.0829
▁mimari	-11.083
▁مير	-11.0832
मेंट	-11.0834
▁Sap	-11.0835
▁yarar	-11.0835
▁My	-11.0837
▁نجم	-11.0838
ure	-11.0841
▁गुल	-11.0844
madı	-11.0846
▁bulunma	-11.0852
▁अधि	-11.0855
ेला	-11.0855
▁has	-11.0856
▁yetiştiril	-11.0856
▁olduğuna	-11.0863
न्ट	-11.0864
▁gemiler	-11.0867
▁تحدث	-11.0869
▁kullanılmış	-11.0869
cısı	-11.0871
---	-11.0872
▁kaynaklar	-11.0872
ology	-11.0873
▁gazetesinde	-11.0873
▁139	-11.0874
▁problemleri	-11.0875
oll	-11.0878
▁आँख	-11.0882
▁miktarda	-11.0883
▁yapımcı	-11.0886
▁dersleri	-11.0888
104	-11.0892
▁البلد	-11.0893
▁bağı	-11.0901
▁mantar	-11.0902
▁uzman	-11.0912
▁seviye	-11.0916
▁للع	-11.0921
२४	-11.0921
बाद	-11.0926
▁65	-11.0927
▁Rad	-11.0929
tta	-11.093
▁çıkma	-11.0931
र्च	-11.0936
▁bez	-11.094
يتشي	-11.0945
▁çevrili	-11.0948
▁प्राण	-11.0951
▁bağırsak	-11.0952
▁المص	-11.0953
▁bulun	-11.0954
صير	-11.0955
▁كامل	-11.0958
▁Lev	-11.096
▁تمت	-11.0963
▁yaklaş	-11.0963
▁iklimi	-11.0963
१०	-11.0964
▁sürer	-11.0966
▁Shi	-11.0967
▁düğüm	-11.0969
وجين	-11.0969
cz	-11.0969
برت	-11.097
غات	-11.0975
▁yapraklı	-11.0975
▁SI	-11.0979
▁नही	-11.0982
eski	-11.0983
vet	-11.0984
▁600	-11.0984
عارض	-11.0986
▁ريو	-11.0986
▁1600	-11.0986
▁çizer	-11.099
▁إر	-11.099
سف	-11.0991
▁गठ	-11.0991
▁seyir	-11.0992
▁tanınmış	-11.0993
▁bakım	-11.0994
ι	-11.0994
ে	-11.0994
о	-11.0994
δ	-11.0994
▁Akkoyunlu	-11.0994
▁Erzurum	-11.0994
▁MySQL	-11.0994
▁görür	-11.0994
▁istatistik	-11.0994
▁istihdam	-11.0994
▁الاستوائية	-11.0994
▁نظائر	-11.0994
▁وبالتالي	-11.0994
▁क्षमता	-11.0994
▁ज़्यादा	-11.0994
▁निर्वाचन	-11.0994
▁प्रौद्योगिकी	-11.0994
▁विविध	-11.0994
▁Bohemya	-11.0994
▁Menderes	-11.0994
▁Satürn	-11.0994
▁Topluluğu	-11.0994
▁एकमात्र	-11.0994
▁औरंगाबाद	-11.0994
▁व्यंग्य	-11.0994
▁व्यवसाय	-11.0994
▁शैक्ष	-11.0994
منشآت	-11.0994
▁Bayındır	-11.0994
▁TCP	-11.0994
▁teslim	-11.0994
▁جعفر	-11.0994
▁سفلية	-11.0994
▁पिछल	-11.0994
▁साम्यवाद	-11.0994
▁شهور	-11.0994
▁Tohum	-11.0994
▁Gustav	-11.0994
▁बांध	-11.0994
▁Kavak	-11.0994
▁Göztepe	-11.0995
▁يونكس	-11.0995
▁Yunus	-11.0995
▁tanımlanır	-11.0995
▁komedi	-11.0995
▁महाजनपद	-11.0995
▁تشكيل	-11.0995
▁Radikal	-11.0995
▁स्पष्ट	-11.0995
إصلاح	-11.0995
▁غلاف	-11.0995
لقب	-11.0995
▁ترجم	-11.0995
▁nazım	-11.0995
▁yarayan	-11.0996
ement	-11.0996
▁गद्य	-11.0996
▁demektir	-11.0996
▁الأخضر	-11.0996
▁दिलीप	-11.0996
▁oluşturmaktadır	-11.0996
▁yardımıyla	-11.0996
▁Eskişehir	-11.0996
كهوف	-11.0996
عائلات	-11.0996
▁पत्रकार	-11.0996
▁rastlanır	-11.0997
▁بيروت	-11.0997
▁महानगर	-11.0999
منظمات	-11.0999
Cacatua	-11.0999
ائن	-11.1
▁komünist	-11.1
▁سلام	-11.1
▁Cemil	-11.1
▁الصباح	-11.1002
▁ayrılan	-11.1002
▁tutu	-11.1003
▁Emir	-11.1003
ावली	-11.1003
▁Faik	-11.1004
▁araba	-11.1004
भद्र	-11.1005
▁يجعل	-11.1006
▁المدرسة	-11.1006
▁الشمع	-11.1008
▁المستقيم	-11.1011
▁tarihsel	-11.1011
▁adası	-11.1012
▁arz	-11.1013
▁يتبع	-11.1013
▁الإقليمية	-11.1013
▁منع	-11.1014
▁Devrimi	-11.1014
eter	-11.1015
▁عضوية	-11.1015
▁Galerisi	-11.1015
▁ata	-11.1016
▁yaşlı	-11.1017
▁gelişimi	-11.1019
▁etkinlikler	-11.1019
स्य	-11.1021
▁bırakır	-11.1023
▁109	-11.1024
३६	-11.1025
▁Doğan	-11.1025
mil	-11.1025
▁aşama	-11.1027
▁دوار	-11.1029
▁الإغريقية	-11.1029
▁koloni	-11.1029
abileceği	-11.1031
▁व्यवहार	-11.1031
वाड़	-11.1031
▁Plat	-11.1032
▁اللفظ	-11.1034
periyodik	-11.1035
▁artış	-11.1036
▁geçtiği	-11.1036
▁incelenmesi	-11.1037
न्द्र	-11.1037
▁Türkçesi	-11.104
▁الفتح	-11.104
▁ولهذا	-11.1041
▁कमल	-11.1041
▁düzeni	-11.1044
▁sembolü	-11.1045
▁ألفا	-11.1045
قناة	-11.1046
▁مسلمة	-11.1047
▁किला	-11.1048
▁الصيد	-11.1049
لوري	-11.1051
كثر	-11.1051
▁يختلف	-11.1052
▁تتضمن	-11.1052
▁सम्प	-11.1052
▁الغازات	-11.1053
▁الأصلي	-11.1053
▁सती	-11.1054
▁بأنها	-11.1055
▁(1989	-11.1055
ترون	-11.1061
OH	-11.1061
▁kaza	-11.1062
▁elektro	-11.1064
विक	-11.1064
▁kaldığı	-11.1064
▁بوتان	-11.1073
▁uydusu	-11.1075
▁birer	-11.1076
▁geliş	-11.1077
▁कट	-11.1077
यानि	-11.1079
▁tanrıçası	-11.1079
ilmiştir	-11.1082
▁plaka	-11.1083
▁alanına	-11.1083
ايت	-11.1084
▁ऊँच	-11.1084
ربع	-11.1087
▁konumun	-11.1087
▁hattı	-11.1089
▁मेघ	-11.109
▁açtı	-11.1092
حزب	-11.1098
مقاطعة	-11.1099
▁الإيطالية	-11.1099
▁dolar	-11.1102
▁farklıdır	-11.1103
جملة	-11.1104
पद	-11.1104
▁olacağı	-11.1105
enberg	-11.1105
▁أك	-11.1105
▁2016)	-11.1105
▁gelenek	-11.1106
▁करे	-11.1107
▁1861	-11.1108
Ne	-11.111
▁yönetici	-11.111
▁مقدار	-11.1114
▁قلب	-11.1119
▁konum	-11.112
أحادي	-11.112
▁القيمة	-11.1122
▁karakterleri	-11.1124
▁mah	-11.1125
▁القب	-11.113
▁Kaz	-11.1131
قطن	-11.1134
▁गृह	-11.1135
गाँव	-11.1136
elim	-11.1136
ABD	-11.1138
أنواع	-11.1139
كوك	-11.1139
">	-11.1146
▁الجر	-11.1149
أثرية	-11.1151
fil	-11.1153
▁الحب	-11.1156
▁Vali	-11.1156
▁Sade	-11.1159
▁Baskı	-11.116
▁turnuva	-11.116
ाइट	-11.1163
▁tedavi	-11.1167
▁يَ	-11.117
▁भरत	-11.117
يفة	-11.117
▁تيم	-11.1172
umlu	-11.1174
▁Dans	-11.1175
▁قول	-11.1177
▁ساحل	-11.1177
▁نطق	-11.1177
▁Kas	-11.1178
▁لون	-11.1183
▁uyduları	-11.1183
ساعد	-11.1186
نقل	-11.1187
قابلة	-11.1188
سوف	-11.1189
pu	-11.119
▁Tu	-11.1192
▁नी	-11.1192
▁şairleri	-11.1195
▁हिम	-11.1197
▁مترا	-11.1199
Bir	-11.1202
تحرك	-11.1204
▁ulaşım	-11.1206
▁duygu	-11.1206
الد	-11.1207
▁sun	-11.1207
gaz	-11.1209
▁belirtil	-11.1209
><	-11.1209
تحدث	-11.1214
شرف	-11.1214
▁gitme	-11.1217
يروس	-11.1217
73)	-11.1218
▁Kir	-11.1218
चंद	-11.1221
هتم	-11.1224
حسن	-11.1228
FS	-11.1234
▁önemi	-11.1238
ars	-11.1245
kara	-11.1246
▁girme	-11.1246
حول	-11.1247
▁لكنه	-11.1248
تصل	-11.1249
▁yüzeyi	-11.1254
▁sosyoloji	-11.1254
नार	-11.1254
▁çağı	-11.1254
ctor	-11.1256
سيوم	-11.1257
▁ilişkiler	-11.1259
▁Kanun	-11.126
احة	-11.1264
▁बैठ	-11.1264
شق	-11.1265
▁الإس	-11.1266
▁لقب	-11.1269
▁eki	-11.1271
▁(9	-11.1271
▁مياه	-11.1274
▁boş	-11.1275
ille	-11.1276
gue	-11.1277
कला	-11.1278
dağ	-11.1282
2'	-11.1286
▁topraklar	-11.1286
▁kapatıl	-11.1288
عقد	-11.129
ौर	-11.1291
पत्र	-11.1292
-6	-11.1295
سلم	-11.1299
▁(2001	-11.1301
▁organı	-11.1301
▁ऊँचा	-11.1301
▁موري	-11.1304
▁نظري	-11.1306
▁egemen	-11.1308
▁aralığı	-11.1308
cro	-11.131
▁başlangıç	-11.131
▁önceleri	-11.1313
amin	-11.1315
▁२७	-11.1318
णिक	-11.1319
şir	-11.1319
Le	-11.1322
▁Mc	-11.1324
केश	-11.1327
▁adres	-11.1327
كوب	-11.133
key	-11.1331
▁oluştur	-11.1332
▁elementi	-11.1333
▁الصوت	-11.1334
▁Hun	-11.1335
▁kav	-11.1335
▁Ör	-11.1337
win	-11.1337
▁सिद्ध	-11.1337
عمر	-11.1338
▁أيون	-11.1339
ecektir	-11.1344
▁ölçüm	-11.1346
▁वाल	-11.1352
إمبراطور	-11.1353
ER	-11.1356
شبكات	-11.1357
▁पटना	-11.1357
धीर	-11.1357
▁Soma	-11.1358
▁Doğa	-11.1358
وحد	-11.1359
▁tabanı	-11.1362
ذاكرة	-11.1362
▁Gerçek	-11.1363
not	-11.1364
रोज	-11.1365
▁Abbas	-11.1365
▁बनात	-11.1367
मन्त्र	-11.1367
▁समझौत	-11.1372
▁76	-11.1372
फि	-11.1375
स्तर	-11.1377
जीव	-11.1379
off	-11.1379
▁Darwin	-11.1379
طلب	-11.138
▁noktasında	-11.138
ائق	-11.138
▁Gazete	-11.1383
sky	-11.1383
أبحاث	-11.1386
पू	-11.1389
▁silindir	-11.1391
▁kızıl	-11.1393
▁bulunmuş	-11.1394
и	-11.1394
ک	-11.1394
▁Abdurra	-11.1394
▁Adolf	-11.1394
▁Delphi	-11.1394
▁Gabriel	-11.1394
▁Mexico	-11.1394
▁Oxford	-11.1394
▁Uruguay	-11.1394
▁ihtiyacı	-11.1394
▁kristal	-11.1394
▁çıplak	-11.1394
▁İoannis	-11.1394
▁İşletme	-11.1394
▁حوسبة	-11.1394
▁ظاهر	-11.1394
▁كاثوليك	-11.1394
▁وبلدات	-11.1394
▁अक्षांश	-11.1394
▁गृहयुद्ध	-11.1394
▁मुम्बई	-11.1394
▁विशिष्ट	-11.1394
▁व्यंजन	-11.1394
▁स्टील	-11.1394
▁Babür	-11.1394
▁Mahmud	-11.1394
▁Meslek	-11.1394
▁OpenBSD	-11.1394
▁görsel	-11.1394
▁transfer	-11.1394
▁الإمارات	-11.1394
▁الرصاص	-11.1394
▁الصغيرة	-11.1394
▁पीछे	-11.1394
市	-11.1394
▁الثقافي	-11.1394
▁Biyoloji	-11.1394
▁yapay	-11.1394
▁डिग्र	-11.1394
▁शूरसेन	-11.1394
▁الدستور	-11.1394
▁Lisp	-11.1394
▁muhtemel	-11.1394
▁शादी	-11.1394
▁otomatik	-11.1394
▁الشبكة	-11.1394
मदद	-11.1394
▁२००४	-11.1394
▁Lorenz	-11.1394
▁समीप	-11.1394
▁benzeyen	-11.1395
▁फ्रांसीसी	-11.1395
subsp	-11.1395
▁रोलिंग	-11.1395
▁أمازيغية	-11.1395
▁جهاز	-11.1395
▁ilginç	-11.1395
▁دقيقة	-11.1395
▁sıklıkla	-11.1395
▁oluşumu	-11.1395
▁राजमार्ग	-11.1395
▁सुभाष	-11.1395
▁अमित	-11.1395
▁समर्थ	-11.1395
▁رجال	-11.1395
▁نصوص	-11.1396
▁ألبرت	-11.1396
▁मंगलवार	-11.1396
▁eğlence	-11.1396
▁ihti	-11.1396
▁अवस्था	-11.1396
▁DNA	-11.1396
▁भेज	-11.1396
▁شارل	-11.1396
letişim	-11.1396
▁belit	-11.1396
▁साड़ी	-11.1396
معادلات	-11.1396
▁फूल	-11.1397
▁पुस्तकें	-11.1397
lastik	-11.1397
▁florası	-11.1397
▁sırasıyla	-11.1398
▁çıktığı	-11.1398
▁akıl	-11.1398
▁Julius	-11.1398
▁तुलना	-11.1398
▁फिल्में	-11.1398
▁yaparak	-11.1399
▁अभाव	-11.1399
▁Kafkasya	-11.1399
▁İlgi	-11.1399
▁كينيا	-11.14
▁bozul	-11.14
▁bant	-11.14
▁yaptıkları	-11.14
▁Duman	-11.1401
▁يعبر	-11.1401
▁gerçekleşen	-11.1401
२००२	-11.1401
▁uyan	-11.1401
▁मामले	-11.1402
▁ليلى	-11.1402
▁153	-11.1402
▁विभाजन	-11.1402
▁अर्थात्	-11.1402
▁سيك	-11.1402
▁इतिहासकार	-11.1402
चार	-11.1402
▁قض	-11.1402
▁Rusça	-11.1404
▁yaşanan	-11.1404
ाद्र	-11.1404
▁राज्यपाल	-11.1405
▁تشبه	-11.1405
▁الفنون	-11.1405
▁küre	-11.1406
▁satır	-11.1406
▁1886	-11.1407
▁صناعية	-11.1407
▁Anton	-11.1407
تأثر	-11.1407
▁1812	-11.1407
gâh	-11.1408
▁haberleşme	-11.1408
Felis	-11.1408
▁देना	-11.1408
▁saldır	-11.1408
ئذ	-11.1409
تناول	-11.1409
िस्तान	-11.1409
▁ينتج	-11.1409
▁davet	-11.141
▁ऋग्वेद	-11.1411
▁मुंबई	-11.1411
▁cinsinden	-11.1411
▁الأسطورة	-11.1412
▁الأكاديمية	-11.1412
▁1850	-11.1413
فلسفة	-11.1414
▁çalışmalarını	-11.1414
▁Ordusu	-11.1414
▁alimi	-11.1414
ألوان	-11.1414
▁41	-11.1415
▁Vadisi	-11.1417
▁يشير	-11.1418
▁İdar	-11.1418
ेज	-11.1419
▁Sanatlar	-11.142
ثبت	-11.142
▁مقرها	-11.1421
▁विशेषता	-11.1421
▁هوكايدو	-11.1421
▁بسرعة	-11.1422
مجلة	-11.1422
▁ग्रेट	-11.1422
Circ	-11.1422
▁تملك	-11.1423
Karadağ	-11.1423
▁الفيزيائية	-11.1424
▁انتقالية	-11.1424
▁आश्रम	-11.1425
▁(1958	-11.1426
▁ayette	-11.1426
▁geçirdiği	-11.1427
الية	-11.1427
▁Aral	-11.1428
زية	-11.1429
▁tarihçisi	-11.1429
ائها	-11.143
▁yazılımlar	-11.143
▁ustası	-11.1432
▁1879	-11.1433
▁التشريع	-11.1433
سائل	-11.1434
▁ölümüne	-11.1437
▁cismin	-11.1437
▁الرياضية	-11.1438
▁Sanatçı	-11.1439
▁القياسية	-11.1443
▁وإذا	-11.1443
▁(2004)	-11.1445
▁Best	-11.1445
▁Fu	-11.1447
▁sayıl	-11.1447
▁Dar	-11.1448
ّى	-11.1449
▁العلاقة	-11.1449
▁البرتغال	-11.145
▁केन्द्रक	-11.1451
▁كرو	-11.1453
▁parçaları	-11.1453
▁oynaya	-11.1454
دعم	-11.1454
▁सरल	-11.1455
▁borç	-11.1455
▁قليلة	-11.1455
▁व्याध	-11.1456
41)	-11.1456
▁şiiri	-11.1456
iyye	-11.1456
▁başkan	-11.1458
Mo	-11.1459
▁Hur	-11.146
عنى	-11.146
▁محرر	-11.1464
▁سعد	-11.1465
▁düşünül	-11.1465
dition	-11.1465
▁topoloji	-11.1468
़ा	-11.1471
▁anlama	-11.1471
▁Roy	-11.1474
▁مرد	-11.1475
▁سلاسل	-11.1476
▁sistemidir	-11.1476
▁अत	-11.1478
hâlen	-11.148
▁المحيطة	-11.1481
دراسة	-11.1481
makla	-11.1484
▁संहिता	-11.1487
▁حمض	-11.1487
▁gelişe	-11.1487
▁كتلة	-11.1488
▁mühendisleri	-11.1489
▁öneril	-11.1489
▁miktar	-11.149
▁Flam	-11.1491
▁kül	-11.1491
▁टि	-11.1491
▁ilişkili	-11.1491
▁Ekoloji	-11.1493
▁शायर	-11.1493
tel	-11.1493
ilerek	-11.1495
▁تسو	-11.1498
▁كيوتو	-11.1498
▁دورة	-11.15
ربة	-11.15
▁dize	-11.1503
▁अंध	-11.1504
▁1878	-11.1505
▁وتسم	-11.1505
فران	-11.1505
▁girdiği	-11.1506
▁yönetmenleri	-11.1507
▁Fo	-11.1507
▁اعتماد	-11.1508
ّي	-11.1511
▁bağla	-11.1511
▁Sür	-11.1512
▁Los	-11.1512
▁إف	-11.1516
▁إما	-11.1517
▁Hak	-11.152
▁مصدر	-11.152
▁77	-11.152
موقع	-11.1521
▁Arka	-11.1524
▁örneği	-11.1528
▁Yolu	-11.1528
▁Seri	-11.153
▁É	-11.153
▁تغيير	-11.153
▁Kâ	-11.1531
▁aşkın	-11.1534
▁Comp	-11.1534
▁birimler	-11.1536
▁वीं	-11.1537
▁رسم	-11.1538
र्द	-11.154
▁سوق	-11.1541
▁oluşturma	-11.1544
▁""	-11.1544
gre	-11.1544
geliştirilmiştir	-11.1549
▁Lin	-11.155
ظم	-11.1551
▁بوش	-11.1552
आर्य	-11.1553
▁الحجر	-11.1553
مشتقة	-11.1554
git	-11.1557
ल्ट	-11.1558
رفع	-11.1559
कभी	-11.1562
▁birbirlerin	-11.1564
bilimci	-11.1565
yıp	-11.1565
▁المكون	-11.1566
▁चलत	-11.1568
ağan	-11.1572
▁öğren	-11.1577
▁1947-	-11.1579
qua	-11.158
gna	-11.1581
zel	-11.1582
ford	-11.1583
▁ayaklanma	-11.1584
وشي	-11.159
بحث	-11.159
yeni	-11.1591
▁فهم	-11.1592
kent	-11.1593
▁ulaştı	-11.1593
▁Uzak	-11.1595
▁खु	-11.1597
▁الموت	-11.1598
dik	-11.1602
▁الإن	-11.1609
اسية	-11.1613
▁seç	-11.1614
ucu	-11.1617
pur	-11.1619
▁tarihleri	-11.1619
page	-11.162
malıdır	-11.1621
▁أثر	-11.1623
▁Evi	-11.1624
leşmiş	-11.1625
grad	-11.1626
▁लै	-11.1628
OL	-11.1629
▁Vo	-11.1629
ोद	-11.1632
روف	-11.1632
▁Adı	-11.1634
gra	-11.1634
▁sporcu	-11.1635
र्वजन	-11.1636
▁oku	-11.1637
▁ifadesi	-11.1638
▁Hale	-11.1638
फ़्	-11.164
▁نال	-11.1641
حيط	-11.1644
▁Wil	-11.1645
ोदर	-11.1645
ojen	-11.1649
معهد	-11.1649
फ़ी	-11.165
فَ	-11.1656
टल	-11.1656
▁üstünde	-11.1658
رابطة	-11.1658
Dr	-11.1659
▁سوف	-11.1659
▁paket	-11.1664
रवा	-11.1666
mesiyle	-11.1667
▁und	-11.1668
bert	-11.1671
▁كير	-11.1674
اها	-11.1677
▁तै	-11.168
▁لفظ	-11.1681
▁hastalıkları	-11.1683
▁mil	-11.1685
परिक	-11.1686
▁denizaltı	-11.1686
▁साह	-11.1692
▁1919-	-11.1694
सुर	-11.1701
span	-11.1703
▁उत्	-11.1703
▁cisim	-11.1703
▁Dağ	-11.1704
▁بيل	-11.1705
زوجة	-11.1707
▁kabuğu	-11.1709
▁sıralı	-11.1709
تطبيقات	-11.1712
▁Yay	-11.1713
▁bölümler	-11.1714
▁नो	-11.1717
▁işlemci	-11.1718
▁1950'	-11.1718
▁indir	-11.172
say	-11.1722
87)	-11.1724
▁bulunmay	-11.1725
وفي	-11.1727
los	-11.1729
ावती	-11.173
ानंद	-11.173
▁Nan	-11.1732
لج	-11.1732
اوية	-11.1733
▁103	-11.1736
▁पहन	-11.1737
لأنها	-11.174
▁banka	-11.174
اقل	-11.1741
▁Georgi	-11.1741
▁पाठ	-11.1745
▁yılların	-11.1746
ैया	-11.1748
्यो	-11.175
▁سابق	-11.1752
▁sezon	-11.1754
ندر	-11.1755
▁sekiz	-11.176
श्व	-11.1761
liğinde	-11.1763
▁लव	-11.1765
▁yasal	-11.1765
ray	-11.1767
▁واو	-11.1768
▁51	-11.1769
▁حديث	-11.177
lendiği	-11.177
▁العسكري	-11.177
▁मुनि	-11.1773
▁Hol	-11.1773
▁ليل	-11.1774
भव	-11.1774
حدى	-11.1777
▁ortamı	-11.1778
eline	-11.178
ंडी	-11.1784
▁(2)	-11.1786
▁مكون	-11.1786
▁seviyesi	-11.1787
▁kozalak	-11.1788
eau	-11.1788
ضرب	-11.1789
leşti	-11.179
भाष	-11.179
▁Med	-11.1791
▁रवि	-11.1792
▁المركب	-11.1793
▁जंगल	-11.1798
▁النظر	-11.1802
كتشف	-11.1804
▁oyuncular	-11.1804
▁اليد	-11.1804
IS	-11.1804
▁खड़	-11.1806
▁بأنه	-11.1806
▁düzenin	-11.1807
▁स्क	-11.1807
▁motor	-11.1808
▁السبع	-11.181
▁kategori	-11.181
यन्त्र	-11.1811
सांख्यिकी	-11.1811
│	-11.1811
▁Institute	-11.1811
▁Scott	-11.1811
▁akademik	-11.1811
▁cumhuriyet	-11.1811
▁keşfetti	-11.1811
▁muhribi	-11.1811
▁reklam	-11.1811
▁rivayet	-11.1811
▁standardı	-11.1811
▁آنذاك	-11.1811
▁القاهرة	-11.1811
▁المواقع	-11.1811
▁تخزين	-11.1811
▁حصار	-11.1811
▁كاغوشيما	-11.1811
▁هيدروجين	-11.1811
▁ويكيبيديا	-11.1811
▁अर्थव्यवस्था	-11.1811
▁उड़ीसा	-11.1811
▁कब्जा	-11.1811
▁ठाकुर	-11.1811
▁मानसरोवर	-11.1811
▁श्राप	-11.1811
پ	-11.1811
▁Pedro	-11.1811
▁ciddi	-11.1811
▁sıkıştırma	-11.1811
▁المغناطيسي	-11.1811
λ	-11.1811
π	-11.1811
▁vokal	-11.1811
▁Özerk	-11.1811
▁rapor	-11.1811
▁alçak	-11.1811
▁Franz	-11.1811
▁टेनिस	-11.1811
▁Kelvin	-11.1811
▁Wolf	-11.1811
▁Kelime	-11.1811
▁düka	-11.1811
▁bulur	-11.1811
▁लंका	-11.1811
▁verimli	-11.1811
▁görülmektedir	-11.1811
▁icra	-11.1811
▁Projesi	-11.1812
▁Osmancık	-11.1812
▁emri	-11.1812
▁komutasında	-11.1812
▁الجهاز	-11.1812
▁عباس	-11.1812
▁معاهد	-11.1812
▁मनोरंजन	-11.1812
▁UDP	-11.1812
▁कार्यालय	-11.1812
▁geçici	-11.1813
▁57	-11.1813
▁मनाया	-11.1813
▁Süper	-11.1813
▁الشعراء	-11.1813
▁السماء	-11.1814
▁कलाकार	-11.1814
▁Cumartesi	-11.1814
▁1780)	-11.1814
▁الحروب	-11.1814
▁çalıştığı	-11.1814
▁प्रसार	-11.1814
▁faiz	-11.1814
▁yazılmıştır	-11.1814
▁نيو	-11.1814
▁व्यक्तियों	-11.1815
▁ग्रहण	-11.1816
ساس	-11.1816
▁gelişmiştir	-11.1816
▁फ्ल	-11.1816
▁Rock	-11.1817
▁حداد	-11.1817
▁AB	-11.1817
▁dakika	-11.1817
▁أبرز	-11.1818
▁الحسين	-11.1818
▁ألكانات	-11.1818
▁1888	-11.1818
إن	-11.1818
▁tanınır	-11.1818
▁बोलते	-11.1819
▁Newton	-11.182
able	-11.182
▁alınır	-11.182
▁versiyonu	-11.1821
trans	-11.1821
▁say	-11.1821
▁أسطورية	-11.1822
▁هل	-11.1822
▁للجمهورية	-11.1824
▁kesit	-11.1825
▁matematiğin	-11.1825
▁चोल	-11.1825
▁مقطع	-11.1825
ड़िया	-11.1825
▁الخليج	-11.1825
▁مثلث	-11.1828
▁1774	-11.1828
▁1814	-11.1828
▁الواحد	-11.1828
▁açıdan	-11.183
▁وأبو	-11.183
▁المهدي	-11.1831
▁Muş	-11.1831
▁belirtir	-11.1831
▁تصنع	-11.1831
▁büyüktür	-11.1831
فينيقية	-11.1832
▁المباني	-11.1833
لوحة	-11.1834
▁kuzeybatısında	-11.1834
▁أسرة	-11.1838
▁موجودة	-11.1838
▁الثلاثة	-11.1838
▁biyolojik	-11.1838
lıkla	-11.1838
▁القدماء	-11.1838
▁duyarlı	-11.1838
▁DivX	-11.1839
▁Samsun	-11.1839
▁bağlandı	-11.1841
▁البعث	-11.1843
▁طويلة	-11.1843
Pinus	-11.1843
▁التحكم	-11.1844
जान	-11.1846
uch	-11.1846
واجهة	-11.1847
ट्स	-11.1848
▁başlı	-11.185
▁रम	-11.185
▁الغلاف	-11.1851
▁İranlı	-11.1852
▁الاقتصادية	-11.1853
▁فكرة	-11.1853
▁Yarım	-11.1854
▁हमे	-11.1854
▁लगती	-11.1856
▁Ermenice	-11.1857
▁अक्षर	-11.1858
▁hesaplama	-11.1858
▁örneğin	-11.1858
▁ileti	-11.186
▁kuvvetli	-11.186
▁النظرية	-11.186
▁القرية	-11.1861
▁أصحاب	-11.1862
▁sezonu	-11.1862
▁sıralama	-11.1863
▁yaygındır	-11.1863
صوم	-11.1863
▁arkasında	-11.1864
▁सुख	-11.1867
;"	-11.1868
▁harfleri	-11.1869
▁استقلال	-11.1873
▁sürüm	-11.1874
▁السرعة	-11.1875
▁निवासी	-11.1876
▁uzaklığı	-11.1877
▁Kongresi	-11.1877
▁ترابط	-11.1878
▁bölgesinin	-11.188
▁चौथ	-11.188
ربون	-11.188
▁Aşağıda	-11.1881
▁Mısırlı	-11.1883
▁نطاق	-11.1884
▁تصنيف	-11.1885
سيف	-11.1886
▁المحلية	-11.1886
नर	-11.1887
▁Rh	-11.189
▁yönetmenliğin	-11.1891
▁भग	-11.1892
▁Dü	-11.1892
هُ	-11.1893
▁Kendisi	-11.1893
▁büyüklüğü	-11.1895
▁Bilkent	-11.1896
▁معلومات	-11.1896
غنى	-11.1896
▁العمر	-11.1896
▁التاريخية	-11.1898
▁فيليب	-11.1899
▁Petr	-11.1899
▁विधा	-11.1901
نبورغ	-11.1907
▁başlığı	-11.1907
▁yoğunluk	-11.1909
وتشي	-11.191
يتس	-11.1913
▁saray	-11.1914
▁موت	-11.1914
▁खुल	-11.1916
igh	-11.1916
▁yazılır	-11.1916
▁yaklaşım	-11.1917
▁şarkıları	-11.1918
यु	-11.1918
شاعر	-11.1919
▁adalar	-11.192
▁الطول	-11.1921
▁sürede	-11.1921
▁ذي	-11.1922
ोट	-11.1923
نحو	-11.1924
▁बुध	-11.1926
متاز	-11.1927
▁تعداد	-11.1931
ساكي	-11.1931
▁fro	-11.1934
▁الأسد	-11.1935
▁tuz	-11.1936
▁(22	-11.1939
▁آي	-11.194
▁set	-11.194
wan	-11.194
آيات	-11.1941
قتل	-11.1943
mus	-11.1945
▁mineraller	-11.1945
▁Pap	-11.1945
ديك	-11.1948
▁النيل	-11.1949
▁واسع	-11.195
▁ışınları	-11.1951
altıncı	-11.1951
lle	-11.1952
▁th	-11.1953
زاوية	-11.1953
الأخ	-11.1953
▁फै	-11.1955
▁32.	-11.1955
▁Fakültesinde	-11.1956
▁baz	-11.1958
▁yüksekliği	-11.1958
▁parklar	-11.1959
/2	-11.1959
landı	-11.1962
▁brakte	-11.1962
▁gid	-11.1963
line	-11.1965
سلط	-11.1965
4%	-11.1965
▁Land	-11.1966
▁स्थानों	-11.1967
▁النق	-11.1968
ذي	-11.1969
▁sözcüğün	-11.197
▁şeyi	-11.1972
ich	-11.1972
ebilmek	-11.1973
▁dallar	-11.1974
▁bağış	-11.1974
▁ظروف	-11.1976
▁Saba	-11.1978
hom	-11.1978
दाद	-11.198
igi	-11.198
الألمانية	-11.1988
▁çıkarma	-11.1988
क्षण	-11.1991
zm	-11.1992
lanarak	-11.1995
िना	-11.2001
▁Christoph	-11.2001
أسماء	-11.2001
çılık	-11.2002
mir	-11.2009
ock	-11.2011
▁जम	-11.2015
gui	-11.2015
▁तारा	-11.202
▁noktada	-11.2021
▁oyunlar	-11.2023
▁المو	-11.2023
▁التابع	-11.2023
▁कृप	-11.2027
▁زا	-11.203
ميم	-11.2032
توري	-11.2032
▁سهل	-11.2033
▁84	-11.2034
▁Çay	-11.2037
▁denklem	-11.2039
▁Ele	-11.2039
▁حم	-11.2043
▁vitamin	-11.2043
▁जुड़	-11.2044
يتان	-11.2044
▁sömürge	-11.2045
▁स्वरूप	-11.2046
▁Hall	-11.2052
▁शो	-11.2057
kuş	-11.2057
श्च	-11.2058
पान	-11.2059
▁السو	-11.2061
▁oynadı	-11.2063
NT	-11.2065
▁kurtar	-11.2067
ros	-11.2071
▁लिख	-11.2071
▁kaydı	-11.2076
▁ولكنه	-11.2077
▁değişiklikler	-11.2078
▁المسيح	-11.2078
▁ters	-11.2081
▁ट्र	-11.2085
▁seçimler	-11.2088
▁sembolleri	-11.2088
▁हार	-11.2088
▁مين	-11.2091
▁Beş	-11.2094
▁tablosu	-11.2094
▁खगोल	-11.2096
موتو	-11.2098
Doç	-11.2102
▁şirketin	-11.2102
िड	-11.2108
▁cihazlar	-11.211
▁analizi	-11.211
رها	-11.2112
şık	-11.2112
ولها	-11.2118
७४	-11.2119
▁binası	-11.212
▁वेल्	-11.2121
▁तंत्र	-11.2126
بيئة	-11.2133
▁प्रो	-11.2133
▁cevizi	-11.2134
▁uğra	-11.2136
▁كوري	-11.2138
شم	-11.2141
▁أسا	-11.2143
لى	-11.2143
▁edildiği	-11.2151
▁yönünde	-11.2151
نواب	-11.2153
▁Tel	-11.2157
▁vücut	-11.2158
▁مارك	-11.2159
rap	-11.2161
▁वाँ	-11.2161
ستة	-11.2163
▁zamanlı	-11.2163
AM	-11.2166
▁رئيسي	-11.2166
▁चुन	-11.2166
▁kukla	-11.2166
अर	-11.2168
लाम	-11.2169
▁boru	-11.2174
راج	-11.2174
▁२१	-11.2174
▁üçgeni	-11.2175
्वे	-11.2177
▁işleri	-11.2179
▁toplu	-11.218
▁بون	-11.2184
▁الجغرافي	-11.2189
▁وأيضا	-11.2192
▁kul	-11.2192
زين	-11.2193
ُر	-11.2197
▁Apa	-11.2199
▁المخ	-11.2202
▁खंड	-11.2205
احتلال	-11.2208
طبيعة	-11.2208
pho	-11.2208
▁başar	-11.2209
▁المقدس	-11.221
▁الأساسي	-11.221
▁المك	-11.221
▁öncesinde	-11.2211
ئية	-11.2211
▁الخارجي	-11.2212
▁مؤلف	-11.2213
▁depo	-11.2215
▁تحوي	-11.2215
▁موس	-11.2221
▁bilgisayarlar	-11.2223
▁चर्च	-11.2224
شية	-11.2224
pis	-11.2225
▁الحيوان	-11.2225
▁kullanmak	-11.2226
▁sonraları	-11.2226
इस	-11.2227
جتمع	-11.2228
▁الفلكي	-11.2228
▁الساحل	-11.223
▁बहा	-11.2233
▁okudu	-11.2234
▁लोकत	-11.2234
▁हिस्से	-11.2237
▁नल	-11.2238
▁öğret	-11.2242
तिथि	-11.2243
▁profesör	-11.2243
शिया	-11.2244
▁जॉर्ज	-11.2244
▁zorunlu	-11.2245
▁शुक्र	-11.2245
leştirilmiş	-11.2245
▁गर्भ	-11.2246
л	-11.2246
­	-11.2246
·	-11.2246
š	-11.2246
▁Anubis	-11.2246
▁Brüksel	-11.2246
▁Fenerbahçe	-11.2246
▁Gyatso	-11.2246
▁Hakkâri	-11.2246
▁Jülyen	-11.2246
▁Leopold	-11.2246
▁Senaryo	-11.2246
▁Uranüs	-11.2246
▁bütçe	-11.2246
▁mahkûm	-11.2246
▁mozaik	-11.2246
▁zeytin	-11.2246
▁إسماعيل	-11.2246
▁الغريغوري	-11.2246
▁كبيسة	-11.2246
▁مهندس	-11.2246
▁गाँधी	-11.2246
▁चरित्र	-11.2246
▁डम्बल	-11.2246
▁मुताबिक	-11.2246
▁मोहम्मद	-11.2246
▁राजधानियाँ	-11.2246
▁विश्वयुद्ध	-11.2246
▁शहीद	-11.2246
world	-11.2246
σ	-11.2246
▁sıkıntı	-11.2246
▁verilmektedir	-11.2246
▁Üretim	-11.2246
▁Cemiyeti	-11.2246
▁TKP	-11.2246
▁emekli	-11.2246
▁दूध	-11.2246
▁Başaran	-11.2246
▁Boston	-11.2246
▁üzüm	-11.2246
▁الهيدروكربونية	-11.2246
▁تقريبًا	-11.2246
▁Trakya	-11.2246
▁tahtın	-11.2246
▁بسهولة	-11.2246
▁आलू	-11.2246
▁ideal	-11.2246
▁Eşref	-11.2246
▁الفصيلة	-11.2246
▁ölmüştür	-11.2246
▁finans	-11.2246
▁हिमालय	-11.2246
▁1825	-11.2246
▁प्यार	-11.2246
▁الصفصاف	-11.2246
▁छत्रपत	-11.2246
▁zemin	-11.2246
▁उम्र	-11.2246
▁महर्षि	-11.2246
▁alışveriş	-11.2246
▁सुविधा	-11.2246
▁rock	-11.2246
▁Olimpos	-11.2246
▁Safevi	-11.2246
आदिवासी	-11.2246
▁अणु	-11.2246
▁الأسرة	-11.2246
شؤون	-11.2246
▁Sözlük	-11.2246
▁görünüm	-11.2247
▁दर्पण	-11.2247
▁مغربي	-11.2247
कर्ता	-11.2247
▁معدوم	-11.2247
▁इंद्र	-11.2247
▁tanımlanmıştır	-11.2247
▁البيضاء	-11.2247
▁ücretsiz	-11.2247
▁بريمن	-11.2247
▁القيام	-11.2247
▁वस्त्र	-11.2247
راوح	-11.2247
▁जानवर	-11.2247
▁الهادي	-11.2247
▁انتقل	-11.2247
▁hadis	-11.2247
▁kesimlerinde	-11.2248
▁Unix	-11.2248
▁चमक	-11.2248
بادئ	-11.2248
▁Şems	-11.2248
ؤثر	-11.2249
▁Yabancı	-11.2249
▁आयोग	-11.2249
▁küresel	-11.2249
▁Christian	-11.2249
İng	-11.2249
▁yaşamaktadır	-11.2249
▁anı	-11.2249
▁दिये	-11.2249
▁City	-11.225
▁Yaşar	-11.225
▁aş	-11.225
▁मंच	-11.225
▁akarsu	-11.225
ّه	-11.225
▁जयपुर	-11.2251
▁tarafında	-11.2251
▁uyumlu	-11.2251
▁المعالم	-11.2252
▁Blue	-11.2252
▁takma	-11.2252
▁الدكتوراه	-11.2252
▁kapsar	-11.2253
▁polen	-11.2253
▁(1960	-11.2253
▁Yayınevi	-11.2253
▁गोवा	-11.2254
▁مباشرة	-11.2254
صاص	-11.2254
पालिका	-11.2254
▁1883	-11.2255
▁اشتهر	-11.2255
آسيوية	-11.2255
▁प्रेर	-11.2256
▁1867	-11.2257
▁مجتمع	-11.2257
▁वहीं	-11.2257
▁जहां	-11.2257
]]	-11.2257
▁समिति	-11.2258
tter	-11.2258
▁यश	-11.2258
adem	-11.2259
▁الجبل	-11.2259
▁Urla	-11.2259
▁1860	-11.226
▁ब्रह	-11.2261
▁Hoca	-11.2262
▁belirlenmesi	-11.2262
▁الطرف	-11.2263
▁karşılıklı	-11.2264
▁Avrasya	-11.2264
▁Peygamber	-11.2264
▁Dizi	-11.2264
▁ikisi	-11.2264
▁الحالات	-11.2264
▁لعام	-11.2265
▁الفعل	-11.2265
▁foto	-11.2265
▁الكلاسيكية	-11.2265
▁düşen	-11.2265
▁इन्ही	-11.2266
▁melez	-11.2269
ثار	-11.227
▁عالية	-11.2271
▁السمك	-11.2271
▁مستقلة	-11.2272
▁Bask	-11.2272
▁kiraz	-11.2273
▁müzeler	-11.2274
▁جماعة	-11.2274
▁बेटी	-11.2274
▁رسمي	-11.2275
▁الخواص	-11.2275
▁وعبد	-11.2275
▁الفلسطينية	-11.2276
96)	-11.2277
▁gösteril	-11.2278
गुआ	-11.2279
▁ulus	-11.2279
▁olgu	-11.2279
▁التونسية	-11.2279
سقط	-11.228
▁Anna	-11.2281
▁temeli	-11.2282
▁olun	-11.2284
سَ	-11.2286
▁تيسليت	-11.2287
▁ويندوز	-11.2287
▁ध्रुव	-11.2287
▁पद्य	-11.2287
▁القانونية	-11.2288
▁almaya	-11.2289
▁Adams	-11.2289
▁عكس	-11.229
▁kodları	-11.2291
▁Val	-11.2293
सूर	-11.2294
tip	-11.2296
▁sayıdır	-11.2296
▁كهربائية	-11.2296
▁राजाओं	-11.2297
▁bağımsızlık	-11.2297
▁hareketinin	-11.2297
▁المراد	-11.2297
▁Albüm	-11.2298
▁बांग्ला	-11.2299
قيم	-11.2299
▁المعادلة	-11.2299
गीर	-11.23
▁Ford	-11.23
▁tambur	-11.23
▁topraklarda	-11.2302
ère	-11.2302
pro	-11.2303
▁yaparlar	-11.2304
▁السورية	-11.2305
▁deyimi	-11.2305
▁kümesinin	-11.2311
▁dilin	-11.2312
▁Sub	-11.2313
यह	-11.2313
▁सीट	-11.2313
▁gerçekleştiril	-11.2313
قاد	-11.2315
▁द्वि	-11.2317
dım	-11.2318
▁171	-11.2319
▁स्वर	-11.232
▁uzakta	-11.2322
वर्ड	-11.2322
ائب	-11.2324
▁bestecileri	-11.2324
▁ثابتة	-11.2325
▁ألمانية	-11.2325
▁bireyler	-11.2326
▁कोल	-11.2326
jan	-11.2328
جداء	-11.2328
▁टै	-11.2329
वीर	-11.233
▁शिक्ष	-11.2331
▁विवाद	-11.2331
▁Fas	-11.2331
▁تماما	-11.2332
▁Luc	-11.2332
▁यंत्र	-11.2334
الأشهر	-11.2338
yü	-11.2338
▁görüşü	-11.2343
▁الما	-11.2343
360	-11.2344
क्टर	-11.2344
▁etkileri	-11.2347
▁हरा	-11.2349
▁bilimleri	-11.2351
साकी	-11.2353
وبي	-11.2354
قوس	-11.2356
▁غربي	-11.2357
▁koy	-11.2358
▁ظهور	-11.2358
▁Şam	-11.2358
ings	-11.2359
vor	-11.2362
▁1880	-11.2362
▁الحمل	-11.2362
تشو	-11.2363
▁prens	-11.2364
▁kişidir	-11.2365
حصن	-11.2365
▁yönlendirme	-11.2365
▁لغوي	-11.2365
bahçe	-11.2366
وير	-11.2366
abilecek	-11.2367
ोली	-11.2368
▁الملكية	-11.2368
رقية	-11.2369
▁رياضي	-11.2374
▁sunul	-11.2379
89)	-11.2381
جام	-11.2382
8%	-11.2382
Hu	-11.2386
▁poli	-11.2389
▁teknikleri	-11.2393
▁بدء	-11.2394
▁büyüklük	-11.2398
▁يهودي	-11.2399
▁2009)	-11.2399
गिरि	-11.24
▁पालन	-11.2402
हान	-11.2405
bileceği	-11.2408
▁Karayipler	-11.2408
▁nitelik	-11.2409
▁सोन	-11.241
▁باقي	-11.2416
▁olmaya	-11.2417
▁ödülleri	-11.2421
▁geçmesi	-11.2421
्‍य	-11.2422
جول	-11.2423
▁1864	-11.2428
ebilecek	-11.243
وكا	-11.2436
$	-11.2436
ऐ	-11.2438
▁قصر	-11.2439
▁2001)	-11.244
▁129	-11.244
सूत्र	-11.2441
شهر	-11.2443
▁dünyasında	-11.2444
sındaki	-11.2445
Türkiye	-11.2445
ألمانيا	-11.2446
rakam	-11.2447
▁yöntemler	-11.2449
Mu	-11.2449
्ते	-11.2453
▁जनस	-11.2454
धर्म	-11.2454
▁yazıları	-11.2454
IV	-11.2457
etler	-11.2457
▁شرقي	-11.2459
और	-11.2459
▁Cen	-11.2461
ezgi	-11.2461
DA	-11.2464
هدف	-11.2465
ंग्ल	-11.2465
▁ROM	-11.2466
▁genişliği	-11.2469
2007	-11.2471
بنى	-11.2472
▁polis	-11.2472
حاكمة	-11.2472
لوب	-11.2473
▁olursa	-11.2474
▁adım	-11.2476
▁47	-11.2476
▁atış	-11.248
lme	-11.248
Morus	-11.2482
ंगा	-11.2482
istik	-11.2484
बान	-11.249
▁النمسا	-11.2494
▁Yar	-11.2494
▁yapım	-11.2498
▁evli	-11.2499
▁فروع	-11.25
चना	-11.25
▁بدر	-11.2503
▁1.0	-11.2503
▁bestecisi	-11.2507
ाचार्य	-11.2509
व्	-11.251
▁getirdi	-11.2512
में	-11.2513
وصي	-11.2513
800	-11.2513
शाही	-11.2514
०००	-11.2515
▁إنجليز	-11.2516
▁आये	-11.2521
▁اللسان	-11.2522
▁yaban	-11.2525
▁قتل	-11.2525
▁büyüme	-11.2528
▁görevli	-11.2531
▁Kul	-11.2536
७५	-11.2538
ुई	-11.2539
▁1789	-11.2541
hri	-11.2544
न्तर	-11.2545
▁bulunmakta	-11.2545
▁başkent	-11.255
ياء	-11.2551
▁türünde	-11.2554
sso	-11.2561
فورد	-11.2562
è	-11.2562
▁Mari	-11.2564
مالك	-11.2565
▁You	-11.2566
स्को	-11.2567
▁Il	-11.257
लाया	-11.257
▁لاحقا	-11.2577
▁yarısı	-11.258
▁beslen	-11.2582
▁yetki	-11.2583
Do	-11.2584
▁हिन्दु	-11.2585
▁97	-11.2586
▁ثلاثي	-11.2593
jen	-11.2594
▁पुनर्	-11.2596
نى	-11.2598
lenerek	-11.2599
▁सुब	-11.26
▁1,1	-11.2602
şen	-11.2604
पूर्वक	-11.2606
esse	-11.2606
▁yetenek	-11.2607
▁dergiler	-11.2607
▁دوران	-11.261
▁لبعض	-11.2613
▁oto	-11.2614
▁sonuçları	-11.2618
▁المل	-11.2618
▁الحي	-11.2618
▁Chi	-11.2619
DP	-11.262
حرية	-11.262
حملة	-11.2621
▁शू	-11.2623
▁المج	-11.2625
▁günde	-11.263
▁رم	-11.263
▁دخل	-11.2632
▁1995'	-11.2633
درج	-11.2635
▁Fon	-11.2635
▁pozisyon	-11.2637
▁أق	-11.2639
يزي	-11.2642
ette	-11.265
قبول	-11.2653
▁gören	-11.2653
▁سياحي	-11.2659
▁الطبيعي	-11.266
▁وطني	-11.2661
नू	-11.2661
موسوعة	-11.2662
▁Say	-11.2663
نخلة	-11.2663
فيزيائي	-11.2665
Na	-11.2666
▁ईरान	-11.2667
لاء	-11.2669
نار	-11.267
▁Çiçek	-11.2672
▁الإنجليزي	-11.2674
▁şampiyon	-11.2675
▁Bah	-11.2676
▁الشر	-11.2677
▁आर्य	-11.2683
▁Old	-11.2685
▁gaga	-11.2692
▁निकाल	-11.2693
▁kor	-11.2694
▁fonksiyonu	-11.2694
يمين	-11.2694
أرقام	-11.2694
its	-11.2695
▁figür	-11.2696
▁Yukarı	-11.2696
▁sebebi	-11.2697
خدمة	-11.2697
▁बुद्ध	-11.2697
▁الأف	-11.2697
▁istedi	-11.2698
▁yaşadı	-11.2698
▁تري	-11.2699
ব	-11.27
▁Öykü	-11.27
ांत्रिक	-11.27
র	-11.27
▁Fotoğraf	-11.27
هيدروكربون	-11.27
▁रत्न	-11.27
н	-11.27
Aesculus	-11.27
à	-11.27
नर्मदा	-11.27
▁Aksaray	-11.27
▁Bütün	-11.27
▁Cumhurbaşkanı	-11.27
▁Görüntü	-11.27
▁SSCB	-11.27
▁Sibirya	-11.27
▁Standart	-11.27
▁dükü	-11.27
▁firkateyn	-11.27
▁halifesi	-11.27
▁lokanta	-11.27
▁muhabir	-11.27
▁olumsuz	-11.27
▁pembe	-11.27
▁rahip	-11.27
▁Çamlıdere	-11.27
▁Çerkes	-11.27
▁ölçme	-11.27
▁İhsan	-11.27
▁İnönü	-11.27
▁ılıman	-11.27
▁أوليمبيا	-11.27
▁अफ़ग़ानिस्तान	-11.27
▁आयोजित	-11.27
▁निभाई	-11.27
▁प्रतियोगिता	-11.27
▁बाजार	-11.27
▁मगध	-11.27
▁माइक्रोसॉफ़्ट	-11.27
▁मेक्सिको	-11.27
▁मौजूद	-11.27
▁शाब्द	-11.27
▁शिष्य	-11.27
▁सम्मिल	-11.27
▁स्मृति	-11.27
▁Adobe	-11.27
▁Boleyn	-11.27
▁Hicaz	-11.27
▁Menemen	-11.27
▁sentez	-11.27
▁yenilgi	-11.27
▁आनंद	-11.27
▁चटनी	-11.27
▁Selanik	-11.27
▁Seçim	-11.27
▁الزجاج	-11.27
▁حاسوب	-11.27
▁للوحدات	-11.27
▁वजह	-11.27
▁fethi	-11.27
▁श्रद्धा	-11.27
إدخال	-11.27
▁istasyonu	-11.27
▁Viyana	-11.27
▁प्रमाण	-11.27
▁Dominik	-11.27
▁sosyolog	-11.27
▁elips	-11.27
▁सिद्धांत	-11.27
Fagus	-11.27
লা	-11.27
▁göğüs	-11.27
▁sarımsı	-11.27
▁İpek	-11.27
▁उद्यान	-11.27
▁गणतंत्र	-11.27
▁kuzeydoğusunda	-11.27
▁इच्छा	-11.27
▁negatif	-11.27
▁محجوبة	-11.27
▁nesil	-11.27
▁2.0	-11.2701
▁beşinci	-11.2701
▁madenciliği	-11.2701
▁هامبورغ	-11.2701
▁السنغال	-11.2701
▁ipek	-11.2701
▁parçacık	-11.2701
حديقة	-11.2701
▁पतन	-11.2701
▁belki	-11.2701
▁Soyut	-11.2701
▁vurgu	-11.2701
▁yapılabilir	-11.2701
▁Yarışması	-11.2701
▁अनुभव	-11.2701
▁कपास	-11.2701
▁Geleneksel	-11.2701
▁Abant	-11.2701
▁مليار	-11.2701
▁teolog	-11.2701
▁Nicolas	-11.2701
▁More	-11.2701
▁अत्यंत	-11.2702
▁başlayarak	-11.2702
▁Salih	-11.2702
▁الهواء	-11.2702
▁أغ	-11.2702
▁एयर	-11.2702
▁तरीक	-11.2702
▁المقاطعات	-11.2702
▁برلين	-11.2702
▁नवीन	-11.2702
▁final	-11.2702
▁تأتي	-11.2703
▁Biz	-11.2703
▁الشركة	-11.2703
▁Kitabı	-11.2703
▁olacaktır	-11.2703
▁Edip	-11.2703
شعب	-11.2703
▁German	-11.2704
▁सुधार	-11.2704
▁मैदान	-11.2704
▁İmam	-11.2704
▁Beyşehir	-11.2704
▁कैसे	-11.2704
▁मैच	-11.2705
▁الحساب	-11.2705
▁Hatay	-11.2705
▁माह	-11.2705
▁kartal	-11.2705
▁Nikolay	-11.2705
▁قائد	-11.2705
▁ardıç	-11.2705
▁الرب	-11.2705
▁واست	-11.2706
▁المجلس	-11.2706
▁(1981	-11.2707
▁الرياضي	-11.2708
▁भगत	-11.2708
▁الويب	-11.2708
▁güvenlik	-11.271
beli	-11.271
شوغون	-11.271
▁sığın	-11.2711
▁يصبح	-11.2711
▁gösterilen	-11.2711
▁1885	-11.2712
▁सिक्क	-11.2712
uncu	-11.2712
▁dolu	-11.2713
SI	-11.2713
ضخم	-11.2713
▁1881	-11.2714
८२	-11.2714
ahit	-11.2715
▁قيس	-11.2715
▁دائم	-11.2715
Özgün	-11.2716
grafi	-11.2718
▁çelik	-11.2718
▁ağız	-11.2718
▁الأفق	-11.2719
▁taban	-11.2719
▁حمل	-11.2719
▁بينهما	-11.2719
▁parmak	-11.272
▁चू	-11.272
▁tanrısı	-11.272
َّة	-11.2721
▁إغريقية	-11.2721
نشطة	-11.2721
▁उड़ान	-11.2721
▁organizasyon	-11.2722
قبل	-11.2722
▁sayılır	-11.2722
▁بقي	-11.2722
▁örtüsü	-11.2722
▁karşıtı	-11.2725
حاف	-11.2725
▁Günü	-11.2725
▁३१	-11.2726
▁بنفس	-11.2726
▁الأكسجين	-11.2726
▁يتواجد	-11.2727
▁nadir	-11.2727
▁üstüne	-11.2728
मीन	-11.2728
▁التعبير	-11.2728
यल	-11.2729
▁konuda	-11.273
▁الصناعية	-11.273
▁नियंत्रण	-11.2732
▁tanıtıl	-11.2732
▁حلب	-11.2733
▁الانتخابات	-11.2733
▁الكلية	-11.2733
▁Brit	-11.2734
▁Şehri	-11.2735
▁تكتب	-11.2735
▁हीर	-11.2737
باط	-11.2737
▁Juli	-11.2737
▁المش	-11.2738
▁بدوره	-11.2738
▁oynadığı	-11.274
▁Veda	-11.274
▁وطنية	-11.2742
▁البحث	-11.2742
▁الكرك	-11.2742
مبرهنة	-11.2743
قرب	-11.2743
عترف	-11.2743
▁giz	-11.2743
▁الذاكرة	-11.2744
▁الشبكات	-11.2744
▁अध	-11.2744
▁erkekler	-11.2745
▁नेत्र	-11.2745
▁addır	-11.2746
▁गहर	-11.2746
▁विभाज	-11.2747
▁الشي	-11.275
dor	-11.275
▁şirket	-11.2751
▁Plan	-11.2751
eksiyon	-11.2754
▁saplı	-11.2754
msi	-11.2754
▁Michel	-11.2756
▁المركزية	-11.2758
kop	-11.276
▁futbolcular	-11.276
▁جبلية	-11.2761
▁आजाद	-11.2762
▁مال	-11.2764
سيلي	-11.2765
▁yanına	-11.2765
astro	-11.2766
▁الرابعة	-11.2766
▁कहीं	-11.2766
▁حكمت	-11.2769
▁भीतर	-11.2774
مهنة	-11.2774
▁وأكثر	-11.2775
▁bilgin	-11.2775
१२	-11.2775
▁üste	-11.2779
▁كاليفورنيا	-11.2781
▁sorun	-11.2786
▁الدينية	-11.2787
▁कण	-11.2788
संग	-11.2788
▁tanımlamak	-11.2789
▁الخامسة	-11.279
بروك	-11.279
▁dar	-11.2792
▁تأليف	-11.2793
▁مفاهيم	-11.2793
لذا	-11.2795
IA	-11.2796
graf	-11.2801
fel	-11.2802
्टी	-11.2802
▁أهمها	-11.2803
▁senaryo	-11.2803
▁44	-11.2805
+1	-11.2806
०६	-11.2806
▁Peru	-11.2811
tum	-11.2812
ابر	-11.2815
▁Game	-11.2819
शिला	-11.2819
▁रोड	-11.2821
▁toz	-11.2824
▁हों	-11.2825
▁नेपाली	-11.2826
▁Piya	-11.2826
يّ	-11.2827
▁السين	-11.2827
▁الأع	-11.2829
جسد	-11.283
▁öğrenimini	-11.2831
تعديل	-11.2831
yeviç	-11.2832
▁प्रिय	-11.2834
▁hav	-11.2834
▁nehir	-11.2834
فرق	-11.2834
غازات	-11.2835
िक्स	-11.2836
▁ulaş	-11.2839
▁عدا	-11.2842
्ड	-11.2843
▁फिल	-11.2844
▁kapan	-11.2844
▁karış	-11.2847
عمق	-11.2849
▁दु	-11.2852
▁sahası	-11.2854
▁geçir	-11.2857
३५	-11.2858
▁Die	-11.2862
▁समझा	-11.2865
جور	-11.2868
▁السلسلة	-11.2869
5.000	-11.287
şem	-11.2873
▁konularda	-11.2874
إحصاء	-11.2874
▁Stra	-11.2876
▁Medeni	-11.2878
رقم	-11.288
شاهد	-11.288
▁tarafı	-11.2882
रहित	-11.2886
▁bulundur	-11.2889
لغ	-11.2889
▁أنهم	-11.2892
▁Sel	-11.2892
▁inci	-11.2894
▁Â	-11.2894
▁سنت	-11.2895
▁आयत	-11.2895
ilmi	-11.2896
▁हमल	-11.2896
ثنائية	-11.2898
صحة	-11.2899
▁पट	-11.2901
▁2008)	-11.2903
▁derecede	-11.2911
▁قابل	-11.2912
स्वरूप	-11.2915
महाद्वीप	-11.2916
بروتون	-11.2917
▁58	-11.2918
द्वीप	-11.2918
Yunanca	-11.2919
▁arkadaşları	-11.292
▁गण	-11.292
▁izleye	-11.2921
وء	-11.2925
▁Bilgiler	-11.2926
▁She	-11.2927
▁चाहत	-11.2928
▁आसक्त	-11.2928
▁إيراني	-11.2929
▁خليفة	-11.2931
▁القطر	-11.2934
سار	-11.2936
हिन्दी	-11.2936
erviş	-11.2936
▁याद	-11.2937
ılmaz	-11.294
लीन	-11.2943
▁anlayışı	-11.2944
سلي	-11.2947
▁जुड़ा	-11.2947
kadın	-11.2948
نادي	-11.2948
sol	-11.2948
▁yem	-11.295
نبع	-11.2951
يوكي	-11.2954
سهم	-11.2956
▁yitir	-11.296
सौर	-11.2961
▁कहलात	-11.2962
▁يضم	-11.2966
▁किरण	-11.2967
▁şiirler	-11.2969
ينوس	-11.2971
▁कमी	-11.2972
نيوم	-11.2972
matik	-11.2977
▁kahramanı	-11.2979
▁بس	-11.2981
▁Avrupalı	-11.2981
▁Flor	-11.2985
▁مركزا	-11.2987
dim	-11.2987
▁çocukları	-11.2989
▁المست	-11.2991
ktif	-11.2991
विद्या	-11.2992
▁رفع	-11.2995
▁رحل	-11.2995
▁alınması	-11.2997
▁gösterim	-11.2998
▁باول	-11.3003
▁دعم	-11.3005
▁önermeler	-11.3005
▁بيتر	-11.3005
متلك	-11.3007
किरण	-11.3008
ذاب	-11.3013
▁metaller	-11.3015
uro	-11.3016
▁kuşu	-11.3017
أوائل	-11.302
▁kıtası	-11.3021
▁البيت	-11.3022
Er	-11.3023
▁سد	-11.3025
िटी	-11.3025
سيس	-11.3026
▁Güneydoğu	-11.3026
▁Abdül	-11.3027
▁hareketli	-11.3027
ؤل	-11.3028
▁105	-11.3032
▁idaresi	-11.3041
▁Has	-11.3042
نحن	-11.3044
مى	-11.3046
حرك	-11.305
raf	-11.305
▁Vit	-11.305
▁kam	-11.3053
शाह	-11.3055
هارا	-11.3056
كام	-11.3057
▁Sureler	-11.3057
हु	-11.3057
▁फ्र	-11.3058
▁قار	-11.3059
▁parlamento	-11.3063
▁سلم	-11.3068
▁سماه	-11.3069
▁النفس	-11.3069
▁पक्षी	-11.307
▁tut	-11.3072
قَ	-11.3077
▁فيلم	-11.3077
▁الفن	-11.3077
طاء	-11.3083
Kara	-11.3083
▁derecesi	-11.3086
▁protokol	-11.3088
مصانع	-11.3089
▁gelişmesi	-11.3089
▁هام	-11.309
▁Yaş	-11.309
كلمة	-11.309
▁2015)	-11.3091
▁استمر	-11.3091
▁akış	-11.3092
صفة	-11.3094
▁işlevi	-11.3096
८८	-11.3099
चन्द्र	-11.3102
zat	-11.3103
शहर	-11.3104
سام	-11.3106
▁उठा	-11.3107
▁elementlerin	-11.3108
▁आइ	-11.3109
▁Alba	-11.3112
▁olası	-11.3114
واجه	-11.3115
▁çocukların	-11.3115
एन	-11.3116
▁Dom	-11.3118
▁kavramları	-11.312
▁पुल	-11.3121
▁tabloda	-11.3124
▁गिन	-11.3126
▁الدر	-11.3128
▁çevir	-11.3129
197	-11.313
▁varlığını	-11.3133
▁وغالبا	-11.3137
३७	-11.3138
بيير	-11.314
▁ortamda	-11.314
فيلد	-11.3141
▁2005)	-11.3141
▁şirketler	-11.3141
▁قائم	-11.3143
ناس	-11.3144
▁Tür	-11.3146
▁açar	-11.3146
لول	-11.3147
▁kanal	-11.3147
▁yaygınlaş	-11.3147
ورية	-11.3148
ائط	-11.3152
▁95	-11.3154
ساء	-11.3156
जै	-11.316
▁tanımlama	-11.3163
▁tenis	-11.3163
▁yürüt	-11.3168
▁विस्त	-11.3168
ولة	-11.3169
▁Kişi	-11.317
▁süreçleri	-11.3171
▁पेरिस	-11.3172
تساوي	-11.3172
▁Selçuk	-11.3173
▁الفلبين	-11.3173
masından	-11.3174
ोत्तर	-11.3174
▁ucunda	-11.3174
ömür	-11.3175
▁döner	-11.3175
▁anestezi	-11.3176
~	-11.3176
κ	-11.3176
مفعول	-11.3176
अटलांटिक	-11.3176
▁Balıkesir	-11.3176
▁Boğaziçi	-11.3176
▁Gelincik	-11.3176
▁Kulübü	-11.3176
▁Language	-11.3176
▁Yaklaşı	-11.3176
▁Zhang	-11.3176
▁demiryolu	-11.3176
▁endişe	-11.3176
▁enflasyon	-11.3176
▁milletvekilleri	-11.3176
▁müdahale	-11.3176
▁orkestra	-11.3176
▁rüzgâr	-11.3176
▁tasvir	-11.3176
▁tüccar	-11.3176
▁Üzerine	-11.3176
▁अफ़्रीका	-11.3176
▁अस्तित्	-11.3176
▁आसपास	-11.3176
▁आस्ट्रिया	-11.3176
▁इस्पात	-11.3176
▁उर्मिल	-11.3176
▁कोलकाता	-11.3176
▁चौधरी	-11.3176
▁तथ्य	-11.3176
▁पठार	-11.3176
▁परंपरा	-11.3176
▁पर्यटक	-11.3176
▁प्रारम्भ	-11.3176
▁मस्जिद	-11.3176
▁लाहौर	-11.3176
▁विकिपीडिया	-11.3176
▁विपरीत	-11.3176
▁हज़ार	-11.3176
▁Doğru	-11.3176
▁إرنست	-11.3176
▁بولندا	-11.3176
▁Ardından	-11.3176
▁इमारत	-11.3176
▁प्रयास	-11.3176
▁Siirt	-11.3176
▁Dört	-11.3176
▁अनुयाय	-11.3176
ميثولوجيا	-11.3176
▁أناشيد	-11.3176
▁الأيوبي	-11.3176
▁dinamik	-11.3176
▁ملاحظة	-11.3176
▁referans	-11.3176
▁सिंध	-11.3176
▁श्याम	-11.3176
▁Politika	-11.3176
▁hakimiyetin	-11.3176
▁istekleri	-11.3176
رائحة	-11.3177
▁प्रधानमन्त्री	-11.3177
▁Ayşe	-11.3177
▁تعيين	-11.3177
▁قيام	-11.3177
▁1788)	-11.3177
▁eğim	-11.3177
▁अधिनियम	-11.3177
▁Tudor	-11.3177
تسارع	-11.3177
▁önderliğinde	-11.3177
▁डॉलर	-11.3177
▁आयोजन	-11.3177
زعيم	-11.3177
अभिनय	-11.3177
▁Hürriyet	-11.3177
▁şarap	-11.3177
तरंज	-11.3177
▁Bosna	-11.3177
▁برنارد	-11.3177
▁soylu	-11.3177
▁घनत्व	-11.3177
▁تامزا	-11.3177
▁كيدال	-11.3177
تدفق	-11.3177
▁İsyanı	-11.3177
▁Leonard	-11.3177
▁Gagra	-11.3177
▁البرلمان	-11.3177
▁Léo	-11.3177
▁ऊंचाई	-11.3177
▁अधीन	-11.3177
توحيد	-11.3177
▁مدريد	-11.3177
▁चावल	-11.3177
▁गर्म	-11.3177
▁मक्का	-11.3178
▁الشيء	-11.3178
▁gündüz	-11.3178
▁अवधि	-11.3178
▁Frank	-11.3178
▁कार्यक्रम	-11.3178
▁Bayrak	-11.3178
حصان	-11.3178
▁kumanda	-11.3178
▁düşünülmektedir	-11.3178
▁الجانب	-11.3178
▁लड़ाई	-11.3178
▁दिखाई	-11.3178
▁memur	-11.3178
▁TRT	-11.3179
▁विरुद्ध	-11.3179
▁आकाश	-11.3179
▁alfabe	-11.3179
▁धारा	-11.3179
▁uzanır	-11.3179
▁ADSL	-11.318
▁sağladı	-11.318
▁कराया	-11.318
▁emir	-11.318
▁प्रथा	-11.318
▁cell	-11.318
▁दिए	-11.3181
▁المسلمون	-11.3181
▁imalat	-11.3181
▁söylenir	-11.3181
▁अंदर	-11.3181
▁نشر	-11.3181
ंदर	-11.3181
▁düzeyinde	-11.3181
▁مخطط	-11.3182
▁Book	-11.3182
▁kalmıştır	-11.3182
▁olmalıdır	-11.3183
▁ocak	-11.3183
▁edebilir	-11.3183
▁मुक्ति	-11.3183
▁krizi	-11.3183
▁görmek	-11.3183
▁कंस	-11.3184
▁ayrıntıl	-11.3184
▁مستعمر	-11.3184
▁bakır	-11.3184
▁كيف	-11.3185
▁çıkardığı	-11.3185
▁كأن	-11.3185
▁SS	-11.3185
▁Köken	-11.3186
▁1871	-11.3186
▁hece	-11.3186
▁BSD	-11.3186
دفن	-11.3186
▁दोस्त	-11.3186
▁İlhanlı	-11.3186
قُ	-11.3187
▁1832	-11.3187
▁العظمى	-11.3187
▁जोशी	-11.3187
حدوث	-11.3187
▁sinir	-11.3187
günkü	-11.3188
;">	-11.3188
▁يعيش	-11.3188
▁यो	-11.3189
▁الشيعة	-11.3189
▁बिल	-11.3189
▁الملكي	-11.319
▁क़	-11.319
▁أبيض	-11.319
▁Sait	-11.319
▁Rast	-11.3191
▁korku	-11.3191
▁sanal	-11.3192
▁komutanı	-11.3193
bağ	-11.3193
▁طوله	-11.3193
▁Cemal	-11.3193
▁Dokuz	-11.3193
▁1840	-11.3193
▁Kazan	-11.3193
▁1811	-11.3193
▁لنظام	-11.3194
▁Mavi	-11.3194
▁şöyledir	-11.3195
▁الجبر	-11.3195
▁सामने	-11.3196
योग	-11.3196
▁يؤدي	-11.3197
▁1024	-11.3197
▁المالية	-11.3197
رشيد	-11.3197
▁वध	-11.3197
▁अगल	-11.3198
▁bütünü	-11.3198
▁كفر	-11.3198
▁جزائرية	-11.3199
▁الصحراء	-11.32
abad	-11.32
▁ولي	-11.32
▁Kl	-11.3201
سيطرة	-11.3202
▁olmaz	-11.3202
रविवार	-11.3202
معارك	-11.3203
▁Eric	-11.3203
▁yarım	-11.3204
عياد	-11.3205
▁ورئيس	-11.3205
▁कहानिय	-11.3205
▁yetkili	-11.3207
लेन	-11.3209
olitik	-11.3211
▁nemli	-11.3211
▁Piri	-11.3211
▁koro	-11.3212
قاء	-11.3212
▁الأشعة	-11.3213
दिरा	-11.3215
▁कोमल	-11.3216
▁pre	-11.3217
▁Abdi	-11.3218
▁Yuva	-11.3218
▁ويت	-11.3219
▁هيكل	-11.322
▁yapımında	-11.3221
▁Google	-11.3222
▁General	-11.3222
ترجع	-11.3222
▁المقاطعة	-11.3223
▁birimidir	-11.3224
arikat	-11.3224
▁Oda	-11.3225
▁1997)	-11.3227
▁(1966)	-11.3228
▁هان	-11.3229
هيد	-11.3229
▁شاه	-11.3229
▁Ul	-11.323
fet	-11.3232
▁رياضياتي	-11.3235
जात	-11.3236
sir	-11.3236
▁Philippe	-11.3237
▁الصيف	-11.3238
▁Ceza	-11.3239
▁Abd	-11.324
▁Zo	-11.3241
दन	-11.3241
كول	-11.3244
कुड़	-11.3244
▁تتم	-11.3245
▁كاس	-11.3246
▁إطلاق	-11.3247
▁seyre	-11.3247
▁uza	-11.3248
time	-11.3248
▁स्वीकार	-11.3248
سياس	-11.3249
ृद्ध	-11.3251
▁Beni	-11.3252
▁gelişmeler	-11.3253
دلالة	-11.3253
vaz	-11.3253
▁हाल	-11.3256
ören	-11.3257
▁borusu	-11.3259
نزع	-11.3264
▁kuram	-11.3264
▁hasar	-11.3266
▁السلال	-11.3267
▁biliminin	-11.3268
▁الليل	-11.3269
▁चले	-11.3269
لتحديد	-11.3274
▁تدريس	-11.3274
يناوا	-11.3274
▁ağırlığı	-11.328
शांत	-11.328
एफ	-11.328
▁القدر	-11.3281
▁söyler	-11.3283
भू	-11.3283
▁batıda	-11.3283
▁temelleri	-11.3284
र्जुन	-11.3285
▁गहरा	-11.3285
▁Hükûmeti	-11.3285
▁मोहन	-11.3286
▁أولاد	-11.3286
▁مرور	-11.3287
▁بعمل	-11.3288
▁लाइ	-11.3288
▁dönemlerde	-11.3289
▁68	-11.3289
▁53	-11.3291
▁जहा	-11.3291
▁uygulamaları	-11.3292
▁ماء	-11.3293
▁जेल	-11.3297
▁الوادي	-11.3303
▁tanesi	-11.3305
स्टर	-11.3306
▁sürüngenler	-11.3307
▁başarısız	-11.3308
▁meyvesi	-11.3309
▁sapta	-11.3312
▁पाप	-11.3313
▁صناع	-11.3316
cılığı	-11.3318
▁مرتبة	-11.3318
▁2006)	-11.3322
ić	-11.3323
عيش	-11.3327
▁تأثير	-11.3328
ref	-11.3328
▁شق	-11.3328
▁nesneler	-11.3329
ّف	-11.333
▁سابقا	-11.333
aruz	-11.333
▁yollar	-11.333
▁Tanım	-11.3331
▁mili	-11.3332
nov	-11.3335
ात्	-11.3335
▁خمس	-11.3337
meleri	-11.3338
يشي	-11.3338
▁beslenme	-11.3339
▁إجراء	-11.334
▁للج	-11.334
▁1821	-11.3341
mamış	-11.3346
leşik	-11.3347
▁दौर	-11.3348
قع	-11.3349
▁تصميم	-11.3353
/(	-11.3353
▁formül	-11.3354
▁rast	-11.3356
▁Vef	-11.3357
تداخل	-11.3358
▁कप	-11.3359
▁eyaleti	-11.336
▁sistemini	-11.3362
انس	-11.3362
▁öncü	-11.3363
▁niteliği	-11.3364
▁belirlen	-11.3367
▁Mide	-11.3367
▁gidere	-11.3371
طع	-11.3371
▁çifti	-11.3372
▁निर	-11.3373
مؤسسات	-11.3375
▁Astronomi	-11.3377
خلط	-11.3379
▁اختلاف	-11.338
وارا	-11.3381
▁sorunları	-11.3381
▁tartışmalar	-11.3382
باز	-11.3387
▁مدنها	-11.3388
▁मीर	-11.3395
▁बज	-11.3396
▁सोच	-11.3399
▁tutma	-11.3399
ضمحل	-11.34
متحف	-11.3415
تنظيم	-11.3416
▁doktora	-11.3416
أشجار	-11.3417
राय	-11.3418
نتيج	-11.3418
erkek	-11.3419
२७	-11.3419
▁تدع	-11.342
▁Yo	-11.342
تصنيع	-11.3421
भूमि	-11.3421
انتشار	-11.3421
▁ulaşıl	-11.3422
Roma	-11.3424
कोश	-11.3426
تجمعات	-11.3429
▁Meclisi	-11.343
प्रसिद्ध	-11.343
▁दत्त	-11.3432
▁yakalan	-11.3434
▁düşman	-11.3437
गढ	-11.3437
▁MP	-11.3439
▁gazeteleri	-11.3442
▁विद्या	-11.3443
▁टे	-11.3446
▁1930'	-11.3449
▁olmadığını	-11.3452
▁عل	-11.3453
▁dilde	-11.3455
▁البشر	-11.3455
२२	-11.3456
▁الشعبي	-11.3458
अम्म	-11.3458
जीत	-11.3459
हरी	-11.346
▁AC	-11.3465
▁kullanılabil	-11.3466
عبد	-11.3475
▁gam	-11.3477
سهل	-11.3477
▁1782	-11.3478
▁uyu	-11.3481
लैण्ड	-11.3484
▁ticareti	-11.3486
تسبب	-11.3491
▁dilimi	-11.3491
▁الفرد	-11.3491
▁yerleştiril	-11.3492
▁Karayip	-11.3493
▁(1)	-11.3495
५८	-11.3496
▁لاس	-11.3499
âh	-11.35
▁مشتق	-11.3502
يجة	-11.3504
ोने	-11.3504
▁اللج	-11.3504
قاق	-11.3505
جموع	-11.3505
نيت	-11.3506
▁suları	-11.351
قدس	-11.351
▁isteği	-11.3511
▁Kart	-11.3513
جاز	-11.3516
عرب	-11.3518
▁yararlan	-11.352
onların	-11.3522
▁داي	-11.3525
▁Ruh	-11.3525
▁बॉ	-11.3526
صين	-11.3527
stad	-11.3531
स्तान	-11.3533
جوز	-11.3533
▁padişah	-11.3536
▁dergileri	-11.3541
ّب	-11.3542
كبار	-11.3545
عهد	-11.3549
toloji	-11.3553
▁aşı	-11.3555
▁ilçede	-11.3556
▁Örnekler	-11.3558
▁Sur	-11.3559
्वान	-11.356
३०	-11.3561
▁جنوبي	-11.3564
▁mahallesi	-11.3565
جزر	-11.3565
▁organları	-11.3566
▁kitabında	-11.3568
▁adam	-11.3574
▁sonuçlan	-11.3574
▁his	-11.3574
cus	-11.3575
▁kütüphane	-11.3576
▁gezi	-11.3577
▁Kong	-11.358
▁oluşturulmuştu	-11.3581
▁yapılar	-11.3582
▁yıldızı	-11.3586
▁جوي	-11.3586
▁صحيح	-11.3587
र्ट्स	-11.3587
ulus	-11.3588
▁bileşikler	-11.3592
▁ayları	-11.3599
istler	-11.3601
▁ortalarında	-11.3602
▁खो	-11.3603
ayının	-11.3604
حضرية	-11.3605
▁مج	-11.3605
▁خطي	-11.3606
▁صنع	-11.3606
▁renginde	-11.3609
▁Perl	-11.361
▁Hakları	-11.3613
sızlık	-11.3615
▁Sho	-11.3616
بعث	-11.3617
तना	-11.3618
▁çal	-11.3618
ायर	-11.3622
▁gezegenin	-11.3624
▁حب	-11.3625
▁نت	-11.3625
चिर	-11.3626
EE	-11.3628
▁2018)	-11.3629
▁خان	-11.3631
▁Çal	-11.3631
▁Tem	-11.3634
▁الجزيئي	-11.3635
▁الحقيقي	-11.3635
▁Sayılar	-11.3637
▁बहन	-11.3638
تناظر	-11.3638
▁toplama	-11.364
▁العادي	-11.3641
روايات	-11.3641
kom	-11.3642
▁Ülkeler	-11.3642
क्य	-11.3645
▁incelen	-11.3646
▁Gau	-11.3649
أشعة	-11.365
▁:-	-11.3652
सिस	-11.3658
क्का	-11.3658
▁Hüsn	-11.3659
عزيز	-11.366
▁karikatürist	-11.3661
▁إيطالي	-11.3662
▁ceza	-11.3663
أر	-11.3664
▁हिस्स	-11.3664
▁tepkime	-11.3666
▁Nam	-11.3668
▁barındır	-11.3668
▁arama	-11.3668
▁जिसमे	-11.3669
▁odak	-11.367
ेंस	-11.3672
شحنة	-11.3673
ستير	-11.3675
▁अन्तर्	-11.3675
▁girişim	-11.3675
▁Özbek	-11.3676
▁Çoğu	-11.3676
ī	-11.3676
▁Çeşitl	-11.3676
▁Örümce	-11.3676
▁तिलक	-11.3676
Phoenix	-11.3676
ú	-11.3676
ظواهر	-11.3676
▁Biyografi	-11.3676
▁Cizvit	-11.3676
▁Ekvator	-11.3676
▁Gaziantep	-11.3676
▁Habsburg	-11.3676
▁IEEE	-11.3676
▁Livaneli	-11.3676
▁Madrid	-11.3676
▁Mihail	-11.3676
▁Pakistan	-11.3676
▁Stefan	-11.3676
▁Ulaşım	-11.3676
▁amfora	-11.3676
▁avukat	-11.3676
▁cevap	-11.3676
▁hektar	-11.3676
▁mutfağı	-11.3676
▁nordmanniana	-11.3676
▁popülasyon	-11.3676
▁Çorum	-11.3676
▁İslâm	-11.3676
▁اختبار	-11.3676
▁الإعلام	-11.3676
▁السوفيتي	-11.3676
▁النظائر	-11.3676
▁انقلاب	-11.3676
▁بثلاث	-11.3676
▁قشتالة	-11.3676
▁مخترع	-11.3676
▁अभिव्यक्ति	-11.3676
▁इतालवी	-11.3676
▁कौशल	-11.3676
▁तकनीकी	-11.3676
▁दैनिक	-11.3676
▁भोजन	-11.3676
▁भोपाल	-11.3676
▁मुसलमान	-11.3676
▁शुक्ल	-11.3676
metalurji	-11.3676
▁Avanos	-11.3676
▁Finlandiya	-11.3676
▁Kudüs	-11.3676
▁Zürih	-11.3676
▁evrensel	-11.3676
▁أتباع	-11.3676
▁السيارات	-11.3676
▁ناغانو	-11.3676
▁शिवाजी	-11.3676
▁ألقاب	-11.3676
▁नेशनल	-11.3676
▁الوقود	-11.3676
▁تيودور	-11.3676
▁سهيل	-11.3676
▁(2000)	-11.3676
▁Üreme	-11.3676
▁ठीक	-11.3676
▁أسباب	-11.3676
▁بوركينا	-11.3676
▁قطاع	-11.3676
▁सॉफ्टवेयर	-11.3676
▁Amasya	-11.3676
▁धरती	-11.3676
▁पर्याय	-11.3677
▁tarif	-11.3677
source	-11.3677
क्षेप	-11.3677
▁1795)	-11.3677
▁البخار	-11.3677
تقاليد	-11.3677
▁Atasoy	-11.3677
▁الإسكندرية	-11.3677
▁पंचायत	-11.3677
▁1793)	-11.3677
▁प्रतिनिधि	-11.3677
▁Ayaklanması	-11.3677
▁الإصدار	-11.3677
▁रॉय	-11.3677
▁Savunma	-11.3677
تجربة	-11.3677
▁تشوبو	-11.3677
▁objektif	-11.3677
▁पड़ोस	-11.3677
▁وكاتب	-11.3677
▁Çift	-11.3677
▁प्रयोगशाला	-11.3677
▁Intel	-11.3677
▁doğmuştur	-11.3677
efef	-11.3677
▁değiştirildi	-11.3677
▁kimlik	-11.3677
▁घंट	-11.3677
▁Andrew	-11.3677
▁Burun	-11.3677
▁يسكن	-11.3677
▁Free	-11.3677
▁प्रत्यक्ष	-11.3677
▁حياة	-11.3677
▁النساء	-11.3677
▁çatla	-11.3677
▁manyetik	-11.3677
▁द्रव्य	-11.3677
▁korsan	-11.3677
▁misyoner	-11.3677
▁ऑक्स	-11.3677
▁kapsayan	-11.3677
▁व्यास	-11.3677
شاء	-11.3677
▁dilbilimci	-11.3677
▁paralel	-11.3678
▁गुरू	-11.3678
▁संसार	-11.3678
▁amatör	-11.3678
▁düştü	-11.3678
▁Mardin	-11.3678
▁God	-11.3678
▁الأحيان	-11.3678
شموع	-11.3678
▁indirildi	-11.3678
▁(2002)	-11.3678
zâde	-11.3678
▁केसरी	-11.3678
▁तालिका	-11.3678
▁الإيمان	-11.3678
▁gösterilebilir	-11.3678
▁الكونغو	-11.3678
▁इन्द्र	-11.3678
▁فيلهلم	-11.3678
▁حلقة	-11.3678
▁(2005)	-11.3678
}}	-11.3678
▁हालां	-11.3678
▁Belediyespor	-11.3678
▁निगम	-11.3679
▁Yılmaz	-11.3679
▁البورق	-11.3679
▁Reform	-11.3679
▁Sancak	-11.3679
▁(1999)	-11.3679
تناسب	-11.3679
▁çekici	-11.3679
▁ediyor	-11.3679
▁çarı	-11.3679
▁سيناء	-11.3679
▁كانساي	-11.368
▁gerçekleşir	-11.368
▁श्रीराम	-11.368
ullah	-11.368
▁Milliyet	-11.3681
▁Sırt	-11.3681
उद्भव	-11.3681
▁Varto	-11.3681
▁الأكتينيوم	-11.3681
▁vermektedir	-11.3681
▁العمليات	-11.3682
▁öyküsü	-11.3682
▁متصفح	-11.3682
▁छोड़कर	-11.3682
▁cinsel	-11.3683
▁बुश	-11.3683
▁ताल	-11.3683
▁ثمانية	-11.3683
▁الأحداث	-11.3683
▁التحليل	-11.3684
▁destan	-11.3684
▁ölçüsü	-11.3684
▁ई०	-11.3684
رسم	-11.3685
▁esir	-11.3685
▁وابن	-11.3685
oyun	-11.3685
▁Said	-11.3685
▁أطول	-11.3685
الكامل	-11.3685
▁रखते	-11.3686
▁ekonomist	-11.3686
▁श्रीमत	-11.3686
▁etken	-11.3686
▁पर्व	-11.3687
▁लगाया	-11.3687
▁الأربعة	-11.3687
▁arkeolojik	-11.3688
▁وجنوب	-11.3689
▁1453	-11.3689
▁البنزين	-11.3689
▁القاد	-11.369
▁चुना	-11.369
▁Arif	-11.3691
▁يساعد	-11.3691
▁beslenirler	-11.3691
▁devir	-11.3691
▁سواء	-11.3691
▁çıkarılan	-11.3691
▁اليهودية	-11.3692
▁kedisi	-11.3692
▁تركيا	-11.3692
▁Bank	-11.3692
▁فالس	-11.3692
▁البني	-11.3692
ign	-11.3693
▁اللازم	-11.3694
حامل	-11.3694
▁uygulanan	-11.3694
▁Üye	-11.3694
▁ضوئية	-11.3694
▁بصفة	-11.3694
्यु	-11.3696
▁1781	-11.3696
▁açan	-11.3696
▁مسار	-11.3696
▁Ludwig	-11.3697
▁1778	-11.3698
▁Christ	-11.3698
▁الأقل	-11.3698
▁محاول	-11.3698
▁Karaman	-11.3698
▁الإسبانية	-11.3699
▁Yağ	-11.3699
▁255	-11.3699
كتور	-11.3699
▁link	-11.3701
▁خشب	-11.3701
▁kör	-11.3702
▁ونظرا	-11.3702
▁yüzde	-11.3704
▁Hristiyanlık	-11.3705
▁Ebu	-11.3706
▁पुर्तगाली	-11.3707
िद	-11.3708
كيت	-11.3708
▁serçesi	-11.3708
▁البسيطة	-11.3708
ağrı	-11.3711
▁رمضان	-11.3711
عارف	-11.3713
▁العلاقات	-11.3713
▁hoş	-11.3713
RAM	-11.3714
▁kurma	-11.3715
जनपद	-11.3715
تعاون	-11.3716
▁काला	-11.3716
▁الحقيقية	-11.3718
▁الموسوعة	-11.3718
جداول	-11.3719
▁اليمين	-11.3719
▁uzunlukta	-11.3719
▁Trac	-11.372
▁الحيوانات	-11.372
▁श्रम	-11.3721
▁yılanlar	-11.3721
▁önermenin	-11.3722
▁الشخصية	-11.3722
▁وأم	-11.3724
▁हृदय	-11.3724
زداد	-11.3725
▁Dala	-11.3726
▁واستمر	-11.3726
▁शिकार	-11.3728
ستا	-11.3729
▁ويُ	-11.3731
▁derinlik	-11.3734
▁canlandır	-11.3736
abildiği	-11.3736
▁المدارات	-11.3737
laşmış	-11.3738
▁استطاع	-11.3738
▁سقوط	-11.3738
▁पद्धति	-11.3738
▁Demirci	-11.3739
▁ilgilen	-11.3739
▁Bin	-11.374
▁700	-11.3742
▁मॉ	-11.3743
▁kort	-11.3744
خضع	-11.3744
شغل	-11.3745
▁Denizli	-11.3746
▁صن	-11.3747
▁stil	-11.3747
▁चै	-11.3748
▁لأي	-11.375
▁السم	-11.375
▁मेरी	-11.375
▁sonuçlar	-11.3752
▁birinin	-11.3752
▁aylarında	-11.3755
part	-11.3755
▁बिज	-11.3757
استثناء	-11.3757
لمجموعة	-11.3758
▁göçmen	-11.3759
▁البرامج	-11.376
▁konuş	-11.3761
▁वही	-11.3762
▁السادسة	-11.3762
▁Akın	-11.3763
DO	-11.3765
▁gözet	-11.3766
कथाएँ	-11.3767
▁oluştururlar	-11.3769
▁1979)	-11.3769
▁الأرضية	-11.377
▁ग्रे	-11.377
قان	-11.3771
▁Centr	-11.3772
▁للعمل	-11.3774
▁ألب	-11.3775
فقيه	-11.3778
▁Georges	-11.3779
▁بروتوكول	-11.3779
▁تحتل	-11.3779
▁gönderme	-11.378
▁خطية	-11.378
▁गाय	-11.3783
▁sayının	-11.3784
▁artar	-11.3785
liğinin	-11.3785
▁الثامنة	-11.3786
▁Charl	-11.3787
Hz	-11.3789
▁زياد	-11.3789
▁hanedanı	-11.3789
▁pr	-11.379
फे	-11.379
fter	-11.379
▁سورية	-11.3791
▁أفراد	-11.3792
زراعة	-11.3794
mî	-11.3797
▁ağları	-11.3798
▁miras	-11.38
▁التن	-11.3803
▁Dünyada	-11.3805
▁أغاني	-11.3806
▁निश्चित	-11.3807
▁Den	-11.3807
▁kavramlar	-11.3809
▁الحال	-11.3809
्ज़	-11.381
▁öğretmeni	-11.3812
▁dağıtım	-11.3813
▁خير	-11.3813
निक	-11.3814
▁yaptırıl	-11.3814
▁All	-11.3814
▁قديم	-11.3815
▁61	-11.3819
५९	-11.3819
جرام	-11.3821
▁ربيع	-11.3821
▁memeli	-11.3822
▁2003)	-11.3822
35)	-11.3824
▁olayları	-11.3824
▁Fat	-11.3828
right	-11.3829
▁Zu	-11.3829
ré	-11.3829
▁konumu	-11.3833
▁मालद	-11.3833
▁çalışmış	-11.3833
७६	-11.3833
▁ülkelerinde	-11.3834
mis	-11.3835
bik	-11.3836
▁لان	-11.3836
▁Williams	-11.3837
▁Cap	-11.3838
▁Pek	-11.3838
ोरा	-11.3844
▁yaka	-11.3845
▁भेद	-11.3849
▁perdesinde	-11.3849
▁yandan	-11.3855
mıştı	-11.3856
▁inşaat	-11.3856
لإنتاج	-11.3856
lerdeki	-11.3858
▁2010)	-11.3863
خمسة	-11.3865
▁tarafın	-11.3866
▁زوج	-11.3867
heim	-11.3871
▁Yol	-11.3873
▁يزيد	-11.3875
mos	-11.3877
▁State	-11.3878
रोन	-11.3882
▁kanalları	-11.3888
▁tabaka	-11.3888
لاتين	-11.3891
▁kısm	-11.3892
्मा	-11.3893
cho	-11.3893
▁parçalar	-11.3894
mân	-11.3896
ifolia	-11.3897
▁birleşmesi	-11.3898
▁Col	-11.3901
-50	-11.3901
▁hanı	-11.3902
yorsa	-11.3902
▁zamanı	-11.3902
▁قل	-11.3903
▁صلاة	-11.3904
▁सच	-11.3904
more	-11.3906
spac	-11.3909
▁okuma	-11.391
askerî	-11.391
▁1940'	-11.391
▁पथ	-11.3911
▁حا	-11.3911
تعرض	-11.3912
▁disiplin	-11.3914
▁مبني	-11.3915
▁hikâyesi	-11.3915
▁مكونات	-11.3919
▁yaşamın	-11.3919
सिन	-11.392
▁اعت	-11.3921
sıkça	-11.3923
AC	-11.3923
erry	-11.3925
yazı	-11.3927
acağını	-11.3933
रचनाएं	-11.3934
Juglans	-11.3939
प्रेस	-11.3939
▁انتشار	-11.394
▁dillerde	-11.3941
ROM	-11.3942
नारायण	-11.3943
رَ	-11.3943
ग्राम	-11.3943
gazete	-11.3944
कुमार	-11.3944
تفسير	-11.3944
لاعب	-11.3945
▁zorla	-11.3945
समूह	-11.3945
رض	-11.3946
▁متحف	-11.3946
संघ	-11.3948
صينية	-11.3948
▁Pop	-11.3948
नियम	-11.3949
رافق	-11.3951
▁मिन	-11.3953
▁أمام	-11.3957
▁Dili	-11.396
▁Ot	-11.396
سطح	-11.396
▁زين	-11.3968
▁Ligi	-11.3973
خليفة	-11.3973
▁رين	-11.3975
▁İsa	-11.3976
▁جرت	-11.3981
▁ürünler	-11.3981
▁SK	-11.3983
▁yarışma	-11.3984
▁atmosfer	-11.3985
०८	-11.3992
▁eyaletinde	-11.3997
▁çalgılar	-11.3998
وض	-11.4003
FC	-11.4003
أخذ	-11.4004
▁Şahin	-11.4006
ity	-11.401
▁ضرب	-11.4012
▁mahkeme	-11.4017
▁melek	-11.402
رونة	-11.4022
▁işletmeler	-11.4026
▁Som	-11.4026
▁Okyanus	-11.4027
▁1,0	-11.4028
RS	-11.4031
▁odası	-11.4032
▁attı	-11.4033
▁gölü	-11.4034
تسم	-11.4035
سرع	-11.4036
أسست	-11.4041
▁fazlası	-11.4041
▁Zü	-11.4045
▁रिपोर्	-11.4046
▁Kem	-11.4047
▁Nef	-11.4049
نسبة	-11.4051
الق	-11.4056
▁Sabah	-11.4056
51)	-11.4058
▁تصبح	-11.4059
▁cisimler	-11.4061
كاد	-11.4063
▁inşası	-11.4064
تحكم	-11.4069
خدم	-11.4071
▁اكتشافه	-11.4071
▁içinden	-11.4076
ोई	-11.4077
uzu	-11.4079
روسية	-11.4082
▁علوم	-11.4087
▁कालि	-11.4088
▁fonksiyon	-11.4088
▁المار	-11.409
▁Cami	-11.409
2002	-11.4093
▁والش	-11.41
تصرف	-11.411
▁وأول	-11.4112
▁q	-11.4114
▁الطريق	-11.4116
▁सेंट	-11.4117
EM	-11.4117
▁चौथा	-11.4118
sın	-11.4118
▁Yahudiler	-11.4121
▁Resimler	-11.4123
mond	-11.4123
olojik	-11.4124
▁سول	-11.4125
▁Zi	-11.4129
▁ألك	-11.4133
DD	-11.4133
▁eserlerini	-11.4133
▁मिशन	-11.4138
▁anayasa	-11.4138
▁çizil	-11.414
خلق	-11.414
مستويات	-11.4141
▁Bern	-11.4145
▁वर्	-11.4145
eriyodik	-11.4147
▁هود	-11.4147
▁المطر	-11.4151
عزف	-11.4151
▁bağlama	-11.4154
▁Ang	-11.4155
षा	-11.4155
▁XII	-11.4156
▁tarz	-11.4159
▁haritası	-11.4162
▁التونسي	-11.4162
peygamber	-11.4163
▁Umu	-11.4164
▁standartları	-11.4164
▁yönetil	-11.4164
▁طويل	-11.4164
علاقات	-11.4165
أصوات	-11.4165
▁أش	-11.4166
قاف	-11.4169
▁pas	-11.4169
ेक्ट	-11.4171
▁नाव	-11.4173
▁الموج	-11.4175
▁uyku	-11.4176
▁üstlen	-11.4177
Am	-11.4177
▁dut	-11.4177
تخصص	-11.4178
52)	-11.4178
ुन	-11.4178
▁yetiş	-11.4179
انتخابات	-11.4181
▁ديفي	-11.4182
पाट	-11.4184
▁كانتو	-11.4187
▁اليهود	-11.4188
yev	-11.419
خضر	-11.4192
amamıştır	-11.4195
icus	-11.4196
▁dillerinde	-11.4197
جع	-11.4198
▁problem	-11.4199
▁महेश	-11.42
oğunlukla	-11.4202
▁ilerleme	-11.4202
▁okur	-11.4202
▁şogun	-11.4203
▁mağlu	-11.4203
▁Andorra	-11.4203
▁Athlon	-11.4203
▁Bolzano	-11.4203
▁Fırtına	-11.4203
▁Kırklareli	-11.4203
▁Science	-11.4203
▁Sicilya	-11.4203
▁Standard	-11.4203
▁Televizyon	-11.4203
▁Tevfik	-11.4203
▁Zülfü	-11.4203
▁defnedil	-11.4203
▁dışsallık	-11.4203
▁hafıza	-11.4203
▁ibadet	-11.4203
▁petrol	-11.4203
▁vakıf	-11.4203
▁yürüyüş	-11.4203
▁yırtıcı	-11.4203
▁çeşidi	-11.4203
▁الأربعاء	-11.4203
▁البلطيق	-11.4203
▁بطليموس	-11.4203
▁تقويم	-11.4203
▁ضريح	-11.4203
▁فوكوكا	-11.4203
▁مايكروسوفت	-11.4203
▁इंजीनियर	-11.4203
▁इंडोनेशिया	-11.4203
▁इम्फ	-11.4203
▁उद्देश्य	-11.4203
▁कठिन	-11.4203
▁कलकत्ता	-11.4203
▁गवर्नर	-11.4203
▁बाह्य	-11.4203
▁मिथिला	-11.4203
▁मिशिगन	-11.4203
▁लकड़ी	-11.4203
▁विद्युत	-11.4203
▁समारोह	-11.4203
▁साधारण	-11.4203
区	-11.4203
ু	-11.4203
▁Andronikos	-11.4203
▁Engineering	-11.4203
▁ilahiyatçı	-11.4203
▁levha	-11.4203
▁النعامة	-11.4203
▁ديزني	-11.4203
▁ملايين	-11.4203
▁यमुना	-11.4203
▁सक्षम	-11.4203
▁Kutbu	-11.4203
▁Rıza	-11.4203
▁Sahra	-11.4203
▁tütün	-11.4203
▁ब्लॉग	-11.4203
▁जनरल	-11.4203
▁Hizmet	-11.4203
▁السنوات	-11.4203
▁Mohs	-11.4203
▁klasör	-11.4203
▁मिसाइल	-11.4203
▁güncel	-11.4203
▁şogunluğunu	-11.4203
▁تعالى	-11.4203
▁Hawk	-11.4203
▁الحكومية	-11.4203
་	-11.4203
▁Federasyonu	-11.4203
▁mekân	-11.4203
▁الحركات	-11.4203
▁Benjam	-11.4203
▁gelerek	-11.4203
▁blok	-11.4203
▁सड़क	-11.4203
▁hacmi	-11.4203
▁tümülüs	-11.4203
▁क्षार	-11.4203
▁छाया	-11.4203
▁हिन्दुस्तान	-11.4203
▁United	-11.4203
▁تايلند	-11.4203
مشاكل	-11.4203
▁कक्षा	-11.4203
▁basketbol	-11.4203
▁Akşam	-11.4203
▁उत्तम	-11.4203
▁çerçevesinde	-11.4203
▁Gıda	-11.4203
▁eğilimi	-11.4203
▁النقدية	-11.4203
▁सारणी	-11.4203
▁आध्यात्मिक	-11.4203
▁शुक्रवार	-11.4203
▁तत्काल	-11.4203
▁Giriş	-11.4204
▁तरल	-11.4204
علامات	-11.4204
▁البلاتين	-11.4204
▁البناء	-11.4204
فخرية	-11.4204
▁sivil	-11.4204
▁Gold	-11.4204
▁الخضراء	-11.4204
▁(2007)	-11.4204
द्दीन	-11.4204
▁استعمل	-11.4204
▁Venüs	-11.4204
▁الوزن	-11.4204
▁Başarı	-11.4205
▁दुख	-11.4205
▁inancın	-11.4205
▁Gazetecilik	-11.4205
▁Metis	-11.4205
▁eriği	-11.4205
▁نساء	-11.4205
▁Edge	-11.4206
▁रास्त	-11.4206
▁Digital	-11.4206
▁Zira	-11.4206
▁Bağımsızlık	-11.4206
▁طبية	-11.4206
▁Mahur	-11.4206
प्ल	-11.4206
▁kapsamında	-11.4207
▁فرانك	-11.4207
▁नज़र	-11.4207
▁الحادي	-11.4207
▁انحلال	-11.4207
▁kurak	-11.4208
▁başkanlık	-11.4208
▁छठ	-11.4208
▁رومانيا	-11.4208
▁आदेश	-11.4209
قاعد	-11.4209
▁Kurgu	-11.4209
▁kutup	-11.4209
تغذ	-11.421
▁ولقد	-11.421
▁दक्ष	-11.421
▁للعنصر	-11.421
▁sezonunda	-11.421
▁oluşturulan	-11.4211
▁مكعب	-11.4211
ضلع	-11.4211
▁جداً	-11.4211
محكمة	-11.4211
▁geçerek	-11.4212
هاتف	-11.4212
▁çekilen	-11.4212
▁konuşan	-11.4212
▁1855	-11.4212
▁kısmen	-11.4212
▁هسن	-11.4213
▁dağlık	-11.4213
▁معسكر	-11.4213
▁Gençlik	-11.4214
▁वसु	-11.4214
اصب	-11.4214
▁Hong	-11.4214
▁Mektebi	-11.4214
▁ذري	-11.4214
▁suresidir	-11.4214
▁ISO	-11.4215
▁चलने	-11.4216
▁==	-11.4216
म्बर	-11.4216
▁1848	-11.4217
▁مساعد	-11.4218
▁şekiller	-11.4218
▁पश्चात्	-11.4218
▁1856	-11.4218
१४	-11.4219
▁1892	-11.4219
▁1874	-11.4219
▁şampiyonu	-11.4219
رير	-11.422
▁kimyacı	-11.422
▁أنزار	-11.422
,000,000	-11.4222
▁satan	-11.4223
वैध	-11.4223
عطى	-11.4223
▁فرنسيون	-11.4223
▁Vas	-11.4224
▁العالية	-11.4224
طان	-11.4224
▁منتجات	-11.4224
▁1791	-11.4224
▁İnce	-11.4224
८५	-11.4224
▁Röntgen	-11.4225
▁özü	-11.4226
▁nüfusunun	-11.4226
أمراء	-11.4226
▁öğrencisi	-11.4226
▁çevresindeki	-11.4227
▁यात्री	-11.4228
▁renkte	-11.4228
▁eksikliği	-11.4228
▁UE	-11.4228
سهول	-11.4229
▁1460	-11.4229
▁Akad	-11.4229
▁çeken	-11.423
▁الكتلة	-11.4231
▁1470	-11.4231
▁बालक	-11.4231
▁قديس	-11.4233
▁समझौता	-11.4233
▁معدنية	-11.4233
▁الفراغية	-11.4233
▁sağladığı	-11.4233
▁uzan	-11.4233
▁प्राप्ति	-11.4234
▁Char	-11.4234
▁Neva	-11.4235
▁içeri	-11.4235
▁محددة	-11.4235
▁tüketim	-11.4238
▁Çeçen	-11.4239
▁tüket	-11.424
▁olmasından	-11.424
▁जाये	-11.4241
▁Arab	-11.4241
▁الشحنة	-11.4243
أسلوب	-11.4244
▁الجزر	-11.4244
mut	-11.4246
▁araştırmaları	-11.4246
▁للإ	-11.4246
▁(1965)	-11.4248
▁Wilde	-11.4248
▁الهدف	-11.4248
▁संरक्ष	-11.425
أجر	-11.4251
▁gerektiği	-11.4252
▁artan	-11.4252
३२	-11.4252
▁Gürcistan	-11.4253
▁تركية	-11.4254
▁(1968)	-11.4255
▁Sav	-11.4255
८०	-11.4255
▁العسكرية	-11.4255
ثلة	-11.4257
▁refa	-11.4258
▁الصناعات	-11.4258
▁والده	-11.426
▁tanıma	-11.4261
नीत	-11.4261
viper	-11.4262
▁سور	-11.4262
▁القطع	-11.4265
▁والعشر	-11.4266
▁قطعة	-11.4266
▁मलयालम	-11.4268
▁أحياء	-11.4268
इंडियन	-11.4269
▁sosyalist	-11.4269
दण्ड	-11.427
▁araştırmacı	-11.4271
▁(1980	-11.4272
▁devletleri	-11.4272
▁Cl	-11.4274
Buteo	-11.4275
ॉर्ड	-11.4276
▁صباح	-11.4278
५६	-11.4278
ممارس	-11.4278
▁खाना	-11.4278
▁تكن	-11.4279
▁आसान	-11.4279
▁الجوية	-11.428
▁gösterirler	-11.428
▁şimdi	-11.4282
▁Antoine	-11.4282
▁GB	-11.4285
meli	-11.4286
aux	-11.4287
▁gitarist	-11.4289
ılabilir	-11.429
▁Başka	-11.429
▁मास	-11.429
▁बनाये	-11.429
Jules	-11.4291
▁1800)	-11.4292
▁bitkisi	-11.4292
▁kablo	-11.4293
▁القواعد	-11.4293
▁eserini	-11.4295
▁मुद्रा	-11.4296
▁içerik	-11.4298
▁بهم	-11.4298
aret	-11.4298
▁odaklan	-11.4298
▁بقياد	-11.4299
▁MB	-11.4299
▁ilaç	-11.43
Mar	-11.43
يدو	-11.4301
▁sab	-11.4302
تكاملات	-11.4303
▁صار	-11.4303
▁योग्य	-11.4304
▁جهد	-11.4304
علاج	-11.431
▁yiyecek	-11.4311
▁IUPAC	-11.4311
Par	-11.4312
▁العراقية	-11.4313
نيس	-11.4313
roy	-11.4313
▁عليهم	-11.4315
▁okullarda	-11.4318
्डोर	-11.4318
▁gününe	-11.4319
▁भक्ति	-11.432
over	-11.4325
▁लेत	-11.4326
▁fazladır	-11.4326
▁oluş	-11.4326
▁مستوطن	-11.4329
▁مونت	-11.433
بارد	-11.4331
▁بكل	-11.4332
▁anlamları	-11.4334
▁अब्दुल	-11.4334
▁gidil	-11.4335
▁मंत्र	-11.4335
▁لكي	-11.4335
▁جاو	-11.4337
▁yaratı	-11.4337
धिकारी	-11.4337
ebir	-11.4337
▁1887	-11.4338
▁باكستان	-11.4338
▁عيد	-11.4339
808	-11.4339
▁तन्त्र	-11.434
▁yazısı	-11.4341
▁sayılan	-11.4342
enne	-11.4345
त्ति	-11.4345
lenmiştir	-11.4346
▁अश्व	-11.4348
▁الأمة	-11.4348
▁मंदिरों	-11.4348
▁المُ	-11.4349
▁शहरी	-11.4351
▁görme	-11.4351
▁गीता	-11.4353
▁Kaynak	-11.4354
काश	-11.4356
▁kaplar	-11.4357
annes	-11.4358
वाले	-11.436
غروب	-11.4361
يدل	-11.4362
320	-11.4363
▁وقع	-11.4367
▁özelliğini	-11.4367
ौरी	-11.4369
विद्	-11.4369
ebilmektedir	-11.4374
çiler	-11.4374
▁1982)	-11.4375
mple	-11.4376
▁ekseni	-11.4378
▁१९४	-11.438
▁द्वार	-11.4383
huru	-11.4383
▁جذب	-11.4384
▁धाम	-11.4385
▁النجم	-11.4385
▁yıkıl	-11.4387
त्ता	-11.4389
▁kuyruk	-11.4389
▁تمكن	-11.439
metil	-11.4392
انتهاء	-11.4396
▁alanın	-11.4397
omatik	-11.4398
هاء	-11.4398
الحرف	-11.4398
▁IF	-11.4398
▁yönde	-11.4403
▁markası	-11.4406
▁ayetinde	-11.4408
▁Marc	-11.4409
zza	-11.4409
▁öğeler	-11.4409
▁eğitimci	-11.4411
▁القاسم	-11.4412
▁ikiz	-11.4412
▁خلي	-11.4414
▁kum	-11.4417
Cl	-11.4417
▁üretiminde	-11.4419
ñ	-11.4421
▁Şampiyon	-11.4426
▁बाग	-11.4427
رئيس	-11.4429
جامع	-11.4429
▁الموسيقي	-11.443
▁رود	-11.4431
रदार	-11.4433
ياسو	-11.4433
▁ilişkisi	-11.4433
▁muz	-11.4434
▁नायक	-11.4436
out	-11.4437
▁albümler	-11.4438
▁فيل	-11.4439
كشف	-11.444
▁suresi	-11.444
▁Post	-11.4441
▁برن	-11.4445
▁تعلم	-11.4447
▁fonksiyonların	-11.4447
▁Adını	-11.4453
ोग	-11.4454
▁yansıt	-11.4454
ارتفاع	-11.4459
ضغط	-11.446
notalar	-11.4461
▁taşındı	-11.4462
▁unvan	-11.4463
▁korun	-11.4464
▁tema	-11.4465
▁كوكب	-11.4466
نشيد	-11.4466
الكواكب	-11.4467
▁أعماله	-11.4467
ष्टि	-11.4467
سيك	-11.4469
hol	-11.4469
[...]
