<unk>	0
<s>	0
</s>	0
▁	-3.66141
.	-3.70849
,	-3.85547
▁ve	-5.10421
:	-5.25254
،	-5.4063
▁في	-5.486
'	-5.49969
▁-	-5.57982
’	-5.59572
▁bir	-5.61285
▁من	-5.63638
▁و	-5.73519
-	-5.76788
▁के	-5.79661
ة	-5.85296
)	-5.86591
n	-5.94162
a	-5.99094
▁(	-5.99416
e	-6.0127
▁ال	-6.01413
▁में	-6.04115
।	-6.07593
ه	-6.16257
▁على	-6.18564
i	-6.204
▁için	-6.25267
da	-6.25669
s	-6.29005
▁है	-6.30613
▁की	-6.30706
lar	-6.34351
▁ile	-6.35247
de	-6.39554
▁|	-6.42017
...	-6.42035
ي	-6.42874
u	-6.42999
ler	-6.43312
▁ب	-6.45057
▁bu	-6.47035
▁"	-6.5059
in	-6.51727
ات	-6.53955
/	-6.54305
k	-6.55691
▁से	-6.56767
▁de	-6.60145
▁को	-6.615
m	-6.61898
ا	-6.61933
"	-6.62085
▁ل	-6.62673
nin	-6.6315
▁:	-6.63256
ها	-6.68562
▁da	-6.71337
ية	-6.73821
▁وال	-6.76659
▁“	-6.79056
ت	-6.80397
li	-6.80714
?	-6.8088
▁1	-6.8352
▁का	-6.84702
leri	-6.84875
”	-6.85872
ları	-6.86049
▁أن	-6.87329
nın	-6.88266
▁और	-6.88269
ya	-6.8895
na	-6.89504
ın	-6.90634
▁ने	-6.90917
▁olarak	-6.92014
ين	-6.92683
▁3	-6.93713
!	-6.939
▁2	-6.95209
的	-6.9576
ı	-6.98218
▁पर	-7.00446
▁Bu	-7.00469
▁/	-7.01556
▁إلى	-7.02949
ne	-7.05461
▁لل	-7.06537
▁م	-7.08256
ye	-7.09162
▁عن	-7.09332
▁çok	-7.09676
lı	-7.1017
▁olan	-7.11562
dan	-7.11645
den	-7.1206
▁ت	-7.12093
▁en	-7.12706
la	-7.14086
le	-7.15376
ी	-7.15809
si	-7.16878
d	-7.18285
▁مع	-7.18411
▁4	-7.18877
▁10	-7.18933
ों	-7.20562
;	-7.21006
t	-7.21527
▁5	-7.22665
com	-7.25052
▁ي	-7.2513
▁हैं	-7.25741
▁daha	-7.27565
ال	-7.28666
ta	-7.32971
▁بال	-7.33887
ki	-7.34841
D	-7.35527
▁#	-7.37383
▁الم	-7.38225
▁–	-7.38499
▁A	-7.39448
ك	-7.39793
z	-7.40296
A	-7.40683
r	-7.423
ون	-7.43472
ni	-7.43716
▁التي	-7.44865
l	-7.45309
▁कि	-7.45539
▁S	-7.45643
ى	-7.45961
\	-7.47684
te	-7.47763
▁6	-7.4872
▁gibi	-7.48799
ा	-7.48873
ـ	-7.49314
y	-7.49881
p	-7.50083
2	-7.5112
▁लिए	-7.5175
▁»	-7.53603
1	-7.54486
▁Türkiye	-7.54539
_	-7.55185
▁2018	-7.55948
▁ما	-7.56178
▁2019	-7.5633
an	-7.57032
نا	-7.57186
nde	-7.57451
(	-7.57538
▁एक	-7.58671
。	-7.60021
nda	-7.61359
م	-7.61764
▁،	-7.61936
اً	-7.62067
▁her	-7.62391
un	-7.62574
▁भी	-7.62854
▁0	-7.63883
▁kadar	-7.64312
3	-7.644
▁7	-7.64611
▁ا	-7.64827
▁15	-7.65869
▁ise	-7.68957
er	-7.69357
▁yeni	-7.69783
▁لا	-7.70544
هم	-7.71368
ma	-7.71903
lik	-7.72038
▁أ	-7.72382
▁2017	-7.72721
sı	-7.7286
▁12	-7.73356
▁in	-7.73381
K	-7.73633
▁>	-7.74109
▁TL	-7.74511
▁20	-7.75046
▁कर	-7.75312
en	-7.75667
S	-7.75755
े	-7.75981
▁var	-7.76021
▁sonra	-7.76109
▁8	-7.76319
▁इस	-7.77533
lerin	-7.78156
c	-7.78397
▁ne	-7.79085
ların	-7.79344
f	-7.79875
▁tarafından	-7.80208
nı	-7.81441
o	-7.82553
b	-7.83038
▁2016	-7.83139
dir	-7.835
B	-7.83526
▁اليوم	-7.84006
4	-7.84505
न	-7.84762
▁19	-7.85967
▁G	-7.87022
▁أو	-7.88731
▁yer	-7.88913
▁14	-7.89185
▁18	-7.89785
▁'	-7.89811
▁13	-7.90102
▁iyi	-7.90251
▁11	-7.90309
di	-7.9075
▁ilk	-7.9123
yi	-7.91233
ب	-7.91469
▁هذا	-7.917
C	-7.92237
T	-7.92728
▁16	-7.92963
、	-7.93401
ने	-7.9362
▁B	-7.95103
▁K	-7.95943
▁9	-7.95994
▁E	-7.95994
▁किया	-7.96186
▁بعد	-7.96469
lu	-7.96621
yla	-7.96683
▁PM	-7.96719
]	-7.96807
▁büyük	-7.97053
▁göre	-7.98364
▁فى	-7.98496
وا	-7.98762
yı	-7.99321
▁नहीं	-8.00064
▁الله	-8.00104
▁हो	-8.00124
5	-8.00696
me	-8.00793
▁son	-8.00987
▁24	-8.01048
▁C	-8.0106
▁T	-8.01318
▁كل	-8.0133
▁o	-8.01522
▁الذي	-8.01582
tan	-8.01658
▁ان	-8.02026
▁«	-8.02162
larını	-8.02236
G	-8.02697
▁İstanbul	-8.03273
▁‘	-8.03966
al	-8.04268
▁zaman	-8.04471
▁Başkanı	-8.04742
▁17	-8.0478
ल	-8.04914
▁önce	-8.05847
ca	-8.06358
▁Bir	-8.06638
▁خلال	-8.07488
sa	-8.0756
▁ن	-8.07608
lere	-8.077
▁ilgili	-8.07873
▁ki	-8.07907
x	-8.0795
▁[	-8.08358
و	-8.08624
g	-8.08734
E	-8.09691
▁Son	-8.09744
क	-8.09745
ce	-8.09879
dır	-8.09881
lara	-8.10156
▁izle	-8.10581
▁D	-8.11067
▁...	-8.11299
://	-8.11326
▁هذه	-8.11642
ten	-8.11671
▁tüm	-8.12102
▁ही	-8.12222
▁olduğu	-8.12722
|	-8.12983
▁بين	-8.13082
▁M	-8.13252
lerini	-8.13269
▁साथ	-8.13998
ان	-8.14111
▁devam	-8.14202
yle	-8.15024
र	-8.15239
▁गया	-8.15319
▁21	-8.15954
M	-8.16063
▁2020	-8.16063
▁gün	-8.16178
▁30	-8.1623
h	-8.16365
6	-8.17283
▁veya	-8.1741
▁&	-8.18493
▁ya	-8.18648
▁23	-8.18756
se	-8.1893
▁O	-8.19188
▁22	-8.19359
▁şekilde	-8.19874
▁yıl	-8.20625
▁a	-8.21098
7	-8.21929
lık	-8.22538
ن	-8.23082
8	-8.2401
▁2015	-8.24016
▁F	-8.24343
▁bin	-8.25294
▁n	-8.25416
▁ama	-8.26223
▁هو	-8.26829
ndan	-8.26866
▁oldu	-8.27543
ti	-8.27753
ar	-8.28133
▁olduğunu	-8.28353
ing	-8.28456
▁arasında	-8.28532
v	-8.28618
ü	-8.2875
▁iş	-8.28937
ًا	-8.29218
▁Türk	-8.29782
▁25	-8.29876
nun	-8.29896
▁لم	-8.2995
ته	-8.30074
▁dedi	-8.30112
F	-8.30247
▁2014	-8.30433
▁करने	-8.30483
د	-8.3139
9	-8.31612
म	-8.32629
I	-8.32716
ci	-8.32925
nden	-8.33692
▁Yeni	-8.3374
N	-8.34079
▁En	-8.34136
▁وت	-8.34227
▁कहा	-8.34667
P	-8.35136
▁s	-8.3552
▁وي	-8.36752
▁güzel	-8.37295
س	-8.37691
▁iki	-8.37794
▁الى	-8.37835
ini	-8.38565
▁..	-8.39033
10	-8.39196
▁gelen	-8.39197
▁तो	-8.39227
▁यह	-8.39291
▁था	-8.39346
▁birlikte	-8.40666
在	-8.40967
▁m	-8.41509
▁etti	-8.41855
=	-8.42054
▁önemli	-8.42256
ر	-8.42354
w	-8.42418
▁k	-8.42649
▁تم	-8.42771
▁AM	-8.43215
▁إن	-8.4331
▁بن	-8.43374
▁yapılan	-8.43739
im	-8.43836
▁of	-8.44327
ine	-8.44425
mi	-8.44518
+	-8.44826
▁مصر	-8.44926
at	-8.45049
▁on	-8.45596
】【	-8.4577
اء	-8.45792
ना	-8.45927
▁وا	-8.46045
▁içinde	-8.46126
▁كما	-8.46221
daki	-8.46354
▁बाद	-8.46374
▁News	-8.46423
▁fazla	-8.46846
▁hem	-8.46884
▁حيث	-8.47568
是	-8.47765
▁değil	-8.48485
▁ف	-8.48652
0	-8.4874
Y	-8.48754
▁diye	-8.4877
▁karşı	-8.48974
H	-8.49053
▁su	-8.49065
»	-8.49108
स	-8.49149
▁alan	-8.49743
त	-8.49792
▁bulunan	-8.50131
人	-8.50134
larda	-8.50169
▁to	-8.50311
lerde	-8.50834
▁P	-8.50944
▁Genel	-8.50965
了	-8.51016
ir	-8.51093
▁sahip	-8.51194
▁قبل	-8.5133
▁2013	-8.51409
▁01	-8.51961
▁eden	-8.51985
一	-8.52193
▁ay	-8.52237
▁H	-8.5224
कर	-8.52362
ş	-8.52509
R	-8.52553
▁محمد	-8.52718
▁özel	-8.53497
有	-8.53522
man	-8.5376
larının	-8.53938
ed	-8.54556
의	-8.54936
L	-8.54991
um	-8.55166
▁رئيس	-8.55517
▁yok	-8.55602
▁जा	-8.55738
el	-8.56818
▁hakkında	-8.56966
▁I	-8.57226
▁the	-8.57294
ل	-8.57413
ع	-8.57693
▁عدد	-8.57895
▁nasıl	-8.57986
▁at	-8.58071
ف	-8.58177
ता	-8.58291
▁aynı	-8.58434
이	-8.58441
▁Haber	-8.58459
▁كان	-8.59123
▁100	-8.59267
▁diğer	-8.59506
▁r	-8.60029
lerine	-8.60162
▁kişi	-8.60448
▁mi	-8.6049
▁R	-8.60528
▁olmak	-8.60703
▁e	-8.60757
不	-8.60871
▁2012	-8.60901
▁tek	-8.60913
W	-8.61086
▁g	-8.61152
▁saat	-8.6123
www	-8.61459
larına	-8.61597
▁दिया	-8.61805
大	-8.6181
▁05	-8.62177
▁09	-8.62381
İ	-8.62662
▁الا	-8.62814
▁وم	-8.63124
▁العام	-8.63223
▁farklı	-8.63278
تها	-8.63286
ri	-8.63779
il	-8.64288
▁N	-8.6449
▁28	-8.64756
V	-8.6499
re	-8.65339
▁is	-8.65351
▁रहे	-8.65402
▁علي	-8.65667
▁yüksek	-8.6591
يا	-8.65912
을	-8.65979
O	-8.66685
▁27	-8.66787
▁Belediye	-8.66836
mak	-8.67018
ं	-8.6706
▁08	-8.67061
▁ardından	-8.67285
▁الت	-8.67359
▁hizmet	-8.67501
miz	-8.67551
deki	-8.67634
ır	-8.67748
▁आप	-8.67825
▁هي	-8.67932
▁kez	-8.67942
▁by	-8.67988
▁Ankara	-8.68075
▁l	-8.68095
▁وأ	-8.68336
▁अपने	-8.6847
▁तक	-8.68578
▁الأ	-8.68888
▁قد	-8.6892
▁Dr	-8.68927
▁ذلك	-8.69621
▁हुए	-8.70092
▁موقع	-8.70222
▁29	-8.70337
▁+	-8.70347
▁50	-8.70447
tir	-8.70702
ün	-8.70909
▁02	-8.71032
su	-8.71187
▁يوم	-8.71398
▁06	-8.71507
▁and	-8.71662
▁26	-8.71672
tır	-8.7214
us	-8.72964
▁Ekim	-8.7299
▁Ve	-8.72996
▁03	-8.73062
▁Sayfa	-8.73093
▁عام	-8.7316
▁yorum	-8.73247
▁रही	-8.73384
lerinin	-8.73855
ो	-8.74432
dı	-8.74636
▁سي	-8.74835
▁)	-8.75265
ट	-8.75618
▁uygun	-8.76307
▁07	-8.76397
▁1.	-8.7644
oğlu	-8.76465
▁yılında	-8.76494
▁Y	-8.76527
▁الحلقة	-8.76618
11	-8.76682
्स	-8.7675
ra	-8.76793
▁haber	-8.77125
▁04	-8.77126
15	-8.772
▁Mart	-8.7729
▁kendi	-8.77376
▁sadece	-8.77397
16	-8.77529
▁रहा	-8.77591
द	-8.7795
▁U	-8.7815
▁الرئيسية	-8.78405
12	-8.78491
▁العالم	-8.78503
▁رقم	-8.7859
ित	-8.78815
du	-8.79106
▁bilgi	-8.79253
؟	-8.79255
▁رد	-8.79755
18	-8.79773
lardan	-8.7982
▁*	-8.80024
19	-8.80196
▁Mayıs	-8.80234
ق	-8.80275
▁ben	-8.8034
▁para	-8.8042
cı	-8.80492
▁=	-8.80536
▁üzere	-8.80568
▁üzerine	-8.80757
▁V	-8.80876
▁Temmuz	-8.809
#	-8.81016
يه	-8.81087
▁al	-8.81224
iz	-8.81443
▁olacak	-8.81531
▁2011	-8.81551
‬	-8.81667
ما	-8.81807
Z	-8.81835
▁आ	-8.82043
20	-8.82083
8%	-8.82289
▁an	-8.82316
mız	-8.82365
에	-8.82395
我	-8.82516
▁ك	-8.82635
▁t	-8.82665
Ş	-8.82737
lan	-8.82866
▁Ne	-8.82928
X	-8.8325
▁गई	-8.83284
▁Etiketler	-8.833
▁حول	-8.83312
▁أي	-8.83819
siz	-8.83855
▁غير	-8.83896
j	-8.84283
▁Haberleri	-8.84296
▁i	-8.84316
th	-8.84407
网	-8.84483
▁والم	-8.84503
▁Hindi	-8.84694
▁içerisinde	-8.85045
U	-8.85091
▁http	-8.8511
▁The	-8.85113
lerden	-8.85347
es	-8.85501
▁Parti	-8.85512
>	-8.85591
▁\	-8.85773
▁L	-8.85862
▁منذ	-8.86012
ز	-8.86091
ç	-8.86117
▁yaptığı	-8.86205
▁Eğitim	-8.86339
▁حتى	-8.86631
▁İl	-8.8667
▁إ	-8.86684
▁पुलिस	-8.86724
","	-8.8701
▁doğru	-8.87128
ص	-8.8733
larında	-8.87365
▁söyledi	-8.876
▁günü	-8.87735
▁yüzde	-8.87835
年	-8.87949
▁z	-8.87956
▁Başkan	-8.88053
▁Belediyesi	-8.88147
ش	-8.88197
lü	-8.88238
▁biri	-8.88266
ka	-8.88345
▁Ocak	-8.88688
▁जो	-8.88696
ken	-8.88709
▁yapan	-8.88713
30	-8.88844
▁Su	-8.88968
17	-8.89096
▁destek	-8.89187
▁موضوع	-8.89535
ــ	-8.89648
▁Nisan	-8.8998
▁Her	-8.90012
▁العربية	-8.90024
प	-8.90163
".	-8.9029
▁·	-8.90294
ik	-8.90334
▁ifade	-8.90544
كم	-8.90583
أ	-8.90936
ını	-8.91055
ak	-8.91371
▁2.	-8.91508
▁ع	-8.91831
13	-8.9203
ब	-8.92121
ई	-8.92155
ियों	-8.92471
lerinden	-8.92574
▁Al	-8.92581
▁آخر	-8.92598
▁geldi	-8.92658
▁न	-8.92802
mış	-8.92878
%	-8.93172
ح	-8.93212
▁İş	-8.93301
lama	-8.93377
14	-8.93419
▁व	-8.93456
▁أنه	-8.9346
acak	-8.93635
▁şey	-8.93832
ur	-8.93901
ج	-8.93915
▁milyon	-8.93968
▁ABD	-8.94006
▁السعودية	-8.94014
han	-8.94042
▁Ana	-8.9406
arak	-8.94273
08	-8.94345
上	-8.94359
lerle	-8.94383
▁ev	-8.94458
▁अब	-8.94462
▁b	-8.94492
▁उस	-8.94515
व	-8.94527
­	-8.94528
niz	-8.94545
tr	-8.94583
▁üzerinde	-8.94743
▁شركة	-8.94994
▁Haziran	-8.95118
▁Home	-8.95209
▁عبد	-8.95449
ge	-8.9558
▁31	-8.95764
▁ब	-8.95826
sız	-8.95854
ım	-8.9592
ّ	-8.96152
07	-8.96487
▁Avrupa	-8.96521
▁bile	-8.9666
sini	-8.96743
▁2010	-8.97063
tı	-8.9717
net	-8.97331
▁جميع	-8.97414
▁Kasım	-8.97416
is	-8.97454
▁olması	-8.97493
▁az	-8.97575
▁दी	-8.97599
▁Eylül	-8.97626
▁Üniversitesi	-8.97867
▁ये	-8.97903
▁مسلسل	-8.98025
▁Erdoğan	-8.98249
▁~	-8.98344
▁eğitim	-8.98387
▁açık	-8.98628
▁Şubat	-8.98633
Bu	-8.98956
▁पहले	-8.99022
ग	-8.9904
it	-8.99118
تي	-8.99188
sin	-8.99194
▁c	-8.99342
▁थी	-8.99577
▁El	-8.99653
▁dikkat	-8.99654
▁अ	-8.99708
miş	-8.99742
be	-9.00084
▁Haberler	-9.00191
يات	-9.00327
▁mı	-9.00359
▁हम	-9.00467
ور	-9.00469
▁ediyor	-9.00599
▁x	-9.00733
on	-9.00761
▁الع	-9.01007
▁‪	-9.01077
ıyor	-9.01134
▁hafta	-9.01159
),	-9.01289
▁el	-9.01502
or	-9.01588
▁escort	-9.01617
▁•	-9.01666
▁Spor	-9.01683
ُ	-9.01834
lerinde	-9.01955
larla	-9.02328
ज	-9.02586
▁भारत	-9.02646
▁Ali	-9.027
st	-9.02809
ve	-9.0283
nız	-9.03153
▁Türkçe	-9.03164
▁neden	-9.03319
सी	-9.03365
J	-9.03381
िंग	-9.03457
▁W	-9.03462
21	-9.0366
▁olur	-9.04199
▁Aralık	-9.04324
▁Yorum	-9.04339
के	-9.04543
▁şu	-9.04622
▁uzun	-9.04824
中	-9.04985
▁وفي	-9.05103
▁उन्होंने	-9.05139
▁ولا	-9.05162
▁أكثر	-9.05204
24	-9.05326
▁Güncelleme	-9.05388
▁गए	-9.05442
ह	-9.0557
▁Escort	-9.05616
id	-9.05691
ام	-9.0577
▁العمل	-9.05886
▁40	-9.05899
▁له	-9.05956
▁Konu	-9.0596
▁عليه	-9.0608
▁ziyaret	-9.06098
▁بعض	-9.06153
▁başka	-9.06203
▁edilen	-9.06227
▁عبر	-9.06235
uz	-9.06266
▁yakın	-9.06538
▁लेकिन	-9.06564
▁AK	-9.06683
ط	-9.06684
▁konusunda	-9.06692
▁वाले	-9.06707
▁ص	-9.06759
▁يمكن	-9.06908
ol	-9.06909
ip	-9.06946
▁olsun	-9.07008
sını	-9.07061
▁ست	-9.07083
▁ortaya	-9.07346
لا	-9.07632
▁adet	-9.07686
ير	-9.07902
ني	-9.08019
▁İzmir	-9.0805
ran	-9.08202
는	-9.0836
&	-9.08411
▁for	-9.08603
를	-9.08685
▁Co	-9.08721
ması	-9.08817
▁Tüm	-9.08818
▁birçok	-9.08932
▁सरकार	-9.08946
▁kısa	-9.08963
▁Merkezi	-9.09049
larından	-9.09149
가	-9.09279
ul	-9.09354
▁pm	-9.09418
غ	-9.09422
▁No	-9.09478
▁مشاهدة	-9.09494
ए	-9.09508
ha	-9.09715
▁برنامج	-9.09805
03	-9.10187
▁Ağustos	-9.10223
22	-9.10224
▁?	-9.10299
▁kadın	-9.10334
▁sıra	-9.10432
05	-9.10467
co	-9.10753
▁2009	-9.10879
dur	-9.10894
▁hiç	-9.10954
في	-9.11227
▁कुछ	-9.11411
▁ürün	-9.11462
to	-9.11475
ें	-9.11481
▁او	-9.11504
▁الصين	-9.11602
▁تحميل	-9.11748
▁süre	-9.11846
▁Özel	-9.11898
▁ومن	-9.11935
▁$	-9.11945
▁صور	-9.11963
和	-9.11971
luk	-9.11974
▁başladı	-9.12079
▁yerine	-9.12154
▁Dünya	-9.12259
nu	-9.12287
▁bulundu	-9.12379
▁geçen	-9.12455
▁लोगों	-9.12536
▁المتحدة	-9.12552
▁nedeniyle	-9.12564
▁थे	-9.12574
▁km	-9.12682
تين	-9.12712
“	-9.12716
":"	-9.12896
ते	-9.12923
▁करते	-9.13368
日	-9.13383
▁وهو	-9.13448
▁verdi	-9.13463
ecek	-9.13774
▁مجلس	-9.13797
spor	-9.13801
ay	-9.13917
▁الأول	-9.1401
▁bazı	-9.1417
▁दिल्ली	-9.14305
▁Daha	-9.14456
▁بشكل	-9.14513
▁%	-9.14528
ار	-9.14553
▁X	-9.14593
▁size	-9.14682
万	-9.14748
▁Mehmet	-9.14908
▁Ben	-9.14957
▁kabul	-9.15021
ch	-9.15052
▁अपनी	-9.15086
你	-9.15096
▁am	-9.15117
▁الموضوع	-9.15172
lığı	-9.15188
▁tam	-9.15213
inde	-9.15282
▁gece	-9.15461
▁होने	-9.15527
▁Tarihi	-9.15937
▁بها	-9.15999
▁सिंह	-9.1607
▁عمل	-9.16095
bet	-9.16175
▁عند	-9.16428
09	-9.16485
liği	-9.16503
रा	-9.16551
bi	-9.16598
▁kolay	-9.16968
▁konuştu	-9.17304
▁Ürün	-9.17314
ter	-9.17344
▁Anasayfa	-9.17344
et	-9.17491
ına	-9.17564
▁göz	-9.17716
ke	-9.17838
▁आज	-9.17842
▁kat	-9.17977
▁dakika	-9.18242
▁geri	-9.18305
▁bi	-9.18418
ba	-9.18592
▁Ancak	-9.19012
▁इन	-9.19129
ek	-9.19175
▁لي	-9.19177
▁كانت	-9.19267
sine	-9.19324
▁olabilir	-9.19371
▁قال	-9.19438
▁üzerinden	-9.19455
▁karar	-9.19531
▁De	-9.19548
▁f	-9.19586
sel	-9.19649
▁وقال	-9.19751
▁वह	-9.1977
*	-9.19805
▁VE	-9.19827
▁sağlık	-9.19836
好	-9.19897
Ç	-9.19974
▁ح	-9.19981
▁Müdürlüğü	-9.20035
▁Re	-9.20059
▁Çin	-9.20198
ला	-9.20218
ض	-9.20441
▁La	-9.20475
▁اخبار	-9.206
到	-9.20609
小	-9.20757
▁tercih	-9.20853
▁Z	-9.20935
▁ancak	-9.21053
▁insan	-9.21066
▁Ak	-9.21192
▁با	-9.21367
▁mu	-9.21437
yan	-9.21494
يل	-9.22018
▁جديد	-9.2203
01	-9.22056
▁हुआ	-9.221
ड	-9.22109
▁दो	-9.22136
gi	-9.22155
▁बताया	-9.22243
اد	-9.22356
▁3.	-9.22484
▁HD	-9.22607
mek	-9.22719
▁الرئيس	-9.22726
▁bütün	-9.22776
▁yaptı	-9.22791
री	-9.22798
ür	-9.22804
▁bağlı	-9.22838
inin	-9.22875
▁डॉलर	-9.22879
▁veren	-9.2297
▁hava	-9.23081
▁साल	-9.23184
▁60	-9.23203
do	-9.23416
▁sosyal	-9.23638
▁جديدة	-9.2367
▁وذلك	-9.23895
ِ	-9.23979
ი	-9.23993
▁لها	-9.24024
▁et	-9.24104
▁yol	-9.24263
▁وب	-9.24292
▁الثلاثاء	-9.24297
로	-9.24305
▁yaz	-9.24457
iyor	-9.24502
▁इसके	-9.24506
▁चीन	-9.24527
▁bugün	-9.24615
▁kapsamında	-9.24617
▁फिल्म	-9.24712
▁etmek	-9.24801
ول	-9.24853
▁In	-9.24858
▁हुई	-9.24891
▁çalışma	-9.24895
▁kullan	-9.24903
ती	-9.2495
06	-9.24951
ि	-9.24985
▁العامة	-9.24988
▁فيها	-9.25
▁araç	-9.25058
▁ج	-9.25246
▁وزير	-9.25288
26	-9.25625
्	-9.25695
▁d	-9.25706
▁Ev	-9.25884
▁बार	-9.25971
50	-9.26238
25	-9.2626
▁Next	-9.26262
▁tarihinde	-9.26416
▁रूप	-9.26452
▁الف	-9.26503
▁مثل	-9.26517
▁للم	-9.266
▁oldukça	-9.26652
▁د	-9.26728
▁zamanda	-9.2673
▁أخبار	-9.26829
ث	-9.26972
▁oyun	-9.27194
▁eski	-9.27496
ს	-9.27711
▁be	-9.27714
ओं	-9.27719
한	-9.27773
▁Ç	-9.27782
▁Kadın	-9.27861
▁ek	-9.27947
ad	-9.27964
▁सबसे	-9.2806
erek	-9.28244
tik	-9.283
~	-9.28378
▁İ	-9.2845
▁artık	-9.28455
▁edildi	-9.28532
▁yine	-9.28617
▁وزارة	-9.28748
▁https	-9.28765
▁س	-9.28788
▁الجمعة	-9.28902
▁الإ	-9.28953
▁कम	-9.29104
▁aldı	-9.2913
▁يا	-9.29158
وي	-9.29175
02	-9.29282
▁benim	-9.29321
▁dünya	-9.2947
▁p	-9.29584
▁böyle	-9.29614
▁indir	-9.29657
▁CHP	-9.2969
ذ	-9.2988
san	-9.30031
تك	-9.30072
yu	-9.30247
27	-9.30267
▁konusu	-9.303
▁2008	-9.30344
▁altında	-9.3036
sal	-9.30431
▁الخميس	-9.30469
▁ولكن	-9.3056
▁लेकर	-9.30578
नी	-9.30621
▁tarihi	-9.30728
mm	-9.30758
▁Allah	-9.30774
▁J	-9.30904
am	-9.30916
q	-9.30992
▁satış	-9.31008
▁hemen	-9.31207
093	-9.3122
▁الن	-9.31299
▁Bursa	-9.31307
▁कोई	-9.31454
▁مليون	-9.31626
بر	-9.31678
श	-9.31783
会	-9.31813
िक	-9.31877
은	-9.31958
▁السبت	-9.32034
▁الثاني	-9.32056
▁الساعة	-9.32218
▁करें	-9.32313
▁yönelik	-9.32343
天	-9.32366
▁konu	-9.3237
▁Kurulu	-9.32481
▁canlı	-9.32725
▁सकते	-9.33047
出	-9.3307
▁çıktı	-9.33071
31	-9.33078
▁घर	-9.33142
▁ait	-9.33158
▁söz	-9.33278
▁वि	-9.3332
▁देश	-9.3349
za	-9.33704
َ	-9.33723
▁Çok	-9.33725
▁مدينة	-9.33809
len	-9.33835
ly	-9.33843
▁ثم	-9.33847
▁görev	-9.3393
▁المشاركة	-9.33971
▁çocuk	-9.34046
▁وقد	-9.34076
sinde	-9.34151
▁Ba	-9.3417
▁fiyat	-9.34219
lo	-9.34274
▁iç	-9.34307
▁تاريخ	-9.34394
اني	-9.34419
▁vardır	-9.34424
▁İçin	-9.34482
▁عرض	-9.34485
çi	-9.3454
ga	-9.34625
▁İlk	-9.34701
▁Mustafa	-9.34827
▁TV	-9.34831
23	-9.34926
آ	-9.34962
就	-9.34991
▁uçak	-9.3512
▁Ay	-9.35308
:00	-9.3538
▁Er	-9.35456
月	-9.35474
▁दिन	-9.35522
▁Forum	-9.35609
092	-9.35654
▁الب	-9.35702
LER	-9.35804
28	-9.35817
."	-9.35942
य	-9.36111
وب	-9.36207
▁به	-9.36315
▁या	-9.36452
▁Sağlık	-9.3646
▁üst	-9.36503
▁لكن	-9.36522
45	-9.36523
LAR	-9.36617
ம்	-9.36626
وم	-9.36678
도	-9.36723
е	-9.37027
="	-9.37038
der	-9.37099
29	-9.37104
▁almak	-9.37315
▁ara	-9.37446
kan	-9.37483
"،	-9.37565
▁film	-9.37663
子	-9.37666
خ	-9.37778
▁الجديد	-9.37796
▁yapmak	-9.378
▁सभी	-9.37803
고	-9.3791
▁الآن	-9.38008
▁500	-9.38035
▁क्या	-9.38056
▁çıkan	-9.38166
▁Milli	-9.38168
▁hızlı	-9.38216
▁बात	-9.38332
▁ले	-9.38506
▁द्वारा	-9.38548
▁y	-9.3862
▁Büyükşehir	-9.38771
bu	-9.38783
ली	-9.38848
ında	-9.38852
▁teşekkür	-9.38882
▁समय	-9.38968
▁هناك	-9.39059
▁Hotel	-9.39105
▁الأربعاء	-9.39425
ू	-9.39525
يم	-9.39541
▁بم	-9.39629
DA	-9.39695
新	-9.39793
▁Öz	-9.39825
▁telefon	-9.39863
▁Saat	-9.39959
88	-9.40024
abilirsiniz	-9.40037
▁يكون	-9.40083
▁يتم	-9.40102
要	-9.40116
cu	-9.40152
▁प	-9.40255
ٍ	-9.40292
▁أمام	-9.40306
▁internet	-9.40394
no	-9.40547
▁yapılacak	-9.40555
▁कई	-9.40574
▁yap	-9.40925
▁gerçek	-9.40977
▁zor	-9.41
▁yanı	-9.41078
ko	-9.41119
▁Sosyal	-9.41159
▁هل	-9.4127
Lİ	-9.4136
ber	-9.41384
hi	-9.41394
▁Bakanlığı	-9.41593
tu	-9.41803
▁biz	-9.41824
Ü	-9.41846
▁olup	-9.41947
▁(1)	-9.41995
▁Antalya	-9.42032
▁sahibi	-9.42034
▁Sa	-9.42183
▁أول	-9.42303
▁الس	-9.42305
ıp	-9.4236
▁नाम	-9.4238
abilir	-9.42407
.”	-9.42457
用	-9.42472
来	-9.42504
ود	-9.42689
▁küçük	-9.42754
mesi	-9.42763
▁Ar	-9.42946
▁عليها	-9.43175
▁yardım	-9.43201
▁Na	-9.43293
▁dolayı	-9.43341
▁Ayrıca	-9.43433
下	-9.43643
[	-9.43768
▁مركز	-9.43815
▁<	-9.43869
时	-9.43904
يف	-9.43945
maya	-9.43948
fa	-9.44052
▁yeniden	-9.44131
▁Tek	-9.44232
▁sayesinde	-9.44457
▁فقط	-9.44462
32	-9.44493
िया	-9.44528
▁spor	-9.44558
为	-9.44577
zi	-9.44672
▁00	-9.44781
▁cm	-9.44883
▁Anadolu	-9.44929
ْ	-9.4495
▁Toptan	-9.45096
▁काम	-9.45166
sın	-9.45191
▁الماضي	-9.4542
ö	-9.45452
▁can	-9.45456
من	-9.45508
os	-9.45616
go	-9.4562
去	-9.45664
sına	-9.45722
▁الحكومة	-9.45728
▁بسبب	-9.4573
▁لت	-9.45763
▁ذات	-9.45816
▁ön	-9.45822
▁uygulama	-9.45858
▁Article	-9.45969
00	-9.46066
▁İlçe	-9.46128
▁السابق	-9.46182
اع	-9.46255
▁bunu	-9.46298
▁Ahmet	-9.46299
▁الأحد	-9.46377
mı	-9.46382
▁takip	-9.46644
▁hazır	-9.46693
iye	-9.46864
ئ	-9.46881
▁çıkar	-9.47032
家	-9.47075
地	-9.47119
وس	-9.4717
▁gereken	-9.47204
kar	-9.47218
LI	-9.47289
▁il	-9.47343
ु	-9.47428
▁است	-9.47445
▁عالية	-9.47466
▁Tarih	-9.47479
▁toplam	-9.47558
DE	-9.47573
▁الخاصة	-9.47696
▁gerek	-9.47702
▁kar	-9.47717
▁Nasıl	-9.4775
Q	-9.47896
leme	-9.47936
▁Otel	-9.47948
▁Ama	-9.47954
çe	-9.48053
ა	-9.48157
لي	-9.48286
▁ضد	-9.48389
▁kaç	-9.48521
60	-9.48588
▁लिया	-9.48606
▁داخل	-9.487
▁”	-9.48735
▁otel	-9.48789
▁kaliteli	-9.4885
▁أحمد	-9.48869
▁ikinci	-9.48901
▁طريق	-9.48911
▁hiçbir	-9.48998
水	-9.49049
▁ederek	-9.49254
يس	-9.493
▁Müdürü	-9.49343
nızı	-9.4953
▁شهر	-9.4955
▁بي	-9.49553
▁satın	-9.49587
▁Kara	-9.49631
min	-9.49671
▁مجموعة	-9.49673
也	-9.49701
▁ücretsiz	-9.49716
फ	-9.49759
▁düzenlenen	-9.49804
▁sene	-9.49874
40	-9.50098
MA	-9.50307
▁مدير	-9.50457
▁دون	-9.50464
▁العربي	-9.50539
▁Çocuk	-9.50605
org	-9.50661
▁Bakanı	-9.50687
ktan	-9.5075
▁tekrar	-9.50755
▁hareket	-9.508
▁Do	-9.50848
▁biraz	-9.5095
▁والتي	-9.51027
دي	-9.51099
▁Bölüm	-9.51108
بي	-9.51228
▁ödeme	-9.51324
▁iletişim	-9.51398
▁pek	-9.5153
▁hangi	-9.51719
▁Film	-9.51752
ം	-9.51811
▁أحد	-9.51842
▁टीम	-9.51906
▁herhangi	-9.51966
İN	-9.52022
】	-9.52057
▁kredi	-9.52179
기	-9.52195
ý	-9.52203
▁भारतीय	-9.52261
▁!	-9.52274
▁चुनाव	-9.52372
ست	-9.52525
▁üç	-9.52605
▁الذين	-9.52624
▁Prof	-9.52657
리	-9.52699
0930	-9.52736
▁sayfa	-9.52843
▁sık	-9.52859
▁yaklaşık	-9.52891
▁www	-9.52913
sh	-9.53041
▁arama	-9.53113
▁ilişkin	-9.53155
▁32	-9.5329
▁geliyor	-9.53351
▁yardımcı	-9.53384
▁ba	-9.5341
▁किसी	-9.53422
▁الق	-9.53425
90	-9.53458
يت	-9.53461
▁शुरू	-9.535
▁الوقت	-9.5363
▁जब	-9.53675
▁elde	-9.53715
▁fiyatları	-9.53817
▁ettiği	-9.53822
▁cevap	-9.53935
▁kontrol	-9.54104
▁İşte	-9.5414
▁بواسطة	-9.54147
▁الشيخ	-9.54182
va	-9.543
▁فيه	-9.54359
▁الصفحة	-9.54392
▁burada	-9.54468
▁ka	-9.54473
▁प्रदेश	-9.54489
▁होगा	-9.5449
▁स	-9.5462
▁geç	-9.54638
▁الأولى	-9.54659
▁mücadele	-9.54714
▁ana	-9.54725
▁والت	-9.54759
▁الجديدة	-9.54811
▁اي	-9.54816
▁genç	-9.54834
▁Me	-9.54898
他	-9.54911
वा	-9.54985
▁ش	-9.55024
nizi	-9.55177
▁أكتوبر	-9.55329
▁sistemi	-9.55371
▁ألف	-9.5544
▁لن	-9.55454
▁تحت	-9.55477
can	-9.55503
maktadır	-9.55734
as	-9.55762
ndeki	-9.55843
а	-9.55936
men	-9.55958
ğ	-9.55994
؛	-9.56004
车	-9.56009
fi	-9.5608
▁video	-9.56121
▁तरह	-9.56142
▁çeşitli	-9.56155
▁دولار	-9.56183
▁बारे	-9.56197
▁ए	-9.56319
▁الوطني	-9.56355
▁Cumhurbaşkanı	-9.5636
);	-9.56368
说	-9.56399
▁صحيفة	-9.56454
iş	-9.56471
if	-9.56528
▁Biz	-9.56562
sun	-9.56755
▁بأن	-9.56839
▁القاهرة	-9.56857
▁oluyor	-9.56886
▁مارس	-9.56927
▁kan	-9.56943
▁özellikle	-9.56955
▁Devlet	-9.56975
▁Büyük	-9.56981
â	-9.57007
▁म	-9.5705
▁خاصة	-9.57112
title	-9.57229
▁الاتحاد	-9.57244
▁İyi	-9.57266
多	-9.57267
▁بل	-9.57344
▁sonucu	-9.57359
ist	-9.57388
▁Yaz	-9.5739
▁Gül	-9.57395
▁हर	-9.57428
nün	-9.57431
지	-9.57519
▁rağmen	-9.5754
▁आपको	-9.57664
sinin	-9.57687
▁açıklama	-9.57729
▁أخرى	-9.57782
tur	-9.57811
çı	-9.57824
▁adına	-9.57841
▁yayın	-9.57968
▁durum	-9.58013
▁الان	-9.58103
▁parça	-9.58143
▁bahis	-9.58254
▁IST	-9.58255
का	-9.58415
▁سعر	-9.58425
▁Google	-9.58564
▁USD	-9.58659
▁जाने	-9.5868
▁teslim	-9.58738
▁belediye	-9.58758
▁alma	-9.58854
▁उनके	-9.58875
▁أبو	-9.58897
▁iddia	-9.58936
▁ilgi	-9.5902
之	-9.59031
html	-9.59063
▁दौरान	-9.59063
▁By	-9.59072
▁नई	-9.59088
unu	-9.59285
▁güvenlik	-9.59328
▁الشركة	-9.5933
▁bizim	-9.59337
▁@	-9.59357
▁genel	-9.59542
▁مباراة	-9.59558
▁yemek	-9.59604
▁الدولي	-9.59663
ia	-9.597
▁v	-9.59709
فر	-9.59742
av	-9.59787
▁أفضل	-9.59888
三	-9.59905
▁إذا	-9.59907
▁حالة	-9.60061
과	-9.60086
▁imza	-9.60122
▁ayrı	-9.60142
▁{	-9.60185
▁Beşiktaş	-9.60228
च	-9.60247
▁मोदी	-9.60294
▁लोग	-9.60306
▁فيلم	-9.60314
▁مايو	-9.60383
▁200	-9.60451
ül	-9.60503
▁teknik	-9.60506
04	-9.60683
ation	-9.60703
▁المنتجات	-9.6071
▁dizi	-9.60752
对	-9.60782
ण	-9.60872
▁gelir	-9.60902
मा	-9.60909
▁Bunun	-9.60954
▁منطقة	-9.61025
▁Ya	-9.61099
▁olma	-9.61112
▁وهي	-9.61125
▁Mahallesi	-9.61127
70	-9.61206
▁35	-9.61278
الم	-9.61316
▁ucuz	-9.61544
اق	-9.61619
▁يناير	-9.61652
▁ilçesinde	-9.61787
▁anda	-9.61798
▁फिर	-9.61798
▁वीडियो	-9.61863
▁نيوز	-9.62063
▁Kültür	-9.6215
▁dile	-9.62174
▁puan	-9.62338
▁kişinin	-9.62434
▁polis	-9.62457
▁لك	-9.62461
▁الدكتور	-9.62466
▁tedavi	-9.62498
▁sa	-9.62499
▁servis	-9.62525
▁Yüksek	-9.62621
▁derece	-9.62701
▁bana	-9.62825
▁An	-9.6299
▁70	-9.6307
▁Mar	-9.63222
▁الخبر	-9.63223
▁boyunca	-9.63342
▁Satış	-9.63376
عة	-9.63428
sen	-9.63475
▁sitesi	-9.63511
▁منها	-9.63729
up	-9.63875
ის	-9.63906
▁Cuma	-9.6396
▁belli	-9.64022
sında	-9.64105
▁Önceki	-9.64321
▁إلا	-9.64453
33	-9.64485
▁المصري	-9.64507
▁Cumhuriyet	-9.64515
وت	-9.64599
dığı	-9.64671
TA	-9.64772
▁Can	-9.64847
前	-9.64867
▁Fenerbahçe	-9.64882
تم	-9.64893
هما	-9.65012
生	-9.6506
▁bize	-9.65076
IN	-9.65085
▁seçim	-9.65093
后	-9.65148
▁San	-9.65238
▁giriş	-9.65254
ton	-9.65255
▁يوليو	-9.65265
▁hale	-9.65356
▁Merkez	-9.65385
▁soru	-9.65419
▁العراق	-9.65441
▁re	-9.65476
▁kız	-9.65481
▁وقت	-9.65551
▁Derneği	-9.65599
اب	-9.65626
▁are	-9.65637
▁takım	-9.65658
▁Pazartesi	-9.65709
▁Ma	-9.65743
ık	-9.65757
2012	-9.65794
▁და	-9.65797
看	-9.658
وف	-9.6591
▁कांग्रेस	-9.65923
▁فبراير	-9.65963
▁Kar	-9.66091
▁olsa	-9.66143
▁كبير	-9.66153
▁bayan	-9.66176
▁adı	-9.66253
▁الموسم	-9.66266
▁ना	-9.6633
▁يونيو	-9.66356
ro	-9.66372
▁belirten	-9.66385
▁تكون	-9.66447
官网	-9.66585
▁Pazar	-9.66622
▁sonrası	-9.6664
YA	-9.66789
▁çalışan	-9.66818
gen	-9.6682
yo	-9.66871
▁yazı	-9.66875
▁الدولة	-9.66979
ının	-9.66991
larıyla	-9.66992
ut	-9.6702
لو	-9.67077
जी	-9.6708
▁gerekli	-9.67097
AN	-9.6718
▁şeklinde	-9.67211
▁sen	-9.67421
की	-9.67497
▁सकता	-9.67581
▁Ka	-9.67596
mo	-9.67596
▁nedir	-9.67634
ً	-9.67655
▁as	-9.67661
▁أجل	-9.6772
▁Parça	-9.67721
या	-9.67792
▁जाता	-9.6786
▁saç	-9.67992
에서	-9.68098
过	-9.68182
▁昨天	-9.68373
▁başlayan	-9.68375
▁Ş	-9.6839
▁Sonraki	-9.68418
▁başarılı	-9.68455
▁कुमार	-9.68477
▁hizmeti	-9.68576
▁बहुत	-9.68589
▁fark	-9.68667
▁sorun	-9.68672
都	-9.68738
ै	-9.68745
▁Mi	-9.68757
ze	-9.68796
▁açıklamada	-9.68831
Ö	-9.6887
bir	-9.68894
▁أيضا	-9.68917
▁alt	-9.69093
▁80	-9.69114
▁yapı	-9.69265
80	-9.6928
▁bulunduğu	-9.69295
▁मे	-9.69306
▁Le	-9.69336
高	-9.69344
▁خ	-9.69372
▁تحديث	-9.69374
这	-9.69384
kı	-9.69451
▁4.	-9.69455
▁دور	-9.6946
下载	-9.69486
▁نوفمبر	-9.69553
▁نقل	-9.69565
▁ر	-9.69578
اوي	-9.69596
▁ضمن	-9.69605
nce	-9.69674
AL	-9.69686
▁ديسمبر	-9.69738
▁فريق	-9.6982
▁لاين	-9.6988
▁ون	-9.69905
▁news	-9.69918
▁günlük	-9.6997
bo	-9.69998
▁واحد	-9.70133
▁45	-9.70206
▁Bilgi	-9.7037
▁web	-9.704
ی	-9.70439
▁meydana	-9.70459
पुर	-9.70479
▁वे	-9.70487
▁do	-9.70562
▁olmayan	-9.7072
▁belirtti	-9.7073
▁سنة	-9.7074
▁जारी	-9.70774
▁ye	-9.70779
34	-9.71006
▁me	-9.71036
很	-9.71128
▁gerekiyor	-9.71167
▁müşteri	-9.71202
▁कीमत	-9.71252
▁aldığı	-9.71293
▁पार्टी	-9.71322
▁Web	-9.71422
▁kötü	-9.71427
▁sizlere	-9.71569
▁رمضان	-9.71597
▁şöyle	-9.7178
▁gelecek	-9.7183
▁Ara	-9.72003
▁सेवा	-9.72015
▁olay	-9.72017
▁वाली	-9.72022
▁yanında	-9.72051
▁मामले	-9.72087
▁होता	-9.72117
ndaki	-9.72153
▁Facebook	-9.72191
▁Aydın	-9.72237
▁aile	-9.72241
▁Mesaj	-9.72286
▁يت	-9.72303
▁alınan	-9.7231
▁ق	-9.72343
▁Ko	-9.72357
از	-9.72495
ça	-9.72549
:30	-9.72584
▁online	-9.72587
▁मौत	-9.72718
ru	-9.7273
▁bölgesinde	-9.72746
▁करना	-9.7275
جي	-9.72785
▁türlü	-9.72843
▁المنطقة	-9.72865
▁Deniz	-9.7289
▁hedef	-9.72989
▁[...]	-9.73064
▁تلك	-9.7312
muş	-9.73227
से	-9.73246
▁renk	-9.73278
▁bak	-9.7332
▁عدم	-9.73366
▁مترجم	-9.73378
500	-9.73386
▁mümkün	-9.73413
اس	-9.73512
▁जानकारी	-9.73535
▁›	-9.73557
▁प्र	-9.7357
▁dışında	-9.73595
”.	-9.7363
▁جامعة	-9.73653
心	-9.73663
▁post	-9.73677
▁Twitter	-9.73717
▁واحدة	-9.73729
let	-9.73761
▁उन्हें	-9.73771
▁البحث	-9.73822
▁जी	-9.73851
▁edin	-9.73861
▁oy	-9.73872
▁yani	-9.73909
▁ol	-9.73937
كر	-9.73943
-1	-9.73947
تهم	-9.73984
35	-9.74055
▁Ö	-9.74073
▁Yılmaz	-9.7413
▁बीच	-9.74132
leriyle	-9.74156
▁yılı	-9.74178
US	-9.7419
ര	-9.74244
▁baş	-9.74319
ـــ	-9.7434
ख	-9.74343
▁kalan	-9.74349
اج	-9.74379
▁US	-9.74424
▁isteyen	-9.74485
▁Man	-9.74526
▁سبتمبر	-9.74596
ev	-9.74614
▁جنيه	-9.74653
▁पास	-9.74699
▁erkek	-9.74766
▁ele	-9.74839
ver	-9.74878
▁उ	-9.74949
lük	-9.75015
▁proje	-9.75109
▁üye	-9.75136
▁العديد	-9.75185
van	-9.75194
`	-9.75197
▁هنا	-9.75201
▁bilgiler	-9.75215
▁yana	-9.75252
▁نحن	-9.75299
थ	-9.75321
▁temel	-9.75336
▁مشاركة	-9.75378
▁أم	-9.7542
▁الر	-9.75423
▁Galatasaray	-9.75505
▁एवं	-9.75561
layan	-9.75614
î	-9.75623
▁May	-9.75676
▁Suriye	-9.75679
son	-9.75742
▁उत्तर	-9.75822
▁siz	-9.75847
▁Lig	-9.75857
▁بت	-9.75874
▁yaşam	-9.75914
▁لو	-9.75934
▁للبيع	-9.75936
يين	-9.75993
▁Se	-9.76003
▁modelleri	-9.76095
游戏	-9.76139
स्ट	-9.76152
山	-9.76153
▁Atatürk	-9.76207
▁olacaktır	-9.76214
▁top	-9.76222
▁lira	-9.76252
▁إدارة	-9.76257
▁bölüm	-9.76351
等	-9.76388
▁Dakika	-9.76392
▁الموقع	-9.7646
75	-9.76515
▁Teknik	-9.76516
▁Previous	-9.76594
▁bunun	-9.76608
▁tür	-9.76671
▁alın	-9.76889
sının	-9.76898
اح	-9.77028
▁ekran	-9.7706
pa	-9.77077
ओ	-9.77083
▁yaş	-9.77173
▁كتاب	-9.77285
एं	-9.77286
▁منتديات	-9.77297
表	-9.77311
▁resmi	-9.77386
▁düşük	-9.77395
▁수	-9.77444
ic	-9.77477
▁not	-9.77515
▁मैं	-9.77615
▁itibaren	-9.77634
▁وأن	-9.77682
▁iPhone	-9.77684
ர	-9.77775
▁السعودي	-9.7779
▁Hastanesi	-9.77807
op	-9.77847
▁oyuncu	-9.77867
▁mutlu	-9.7793
▁90	-9.77949
maz	-9.77958
▁Rusya	-9.7797
▁şimdi	-9.77981
dim	-9.78007
▁فإن	-9.78009
▁33	-9.78075
▁edecek	-9.78124
▁الأمن	-9.78201
094	-9.78207
▁yoğun	-9.78213
著	-9.78232
▁verdiği	-9.78233
lanan	-9.7824
▁firma	-9.78249
▁sırasında	-9.78308
足球	-9.78452
▁المت	-9.78468
पी	-9.78519
▁sohbet	-9.78574
▁المصرية	-9.78577
▁अन्य	-9.78636
टी	-9.78683
sanız	-9.78718
▁durumda	-9.78815
▁اون	-9.79019
▁ülke	-9.79291
▁38	-9.79292
oz	-9.79321
▁كبيرة	-9.79335
41	-9.79348
▁खिलाफ	-9.79398
}	-9.7945
▁الخ	-9.79487
▁Pro	-9.79498
▁34	-9.795
▁#1	-9.79521
▁جدا	-9.79605
▁उच्च	-9.79616
花	-9.79617
▁Eğer	-9.7972
▁halinde	-9.79733
▁तीन	-9.79758
▁ak	-9.79878
eli	-9.79938
▁2007	-9.7996
ilen	-9.80059
▁كافة	-9.80088
▁sayısı	-9.80094
点	-9.80104
▁ग	-9.80107
्य	-9.80229
▁المشاهدات	-9.80258
▁''	-9.8027
ظ	-9.80304
siniz	-9.80305
▁sağ	-9.80306
▁48	-9.80334
▁sezon	-9.8034
▁أبريل	-9.80351
▁::	-9.80418
▁التعليم	-9.80425
外	-9.80484
▁Güncel	-9.80502
▁المصدر	-9.80535
em	-9.80536
ले	-9.80538
▁değildir	-9.80656
▁sizin	-9.8083
▁قائمة	-9.8083
▁يمكنك	-9.80844
▁eder	-9.80892
37	-9.80924
gu	-9.80972
▁اليمن	-9.81001
▁durumu	-9.81015
▁التجارية	-9.8108
▁المركز	-9.81134
ंग	-9.81162
▁Online	-9.81178
▁كامل	-9.81188
▁दे	-9.81302
▁defa	-9.81335
▁Kodu	-9.81336
▁Yönetim	-9.81385
▁يجب	-9.81405
▁hesap	-9.81435
▁العرب	-9.81439
▁ilçe	-9.81464
▁adlı	-9.81471
وز	-9.81526
▁ayında	-9.81587
다	-9.8163
与	-9.81643
开	-9.81695
▁बता	-9.81739
▁दोनों	-9.8177
▁sürekli	-9.81775
▁kararı	-9.81814
▁महिला	-9.8187
▁مت	-9.81874
LARI	-9.81886
▁anne	-9.81897
▁ses	-9.81922
海	-9.81977
▁terör	-9.82068
▁yüz	-9.82069
▁zarar	-9.8212
una	-9.82174
▁konuda	-9.82197
▁قرار	-9.82313
▁saldırı	-9.82321
▁क	-9.82336
▁ortak	-9.82344
وع	-9.82395
▁site	-9.82412
▁yapıldı	-9.8251
▁المملكة	-9.82565
▁طرف	-9.82631
tal	-9.82636
▁istiyorum	-9.82682
▁الح	-9.82737
▁الخارجية	-9.82748
▁güçlü	-9.82765
▁dahil	-9.82771
▁فيما	-9.82911
▁beni	-9.82925
「	-9.82925
‘	-9.82958
▁ريال	-9.82985
:14	-9.82993
市	-9.82994
▁لعبة	-9.82997
▁Çarşamba	-9.8306
▁ayrıca	-9.83064
LERİ	-9.83139
mu	-9.83142
تنا	-9.83222
▁tasarım	-9.83246
:13	-9.83282
想	-9.83302
▁الج	-9.83331
▁verilen	-9.83383
▁yaşındaki	-9.83498
▁Yap	-9.83589
بل	-9.83602
▁Hava	-9.83607
ıldı	-9.83615
▁medya	-9.83617
dik	-9.83638
مساعدة	-9.83674
▁milyar	-9.83712
مر	-9.83808
▁yan	-9.83847
डी	-9.83874
▁रंग	-9.8392
ağı	-9.83928
▁:)	-9.83976
▁أمس	-9.84
▁التى	-9.84006
اف	-9.84077
ho	-9.84079
▁adam	-9.84127
▁bakım	-9.84176
▁sırada	-9.84246
▁وأضاف	-9.8425
rt	-9.84284
▁सी	-9.84295
mektedir	-9.84433
▁devlet	-9.84442
▁مشروع	-9.84465
jpg	-9.845
▁Te	-9.84514
▁Yardımcısı	-9.84524
▁hak	-9.84534
suz	-9.84555
قر	-9.84558
▁الإمارات	-9.84578
▁बन	-9.84585
▁alıyor	-9.84608
▁الدول	-9.84626
▁Almanya	-9.84636
▁gerekir	-9.84642
▁dil	-9.84655
IM	-9.84666
▁खेल	-9.84734
▁Uçak	-9.84774
▁katkı	-9.8485
▁डॉ	-9.84858
58	-9.84887
▁arası	-9.84925
RA	-9.84931
▁كيف	-9.84931
با	-9.84932
▁biletleri	-9.84955
而	-9.85008
无	-9.85021
▁Bugün	-9.85028
▁bulunmaktadır	-9.85035
▁5.	-9.85066
:15	-9.85102
▁مستوى	-9.8513
▁Cevap	-9.85163
▁Updated	-9.85168
:02	-9.8517
▁فيديو	-9.85202
:18	-9.85217
▁onu	-9.85226
ीय	-9.85242
رة	-9.8526
▁التواصل	-9.85352
机	-9.85392
▁كم	-9.85398
mizi	-9.85415
▁mesafede	-9.85417
▁kayıt	-9.85461
分	-9.85485
tor	-9.85533
▁h	-9.85543
59	-9.85663
▁parti	-9.85707
▁göster	-9.85744
▁hayatını	-9.85749
▁mü	-9.85805
可以	-9.85856
46	-9.85869
مي	-9.86007
▁Li	-9.86041
▁akşam	-9.86234
▁izin	-9.86246
▁نحو	-9.86248
▁الش	-9.86265
▁فندق	-9.86313
55	-9.8634
▁kilo	-9.86354
▁Kitap	-9.86402
▁Sanat	-9.86405
LE	-9.86439
▁katıldı	-9.86455
▁rahat	-9.86457
vi	-9.86489
▁hep	-9.86513
成	-9.8652
▁güven	-9.86577
▁işlem	-9.86638
49	-9.86716
ன்	-9.86718
▁önem	-9.86723
:23	-9.86759
▁Bi	-9.86762
:09	-9.86922
▁]	-9.87002
▁bas	-9.87052
▁yıllık	-9.87053
▁Bar	-9.8706
▁fotoğraf	-9.87125
期	-9.87142
▁الإثنين	-9.87166
▁Diğer	-9.87174
▁عملية	-9.87178
لة	-9.87253
▁başvuru	-9.87274
tra	-9.87348
▁सु	-9.87349
▁merkezi	-9.87358
:45	-9.87364
38	-9.87419
▁الخاص	-9.87468
▁beraber	-9.87473
▁geniş	-9.8748
▁Emniyet	-9.87531
▁Çünkü	-9.87545
▁Perşembe	-9.87624
▁حب	-9.87624
ers	-9.87673
六合彩	-9.87705
▁Bayan	-9.87741
▁admin	-9.87757
65	-9.8781
ant	-9.8783
▁وما	-9.87903
▁Telefon	-9.87928
▁Yazar	-9.8794
▁dolar	-9.87945
▁basın	-9.87947
ren	-9.88101
▁alındı	-9.88107
36	-9.88109
▁الص	-9.88136
▁نشر	-9.88166
手	-9.88237
:19	-9.88244
▁الوزراء	-9.88257
رق	-9.88303
▁Yıldırım	-9.88331
▁بما	-9.88384
▁Servisi	-9.88389
▁araya	-9.88453
SI	-9.88455
ger	-9.88457
▁başarı	-9.88508
▁سنوات	-9.88581
▁بيان	-9.88689
يد	-9.88695
▁Kemal	-9.88706
AK	-9.88738
▁مباشر	-9.88739
▁دي	-9.88749
▁yağ	-9.88783
▁ağır	-9.88864
▁شاهد	-9.88901
99	-9.88909
▁haberi	-9.8901
▁güç	-9.89031
66	-9.89046
diği	-9.89052
▁→	-9.89062
▁görmek	-9.89202
nd	-9.8925
▁Pre	-9.89283
98	-9.89293
نت	-9.89299
▁₺	-9.89304
:11	-9.89348
▁पी	-9.89351
وق	-9.89356
▁oda	-9.89409
▁يُ	-9.89444
:10	-9.89462
▁doğal	-9.89491
▁tespit	-9.89513
▁شخص	-9.8965
▁السلام	-9.89681
▁Üye	-9.89691
▁مرة	-9.89735
:40	-9.89753
:38	-9.8985
▁Salı	-9.89863
▁aday	-9.89917
ılan	-9.89978
▁ekipleri	-9.89993
▁الكثير	-9.90027
▁insanlar	-9.9005
▁EUR	-9.90056
▁yönetim	-9.90086
▁nedenle	-9.90106
°	-9.9017
▁रुपये	-9.90189
▁Var	-9.90196
▁maç	-9.90209
▁As	-9.90271
▁Cevapla	-9.90282
▁alanında	-9.90299
老	-9.90321
ydi	-9.90324
▁تركيا	-9.90365
▁ediyorum	-9.90375
imi	-9.90378
▁Başkanlığı	-9.90402
可	-9.90407
▁उत्पादों	-9.90486
मी	-9.90491
▁adım	-9.90491
面	-9.90527
را	-9.90539
▁यहां	-9.90645
▁المنتدى	-9.9065
사	-9.90693
▁se	-9.90728
▁Full	-9.90747
▁शामिल	-9.90747
▁sonunda	-9.90825
▁कुल	-9.90898
aj	-9.90899
▁model	-9.91002
▁dolu	-9.91021
ाई	-9.91026
har	-9.91058
▁المزيد	-9.91111
▁وكان	-9.91216
▁Günü	-9.91247
▁اسم	-9.91258
色	-9.91283
▁أغسطس	-9.91293
ME	-9.91315
▁Uzun	-9.91344
▁Comments	-9.91356
:48	-9.91357
▁Android	-9.91363
▁talep	-9.91431
▁yaşayan	-9.91454
▁yaşanan	-9.91474
▁أيام	-9.91558
▁الأسعار	-9.91633
▁कारण	-9.91658
路	-9.91666
85	-9.91674
▁वो	-9.91682
▁varsa	-9.91683
▁içi	-9.9171
▁GMT	-9.91728
000	-9.91766
ış	-9.91775
aş	-9.91794
▁이	-9.91845
▁öğrenci	-9.91878
:05	-9.91887
▁altına	-9.91891
64	-9.91911
:07	-9.9194
▁—	-9.91947
اه	-9.91948
▁kuru	-9.91998
:49	-9.92001
▁ऐसे	-9.92016
国	-9.92087
▁şehit	-9.92087
ٌ	-9.92092
▁الوطنية	-9.92093
▁Da	-9.92124
▁ünlü	-9.92158
عد	-9.92218
性	-9.92229
▁ince	-9.92291
▁राज्य	-9.92308
▁kullanılan	-9.92309
일	-9.9232
▁पा	-9.92336
▁kap	-9.92364
▁yeri	-9.9247
▁bilgileri	-9.92475
▁उनकी	-9.92485
ah	-9.92485
▁Sanayi	-9.925
▁ürünleri	-9.92559
ladı	-9.9256
▁sabah	-9.92582
യ	-9.92603
larımız	-9.92667
ll	-9.92714
▁Ro	-9.92743
ry	-9.92748
▁التعليقات	-9.92761
▁سوريا	-9.92789
LA	-9.92796
▁tavsiye	-9.9287
▁ज्यादा	-9.9287
▁وضع	-9.92936
力	-9.92957
▁36	-9.93013
▁article	-9.93062
▁ليس	-9.93074
كت	-9.93121
▁reklam	-9.93157
▁المجلس	-9.93272
hane	-9.93279
▁sıcak	-9.93291
▁बना	-9.93298
يك	-9.93411
▁şehir	-9.93443
ss	-9.93484
يق	-9.93503
▁الملك	-9.93514
95	-9.9352
100	-9.93637
▁37	-9.93638
ു	-9.93661
:03	-9.93676
▁150	-9.93688
▁Adana	-9.93818
▁42	-9.93832
:50	-9.93835
▁Altın	-9.93836
▁Hakkında	-9.93846
▁Ltd	-9.93876
▁özellikleri	-9.93955
▁लगा	-9.94047
▁this	-9.9405
▁Şimdi	-9.94135
▁Cumartesi	-9.94167
nca	-9.94193
▁sayıda	-9.94216
per	-9.9429
86	-9.94299
头	-9.94314
ebilir	-9.94346
어	-9.94359
▁आई	-9.94384
美	-9.94442
▁çalışmaları	-9.94502
▁Fatih	-9.94507
44	-9.94512
▁Milletvekili	-9.94524
▁marka	-9.94546
▁ceza	-9.94563
2013	-9.94567
▁ابن	-9.94585
:21	-9.94594
▁dün	-9.94601
ey	-9.94612
▁अपना	-9.94648
▁fiyatı	-9.94718
▁önceki	-9.94743
▁yabancı	-9.94764
▁Kocaeli	-9.94837
▁ihtiyaç	-9.94856
▁Ol	-9.949
نة	-9.94903
▁بالم	-9.94912
▁Çelik	-9.94921
lat	-9.94926
▁نظام	-9.94943
7%	-9.94989
mer	-9.95032
سي	-9.95064
@	-9.95093
ؤ	-9.95143
▁beyaz	-9.95163
▁किए	-9.95179
▁New	-9.95181
▁प्रति	-9.95183
号	-9.95186
▁Di	-9.952
42	-9.95217
▁منتدى	-9.95227
ici	-9.95231
सा	-9.95246
▁Ver	-9.95267
▁Fiyatları	-9.95298
▁بدون	-9.95306
-19	-9.95319
गी	-9.95321
▁दें	-9.95324
▁açıkladı	-9.95328
توقيت	-9.95335
▁300	-9.95351
ري	-9.95355
▁ederim	-9.9536
▁مما	-9.95387
▁التالي	-9.95394
ft	-9.95418
스	-9.95444
اط	-9.95471
▁الدوري	-9.95473
tim	-9.95529
:59	-9.95545
ap	-9.9558
▁الثانية	-9.95583
▁الدولية	-9.95584
عت	-9.95602
▁Genç	-9.95605
fe	-9.95606
被	-9.95625
ड़	-9.95673
▁حسن	-9.95772
▁oluşan	-9.95785
mıştır	-9.958
ley	-9.95808
:16	-9.95841
▁sayı	-9.95846
ர்	-9.95919
▁belirterek	-9.95927
长	-9.95937
▁Açık	-9.95941
道	-9.95988
▁Ha	-9.96036
زي	-9.96092
▁المقبل	-9.96099
▁قسم	-9.96113
lenen	-9.96166
▁وظائف	-9.96173
▁Kan	-9.96199
▁चाहिए	-9.96219
▁bulunuyor	-9.96223
▁वहीं	-9.96226
▁देने	-9.9626
▁kim	-9.96273
39	-9.96296
▁with	-9.963
51	-9.96341
인	-9.9636
▁açısından	-9.96372
:51	-9.96377
يب	-9.96442
:04	-9.96485
▁لدى	-9.9649
2014	-9.96537
▁عندما	-9.96597
Sİ	-9.96617
''	-9.9662
▁Oyun	-9.96718
▁الشعب	-9.96733
▁مر	-9.96776
行	-9.96783
▁الشركات	-9.96813
▁Bankası	-9.96815
isi	-9.96816
▁अधिक	-9.96831
▁Be	-9.96858
▁bölge	-9.96864
▁Giriş	-9.96894
77	-9.96945
▁Van	-9.96972
ıl	-9.96996
▁okul	-9.96998
▁faaliyet	-9.97005
:28	-9.97009
بو	-9.97014
▁çevre	-9.97041
:32	-9.97046
:43	-9.9706
ല	-9.97135
▁ver	-9.97169
pe	-9.97209
金	-9.97253
mize	-9.97289
lerimiz	-9.97303
tar	-9.97315
▁قناة	-9.97322
▁الي	-9.97388
▁etme	-9.97414
▁ar	-9.97417
▁الشباب	-9.97454
吃	-9.97557
▁تعليق	-9.97693
▁mevcut	-9.97703
▁haberleri	-9.97712
▁غ	-9.97735
ör	-9.97761
▁दर्ज	-9.97795
▁Windows	-9.97843
قة	-9.9785
▁अध्यक्ष	-9.97862
▁amacıyla	-9.97885
:42	-9.97905
▁Ra	-9.97916
imiz	-9.97922
▁önünde	-9.97953
▁Aile	-9.98057
发	-9.98151
land	-9.98199
▁والذي	-9.98254
▁كتب	-9.98288
്	-9.983
▁Vi	-9.98303
▁İnternet	-9.98309
جر	-9.98369
▁पूर्व	-9.98391
▁kitap	-9.9841
▁Gazetesi	-9.98418
▁ज	-9.98459
于	-9.9848
▁dış	-9.985
▁yolu	-9.98526
ner	-9.98543
▁otomobil	-9.98584
▁ilan	-9.986
र्	-9.98609
▁Samsun	-9.98631
▁नि	-9.98638
▁merak	-9.98682
▁الكويت	-9.98701
▁sonuç	-9.98743
▁oyunu	-9.98767
:39	-9.98901
▁India	-9.98918
وه	-9.98928
تر	-9.98956
▁क्षेत्र	-9.98984
▁الناس	-9.99017
yor	-9.99018
▁gol	-9.99028
▁Odası	-9.99046
▁Bey	-9.99053
▁Mo	-9.99089
Ha	-9.99121
爱	-9.99131
▁istediğiniz	-9.99132
lendi	-9.9923
▁मंत्री	-9.99333
▁vermek	-9.99352
inden	-9.99522
▁سن	-9.99531
▁orta	-9.99536
▁filmi	-9.99565
▁وجود	-9.99568
:46	-9.99586
▁أنها	-9.99591
ज़	-9.99623
▁Park	-9.99628
▁الأمريكية	-9.99644
حركة	-9.99651
iyle	-9.9971
yen	-9.99755
cm	-9.99834
▁करोड़	-9.99844
:37	-9.99869
▁çözüm	-9.99885
▁/>	-9.99956
▁Posted	-9.99967
ts	-9.99974
mez	-9.99992
:25	-10.0003
▁mesaj	-10.0005
81	-10.0007
▁hasta	-10.0009
▁Recep	-10.001
▁القدم	-10.0012
▁بو	-10.0012
LU	-10.0015
-2	-10.0015
▁होगी	-10.0018
▁सा	-10.0019
:53	-10.0023
lak	-10.0023
▁لكم	-10.0026
बी	-10.0027
当	-10.0028
▁Süper	-10.003
▁Ticaret	-10.0037
▁تت	-10.004
57	-10.0045
▁yatırım	-10.0046
▁تطبيق	-10.0046
்	-10.0046
▁gerektiğini	-10.005
اك	-10.0051
▁الفريق	-10.006
▁ciddi	-10.006
▁yüzden	-10.0067
▁Moda	-10.0082
:36	-10.0087
▁Top	-10.0087
▁لكل	-10.0093
▁Video	-10.0097
:33	-10.0099
▁gerçekleştir	-10.0099
▁2019,	-10.01
:17	-10.01
자	-10.0102
▁fabrika	-10.0102
名	-10.0102
▁العالمية	-10.0106
▁tamamen	-10.011
▁Konya	-10.0113
▁خدمة	-10.0115
▁Et	-10.0115
54	-10.0115
▁Özellikle	-10.012
▁servisi	-10.0121
ോ	-10.013
:08	-10.0132
▁نت	-10.0133
فل	-10.0143
▁खान	-10.0162
▁onun	-10.0163
ent	-10.0163
عرض	-10.0166
▁بس	-10.0168
▁te	-10.0171
▁kullandı	-10.0172
▁فعل	-10.0173
▁Kayseri	-10.0176
دى	-10.0179
حي	-10.018
meye	-10.0181
nü	-10.0187
वि	-10.0188
nize	-10.0188
▁Bebek	-10.02
▁मिल	-10.0208
最	-10.0209
க்க	-10.0209
1.	-10.0216
ेट	-10.0216
tepe	-10.0218
AT	-10.0219
:01	-10.0224
全	-10.0226
▁تحقيق	-10.0227
▁Para	-10.0228
시	-10.023
Bölüm	-10.0231
▁uzman	-10.0234
”،	-10.0235
:06	-10.0238
მ	-10.0244
ildi	-10.0244
▁Şu	-10.0246
▁İki	-10.0246
▁फ	-10.0247
▁75	-10.0249
▁net	-10.0251
▁6.	-10.0251
▁yapma	-10.0253
▁الك	-10.0256
▁Ad	-10.0257
▁At	-10.0259
2018	-10.026
:34	-10.0262
以	-10.0264
ठ	-10.0265
▁altın	-10.0266
48	-10.0266
:31	-10.0268
▁720	-10.0272
▁birkaç	-10.0273
▁grup	-10.0275
:47	-10.0275
▁அ	-10.0277
▁alışveriş	-10.028
▁النظام	-10.0285
▁انه	-10.0288
!!	-10.0289
sınız	-10.0289
▁نتيجة	-10.029
▁hindi	-10.0298
68	-10.03
news	-10.0302
52	-10.0304
▁For	-10.0306
काफी	-10.031
mızı	-10.031
▁الاثنين	-10.0311
▁Murat	-10.0312
Türkiye	-10.0312
▁والأ	-10.0313
:44	-10.0313
▁ولم	-10.0313
▁kas	-10.0318
▁teknoloji	-10.0331
▁bilgisayar	-10.0339
▁edilmesi	-10.034
▁ऐसा	-10.0343
▁Erkek	-10.0345
▁işi	-10.0347
▁dair	-10.0347
▁المدينة	-10.0348
▁oku	-10.0356
▁فتح	-10.0363
▁arasındaki	-10.0365
▁sat	-10.0368
▁geçti	-10.037
َّ	-10.0374
rak	-10.0374
▁Share	-10.0375
▁Toplam	-10.0382
▁المجتمع	-10.0386
▁बस	-10.0391
▁He	-10.0392
▁yaparak	-10.0394
能	-10.0397
网站	-10.0398
:54	-10.0403
▁tepki	-10.0407
▁الولايات	-10.0408
▁zaten	-10.0408
▁başında	-10.0411
اي	-10.0416
ja	-10.0418
رج	-10.0418
▁arada	-10.0424
▁دول	-10.0428
▁Ücretsiz	-10.0438
▁مجال	-10.0438
091	-10.0439
▁مساء	-10.0441
▁حين	-10.0443
▁Ramazan	-10.0443
▁تن	-10.0458
اش	-10.0459
▁savaş	-10.046
娱乐	-10.0462
▁tarih	-10.0463
yon	-10.0464
لم	-10.0466
▁suç	-10.0467
سا	-10.047
▁Teknoloji	-10.0472
AA	-10.0478
ध	-10.048
▁öyle	-10.0481
及	-10.0486
▁olun	-10.0486
▁sonrasında	-10.0488
▁kaldı	-10.0488
▁زيارة	-10.0492
▁इससे	-10.0493
▁عشر	-10.0495
▁Blog	-10.0498
▁كورونا	-10.0501
▁enerji	-10.0504
▁yerinde	-10.0506
▁konut	-10.051
▁दर	-10.051
72	-10.0515
ment	-10.0525
光	-10.0525
▁ساعة	-10.053
كا	-10.053
▁işlemi	-10.0534
TE	-10.0534
ps	-10.0538
▁üniversite	-10.0538
▁ediyoruz	-10.0539
▁चल	-10.0541
▁tatil	-10.0541
mizde	-10.0552
서	-10.0555
▁Benim	-10.0556
▁الرياض	-10.0557
دع	-10.056
اص	-10.0561
:20	-10.0561
▁değer	-10.0562
▁hayat	-10.0568
▁yapılır	-10.0573
▁transfer	-10.0575
▁جانب	-10.0575
▁الأمر	-10.0576
دة	-10.0576
:22	-10.0576
▁To	-10.0578
▁Po	-10.0578
53	-10.058
▁فقد	-10.0584
▁Güzel	-10.0587
▁Siyah	-10.0589
:35	-10.059
▁araba	-10.0592
▁kara	-10.0592
:41	-10.0594
▁آل	-10.0594
▁الكريم	-10.0595
दा	-10.0602
▁üretim	-10.0603
▁On	-10.0603
▁المن	-10.0603
▁from	-10.0607
▁program	-10.061
▁الاجتماعي	-10.0611
:12	-10.0611
़	-10.0614
▁वर्ष	-10.0617
▁कंपनी	-10.0617
▁İletişim	-10.0617
▁सामने	-10.0618
น	-10.062
▁er	-10.062
sü	-10.0621
ც	-10.0623
▁şeyler	-10.0626
▁ayı	-10.0628
▁【	-10.0636
سل	-10.0641
▁Bil	-10.0645
▁değerli	-10.0645
又	-10.065
Me	-10.0652
▁أعمال	-10.0652
ıcı	-10.0652
landı	-10.0652
TL	-10.0653
▁etkili	-10.0657
जा	-10.0659
▁}	-10.066
▁भाजपा	-10.0663
▁Futbol	-10.0666
▁पता	-10.0671
▁günlerde	-10.0673
▁Beyaz	-10.0673
▁yada	-10.0675
83	-10.0685
hu	-10.0685
得	-10.0686
▁अगर	-10.0686
▁بتاريخ	-10.069
▁olmuş	-10.0695
رد	-10.07
▁Gün	-10.0701
iniz	-10.0702
▁لهذا	-10.0704
▁**	-10.0705
▁أكبر	-10.0712
▁55	-10.0713
▁liste	-10.0715
做	-10.0715
:58	-10.0718
▁Demir	-10.0718
▁Fiyat	-10.0724
▁yeterli	-10.073
ல்	-10.0731
mizin	-10.0732
▁Alıntı	-10.0733
▁gider	-10.0734
:29	-10.0736
▁İnsan	-10.0746
▁مش	-10.0746
az	-10.0756
taş	-10.0762
ab	-10.0764
▁sistem	-10.0764
▁أسعار	-10.0768
▁تقديم	-10.0777
▁aç	-10.0777
›	-10.0778
:26	-10.0778
ji	-10.0779
那	-10.0779
▁الأخيرة	-10.0782
▁حسب	-10.0783
▁sizi	-10.0783
▁39	-10.0787
)،	-10.0787
:57	-10.0794
报	-10.0797
▁पानी	-10.08
▁Go	-10.0801
بة	-10.0801
2017	-10.0801
eri	-10.0807
▁taş	-10.0807
▁Q	-10.0814
sek	-10.0817
▁gönder	-10.0819
ban	-10.082
▁سم	-10.082
▁44	-10.0822
▁كأس	-10.0824
▁sanat	-10.0825
and	-10.0827
▁Okunma	-10.0833
▁ول	-10.0834
▁Zaman	-10.0838
وك	-10.084
▁बा	-10.0848
▁حال	-10.0853
▁yerde	-10.0858
ck	-10.0859
▁Birliği	-10.0866
▁İçerik	-10.0868
▁İle	-10.0873
▁لجنة	-10.0873
▁وان	-10.0874
▁verildi	-10.0874
▁التاريخ	-10.0875
91	-10.0883
▁عليك	-10.0888
▁कार	-10.0897
جو	-10.0897
vo	-10.0897
مان	-10.0901
▁الحياة	-10.0905
dım	-10.0906
top	-10.0908
एस	-10.091
▁kes	-10.0912
:56	-10.0916
▁जाएगा	-10.0916
kten	-10.0924
▁استخدام	-10.0924
वी	-10.0925
71	-10.0927
▁जिसक	-10.093
▁gözaltına	-10.0936
▁الجيش	-10.0939
▁açıklaması	-10.0939
▁operasyon	-10.0944
teki	-10.0946
▁Halk	-10.0948
场	-10.0949
▁Polis	-10.0951
कार	-10.0951
▁المغرب	-10.0959
:55	-10.0967
▁करता	-10.097
▁yapılması	-10.0979
▁sağlıklı	-10.0979
गा	-10.0981
iyet	-10.0981
$	-10.0983
▁जिला	-10.0985
فا	-10.0987
▁hoş	-10.0988
met	-10.0989
▁त	-10.0989
▁مساءً	-10.0992
▁dört	-10.0995
جب	-10.1001
▁बनाने	-10.1005
2016	-10.1007
ty	-10.1007
▁الأخبار	-10.1011
:27	-10.1011
ക	-10.1015
▁مكان	-10.1016
▁henüz	-10.1018
▁So	-10.102
▁41	-10.1026
▁or	-10.1026
▁طريقة	-10.1029
mp	-10.1031
▁Uluslararası	-10.1037
▁Samsung	-10.1043
alım	-10.1043
:24	-10.1044
▁Aşk	-10.1044
▁hizmetleri	-10.1046
▁©	-10.1051
ılır	-10.1053
▁تقدم	-10.106
▁خاص	-10.1061
▁vardı	-10.1063
▁मीडिया	-10.1069
▁yere	-10.1073
فت	-10.1079
▁ister	-10.1085
▁Apple	-10.1089
▁haline	-10.1092
▁alanda	-10.1102
در	-10.1105
▁Küçük	-10.1109
▁Taş	-10.111
打	-10.111
▁الثالث	-10.1112
قي	-10.1112
▁ma	-10.1113
▁Göster	-10.1113
को	-10.1115
▁الدين	-10.1117
▁sipariş	-10.1119
▁fakat	-10.112
▁मु	-10.1121
جل	-10.1122
▁mutlaka	-10.1122
ok	-10.1123
cak	-10.1126
ket	-10.1128
▁kal	-10.1129
▁ke	-10.1138
▁di	-10.1141
▁çift	-10.1146
▁Kadınlar	-10.1147
प्र	-10.1147
▁طلب	-10.1148
▁Doğan	-10.1148
▁لبنان	-10.1149
▁الد	-10.1152
▁güncel	-10.1152
▁نادي	-10.1152
▁मुख्यमंत्री	-10.1153
▁Baş	-10.1156
▁normal	-10.1159
62	-10.116
حت	-10.1161
sam	-10.1162
▁dönemde	-10.1165
▁maçı	-10.1166
ு	-10.1166
▁إي	-10.1167
भ	-10.117
gan	-10.1171
风	-10.1171
▁أثناء	-10.1173
▁الأعمال	-10.1173
▁din	-10.1173
▁صورة	-10.1175
▁जीत	-10.1178
▁7.	-10.1178
▁الصحة	-10.1185
ucu	-10.1186
▁Site	-10.1195
▁Bay	-10.1195
▁kaza	-10.1197
▁شبكة	-10.1201
EL	-10.1202
主	-10.1204
▁अभी	-10.1207
po	-10.121
köy	-10.1214
لت	-10.1215
lim	-10.1221
」	-10.1224
bar	-10.1227
▁निर्माता	-10.123
▁plan	-10.1237
▁مواقع	-10.1237
هن	-10.1238
▁yandan	-10.1238
ebilirsiniz	-10.124
▁Hayat	-10.1241
▁Kız	-10.1241
sk	-10.1242
ാ	-10.1245
▁المعلومات	-10.1248
سو	-10.1253
▁65	-10.1253
▁diş	-10.1255
吗	-10.1259
▁dünyanın	-10.1265
起	-10.1269
▁Çalışma	-10.127
ğı	-10.1271
bey	-10.1272
▁hala	-10.1273
▁Yer	-10.1273
▁250	-10.1275
▁lütfen	-10.1276
200	-10.1276
ّة	-10.1277
▁araştırma	-10.1278
வ	-10.1278
▁العاب	-10.1281
▁गांव	-10.1284
अ	-10.1286
▁Saç	-10.129
▁وعلى	-10.1291
يو	-10.1294
▁وكالة	-10.13
▁مختلف	-10.13
din	-10.1305
▁ders	-10.1307
▁alacak	-10.1311
视频	-10.1311
▁وإ	-10.1316
2.	-10.1319
▁विशेष	-10.132
▁iptal	-10.1322
▁Araştırma	-10.1323
وية	-10.1326
将	-10.1328
娱乐城	-10.1333
으로	-10.1335
▁örnek	-10.1339
▁ह	-10.1343
自	-10.1348
▁Gaziantep	-10.1349
يح	-10.1349
الي	-10.1349
http	-10.1349
▁ز	-10.135
▁Ce	-10.1351
89	-10.1353
▁yapacak	-10.1357
▁قطر	-10.1357
▁metre	-10.1357
بن	-10.1361
▁Kıbrıs	-10.1362
▁olmadığını	-10.1366
▁Mah	-10.1376
:52	-10.1377
▁Yayın	-10.1377
تس	-10.1378
▁अनुसार	-10.1382
صل	-10.1382
▁जांच	-10.1383
بت	-10.1384
▁say	-10.1386
tü	-10.1386
-3	-10.1387
يش	-10.139
इ	-10.1391
جد	-10.1392
▁sağlar	-10.1392
▁قطاع	-10.1393
▁görüş	-10.1404
▁البلاد	-10.1405
AP	-10.1406
▁Bakan	-10.1407
▁Sadece	-10.1409
84	-10.1416
كو	-10.1416
br	-10.1419
82	-10.1424
SA	-10.1425
▁yurt	-10.1425
▁tur	-10.1425
dar	-10.1428
taki	-10.1429
▁Amerika	-10.143
▁न्यूज़	-10.1435
▁الاول	-10.1436
nba	-10.1442
dü	-10.1443
▁دعم	-10.1452
▁حل	-10.1453
▁وفق	-10.1455
AS	-10.1456
ंड	-10.1462
كتب	-10.1466
▁buna	-10.1469
▁مقابل	-10.147
▁Sarı	-10.147
▁الشعر	-10.1471
க்	-10.1474
▁profesyonel	-10.1488
yim	-10.1489
▁aracı	-10.1491
elim	-10.1492
▁Rus	-10.1493
▁حزب	-10.1498
▁Ni	-10.1501
▁الصور	-10.1504
▁Doğu	-10.1507
▁etki	-10.1508
▁elektrik	-10.151
博	-10.1516
▁kendini	-10.1516
本	-10.1519
▁u	-10.1521
▁müzik	-10.1524
▁darbe	-10.1525
▁120	-10.1526
▁أكد	-10.1527
वर	-10.1532
دين	-10.1533
▁تونس	-10.1535
▁بكل	-10.154
െ	-10.1544
▁؟	-10.155
▁सं	-10.155
▁Adı	-10.155
of	-10.1555
▁programı	-10.1558
க	-10.156
▁okundu	-10.1561
▁أشهر	-10.1561
he	-10.1563
كي	-10.1566
▁gerçekten	-10.1566
▁kullanımı	-10.1567
▁engel	-10.1576
▁عدة	-10.158
▁لهم	-10.158
▁Yıldız	-10.1584
▁Kat	-10.1585
ret	-10.1588
▁Başbakan	-10.159
▁konuşma	-10.1591
▁खबर	-10.1591
▁كنت	-10.1592
▁gören	-10.1593
▁neler	-10.1594
还	-10.1595
▁घटना	-10.1595
NA	-10.1596
▁विभाग	-10.1596
▁kapı	-10.1596
▁Pa	-10.1597
▁kargo	-10.1597
▁سيارة	-10.1597
▁سوف	-10.1599
yiz	-10.1613
▁Takımı	-10.1618
▁alanı	-10.1618
▁Tags	-10.162
▁عمر	-10.162
▁başına	-10.1621
▁Aynı	-10.1623
▁yaşında	-10.1624
▁دولة	-10.1627
▁نفس	-10.1628
▁çalışmalar	-10.1628
▁sahne	-10.1631
店	-10.1631
Bir	-10.1634
tion	-10.1638
▁saygı	-10.1639
▁//	-10.164
▁yazar	-10.1647
2011	-10.1648
ası	-10.1648
ilir	-10.1648
▁पूरी	-10.165
lay	-10.165
▁bilim	-10.1654
▁kamera	-10.1656
▁Bölge	-10.1662
▁Sen	-10.1662
TI	-10.1663
▁भ	-10.1665
▁yapımı	-10.1667
miyor	-10.1672
▁baba	-10.1675
▁Meclis	-10.1679
od	-10.168
▁الوطن	-10.1682
化	-10.1684
▁kimse	-10.1687
정	-10.1688
▁الفترة	-10.1689
▁gir	-10.1691
▁man	-10.1691
larınızı	-10.1691
▁द	-10.1693
▁deniz	-10.1695
▁pa	-10.1696
76	-10.17
▁शादी	-10.1705
▁Gu	-10.1709
▁ط	-10.1711
ot	-10.1715
":	-10.1718
해	-10.1725
mar	-10.1727
رو	-10.1729
▁Kendi	-10.1729
体	-10.1731
▁Soru	-10.1732
ارة	-10.1732
但	-10.1734
▁pazar	-10.1736
▁مشاركات	-10.1737
تو	-10.174
evi	-10.1747
▁eşi	-10.1747
▁Orta	-10.1748
रे	-10.1749
▁السعر	-10.175
▁فلسطين	-10.1751
▁Kay	-10.176
▁بالإضافة	-10.1761
▁Av	-10.1762
▁ترامب	-10.1765
▁ona	-10.1771
▁मशीन	-10.1778
ılmış	-10.1779
▁حق	-10.1784
lığa	-10.1785
ız	-10.1788
61	-10.1789
▁isim	-10.1795
▁राज	-10.1796
▁तथा	-10.1796
▁fe	-10.1797
▁हमारे	-10.1798
മ	-10.1798
▁bo	-10.1799
▁teklif	-10.1804
est	-10.1805
▁लाख	-10.1808
io	-10.1808
▁تعرف	-10.181
▁dönem	-10.1813
度	-10.1813
▁harika	-10.1815
97	-10.1818
رس	-10.1821
文	-10.183
▁hediye	-10.1834
아	-10.1837
▁اجتماع	-10.1838
▁you	-10.1843
▁Nedir	-10.1848
300	-10.185
▁47	-10.185
رم	-10.1853
▁uzak	-10.1854
▁kır	-10.1865
▁صاحب	-10.1865
▁herkes	-10.1867
▁verme	-10.1867
ünü	-10.1868
个	-10.1868
▁olmadığı	-10.1872
▁önde	-10.1873
▁برامج	-10.1873
▁الجملة	-10.1873
▁محافظة	-10.1873
▁veri	-10.188
ო	-10.188
▁ismi	-10.1881
▁ओर	-10.1883
्‍	-10.1887
合	-10.189
▁Turizm	-10.1893
▁tak	-10.1893
▁الداخلية	-10.1893
▁mal	-10.1895
▁Ta	-10.1896
▁test	-10.1897
▁değiştir	-10.1897
▁bebek	-10.1902
▁silah	-10.1903
百家乐	-10.1907
sıyla	-10.1908
▁بأ	-10.1909
lıyor	-10.191
▁sürede	-10.1912
ac	-10.1913
▁البرنامج	-10.1914
▁إيران	-10.1914
▁İslam	-10.1915
口	-10.1915
▁400	-10.1919
▁السيد	-10.1922
▁kişiler	-10.1922
▁getirdi	-10.1922
▁seyahat	-10.1923
lerinizi	-10.1924
▁Kredi	-10.1925
▁çeken	-10.193
▁نوع	-10.1934
▁baskı	-10.1937
0915	-10.1942
从	-10.1944
▁Fakültesi	-10.1945
▁المالية	-10.1948
რ	-10.1948
▁tanı	-10.1948
▁السيارات	-10.1949
▁Şehir	-10.1951
원	-10.1953
كل	-10.1965
事	-10.197
▁وجه	-10.1971
▁hayata	-10.1973
▁yanlış	-10.1976
▁temiz	-10.1981
▁64	-10.1983
वे	-10.1984
▁الغ	-10.1985
▁yapıyor	-10.1992
▁اللجنة	-10.1997
▁المع	-10.1998
明	-10.1999
▁الجامعة	-10.2
AD	-10.2001
▁الأسبوع	-10.2003
ର	-10.2005
о	-10.2006
43	-10.2007
▁DE	-10.2007
区	-10.2009
▁இ	-10.2012
şe	-10.2017
▁दुनिया	-10.2017
▁وسط	-10.2017
▁सकती	-10.2019
ama	-10.2021
▁र	-10.2021
YE	-10.2023
▁Burada	-10.2024
法	-10.2024
▁dışı	-10.2025
▁başta	-10.2027
▁43	-10.203
ष	-10.2035
اغ	-10.204
▁Kur	-10.204
دا	-10.2044
2019	-10.2045
þ	-10.2047
حب	-10.2053
mda	-10.206
wa	-10.2064
▁hatta	-10.2064
▁القرآن	-10.2064
رات	-10.2067
رت	-10.2067
து	-10.2072
▁تنفيذ	-10.2075
uk	-10.2075
走	-10.2076
▁Ömer	-10.2077
php	-10.2082
േ	-10.2084
▁FETÖ	-10.2085
▁sona	-10.2086
▁تريد	-10.2086
▁उसे	-10.2086
▁desteği	-10.2087
▁Trabzonspor	-10.2088
siyle	-10.2089
ौ	-10.2094
▁बड़ी	-10.2096
▁kamu	-10.2096
▁suyu	-10.2097
▁́	-10.2102
▁पाकिस्तान	-10.2105
▁अधिकारी	-10.2116
▁aylık	-10.2117
دير	-10.2118
▁इसे	-10.2123
▁hayvan	-10.2127
▁BİR	-10.2128
▁mahalle	-10.2133
▁مليار	-10.2134
يّة	-10.2137
▁عالم	-10.214
▁günde	-10.2143
公	-10.2149
▁गुणवत्ता	-10.2152
▁بشأن	-10.2155
▁Reklam	-10.216
▁Arama	-10.2162
▁المرأة	-10.2163
▁ekonomik	-10.2163
▁personel	-10.2171
▁Ligi	-10.2172
ത	-10.2174
უ	-10.2176
▁Har	-10.218
-4	-10.2182
▁hakkı	-10.2185
▁دبي	-10.2186
▁Ke	-10.2187
南	-10.2189
kal	-10.2191
les	-10.2191
▁kullanarak	-10.2194
haber	-10.2197
73	-10.2197
▁Yapı	-10.2203
ER	-10.2209
كن	-10.221
▁beri	-10.2214
▁Fransa	-10.2216
ser	-10.2217
▁الز	-10.222
▁ام	-10.2222
▁w	-10.2226
liğe	-10.2227
▁अमेरिकी	-10.2228
▁ക	-10.2229
▁pro	-10.223
า	-10.2231
▁bizi	-10.2235
▁acı	-10.2236
▁بك	-10.2238
▁insanların	-10.2245
SE	-10.2245
ET	-10.2246
部	-10.2246
▁रिपोर्ट	-10.2248
▁yıldır	-10.225
RE	-10.2255
▁isimli	-10.2262
▁نتائج	-10.2262
乐	-10.2266
▁aslında	-10.2268
صور	-10.2269
▁(2)	-10.2276
▁رو	-10.2284
▁പ	-10.2285
hn	-10.2285
分类	-10.2286
▁gerekmektedir	-10.2288
▁Güvenlik	-10.2291
▁فنادق	-10.2293
2020	-10.2295
▁الشرق	-10.2296
▁Diyarbakır	-10.2301
▁kapalı	-10.2306
▁السياسية	-10.2307
▁Manisa	-10.2309
▁ürünler	-10.231
muz	-10.2311
▁İbrahim	-10.2313
▁eve	-10.2314
▁sert	-10.2315
中国	-10.2318
▁İn	-10.2319
▁yangın	-10.232
▁आने	-10.232
▁Yemek	-10.2325
Re	-10.2326
▁मांग	-10.2326
▁لما	-10.2333
اري	-10.2334
▁mobil	-10.2336
▁Ja	-10.2338
-10	-10.2344
റ	-10.2345
我们	-10.2348
▁Açıklama	-10.2348
rat	-10.2348
▁indirim	-10.2349
▁kart	-10.235
टा	-10.235
ınız	-10.2353
▁سوق	-10.2353
▁kaydetti	-10.2357
كس	-10.2358
so	-10.2361
▁olursa	-10.2361
بار	-10.2361
टे	-10.2364
▁Euro	-10.2366
▁عضو	-10.2368
دن	-10.2371
▁نهاية	-10.2373
▁الدفاع	-10.2378
ılması	-10.2378
▁üyesi	-10.2379
▁गिरफ्तार	-10.2383
▁İngiltere	-10.2386
ல	-10.2386
线	-10.2389
▁आपके	-10.2389
▁gösteren	-10.2391
OR	-10.2391
▁बंद	-10.2394
ंस	-10.2394
▁Peki	-10.2399
▁so	-10.2402
▁projesi	-10.2406
▁राम	-10.2407
▁kişilik	-10.2413
ğu	-10.2415
▁Grup	-10.2416
DEN	-10.2417
平	-10.2421
▁Yol	-10.2425
▁Yeşil	-10.2431
▁होती	-10.2431
▁sağlamak	-10.2434
▁olmaz	-10.2435
▁Sistemi	-10.2435
-11-	-10.2436
▁الطاقة	-10.2442
▁التسجيل	-10.2448
▁tane	-10.2452
▁dava	-10.2453
dür	-10.2454
▁معلومات	-10.2456
▁അ	-10.2458
ര്‍	-10.2459
▁कारखाने	-10.2462
▁आरोप	-10.2465
片	-10.2466
▁kaldır	-10.2466
▁İzle	-10.2467
▁yoktur	-10.2467
ion	-10.2468
▁Vali	-10.2468
▁ارتفاع	-10.2469
▁وهذا	-10.2472
▁çocuklar	-10.2478
▁Araç	-10.2483
▁المباراة	-10.2484
▁özelliği	-10.2488
▁girdi	-10.2489
▁öncesi	-10.2492
ائي	-10.2495
مة	-10.2496
ائية	-10.2497
▁थोक	-10.2501
▁Tayyip	-10.2501
▁motor	-10.2501
▁toplum	-10.2508
دو	-10.2509
mıza	-10.251
ali	-10.251
96	-10.251
CA	-10.2514
ana	-10.2514
▁Anne	-10.2515
▁milli	-10.2515
▁لأن	-10.2515
▁جي	-10.2516
▁köy	-10.2519
▁ko	-10.252
▁sev	-10.2526
▁Çevre	-10.2529
സ്	-10.2535
rma	-10.2536
▁إضافة	-10.2539
mis	-10.254
▁توفير	-10.2543
▁it	-10.2545
▁Ekle	-10.2546
▁sal	-10.2547
▁vergi	-10.2553
▁All	-10.2556
▁Fakat	-10.2557
0947	-10.2557
▁öne	-10.2558
▁futbol	-10.2558
▁kullanım	-10.2562
▁Çanakkale	-10.2564
▁Gençlik	-10.2571
▁bol	-10.2577
उ	-10.2577
نج	-10.2584
▁Oda	-10.2589
ından	-10.2592
cilik	-10.2592
▁benzer	-10.2594
▁Trabzon	-10.2595
▁فال	-10.2597
彩	-10.2598
▁منه	-10.2599
▁Köyü	-10.26
▁परिवार	-10.26
▁takımı	-10.2606
▁eş	-10.261
var	-10.261
▁52	-10.261
▁تنظيم	-10.2615
▁veriyor	-10.2616
跟	-10.2617
理	-10.2624
69	-10.2625
▁alarak	-10.2626
▁uluslararası	-10.2627
▁حقوق	-10.2628
UN	-10.2628
▁لاعب	-10.2628
gar	-10.2629
▁paket	-10.2629
▁We	-10.2637
▁محمود	-10.2637
▁Bayramı	-10.2638
快	-10.2639
▁Yok	-10.2639
abilecek	-10.264
▁Sitesi	-10.264
▁Fa	-10.2641
▁नजर	-10.2641
▁Göz	-10.2641
▁öğrenciler	-10.2643
سم	-10.2646
▁cep	-10.2648
रो	-10.265
▁46	-10.265
hat	-10.2655
▁انا	-10.2655
▁Mu	-10.2655
▁हिंदी	-10.2656
▁yara	-10.2659
▁المنتخب	-10.2662
ydı	-10.2665
▁Şanlıurfa	-10.267
트	-10.2672
78	-10.2675
3.	-10.2676
▁المياه	-10.2681
mıştı	-10.2683
▁حي	-10.2684
▁sınav	-10.2684
▁Bal	-10.2685
miştir	-10.2688
▁والا	-10.2689
lanma	-10.2689
rd	-10.2689
قل	-10.2691
بد	-10.2695
▁جهاز	-10.2695
▁جنوب	-10.2696
棋牌	-10.2699
ılma	-10.27
▁الاحتلال	-10.2701
▁مكتب	-10.2701
▁otobüs	-10.2702
▁المواطنين	-10.2707
عا	-10.2708
수	-10.271
mızın	-10.271
▁PKK	-10.2711
▁AKP	-10.2711
ker	-10.2712
▁banka	-10.2716
ag	-10.2718
器	-10.272
▁友情链接	-10.2721
-5	-10.2722
şa	-10.2722
▁Partisi	-10.2723
▁MHP	-10.2723
دار	-10.2726
▁kafa	-10.2727
▁Tarım	-10.273
İL	-10.273
رف	-10.2732
قول	-10.2738
▁modeli	-10.274
▁trafik	-10.2741
▁اخر	-10.2745
▁Eski	-10.2746
所	-10.2746
2015	-10.2748
一个	-10.275
▁Ekonomi	-10.275
▁باسم	-10.2752
▁خالد	-10.2753
▁duvar	-10.2756
▁dönüş	-10.2758
ova	-10.2764
▁akıllı	-10.2765
▁Şahin	-10.2767
▁عقد	-10.2772
▁نائب	-10.2774
情	-10.2779
▁ter	-10.2781
é	-10.2782
ائل	-10.2782
▁çalışması	-10.2785
▁اله	-10.2789
▁sorunu	-10.2795
女	-10.2795
▁Programı	-10.2795
台	-10.2798
92	-10.2802
▁मेरे	-10.2802
▁हाथ	-10.2802
动	-10.2803
▁بيت	-10.2811
▁未	-10.2815
▁belirtildi	-10.2817
▁المصنعة	-10.2818
▁श	-10.2821
▁पिछले	-10.2823
▁العاصمة	-10.2824
▁karşısında	-10.2827
74	-10.283
▁der	-10.2832
400	-10.2833
▁الوزارة	-10.2838
▁اس	-10.2848
▁değerlendirme	-10.2856
再	-10.2859
ி	-10.2859
ham	-10.286
▁Nur	-10.2863
▁Marka	-10.2865
▁المحلية	-10.2866
感	-10.2866
ff	-10.2867
▁bina	-10.2867
ds	-10.2867
▁الهاتف	-10.2869
زم	-10.287
ვ	-10.2871
▁Ders	-10.2875
mon	-10.2878
▁çiçek	-10.2878
特	-10.2882
▁meyve	-10.2883
▁yerel	-10.2885
▁faiz	-10.289
ği	-10.2891
▁الشرطة	-10.2893
▁İsrail	-10.2893
▁şirket	-10.2895
物	-10.2895
تا	-10.2897
اض	-10.2897
▁arka	-10.2899
وان	-10.2901
dığını	-10.2902
sak	-10.2904
▁bulabilirsiniz	-10.2905
型	-10.2909
▁sayılı	-10.2909
▁doğum	-10.2917
▁Yaşam	-10.2918
yım	-10.2922
▁स्कूल	-10.2925
pi	-10.2925
▁Uygulama	-10.2927
OL	-10.2929
▁التعاون	-10.2931
▁no	-10.2931
国际	-10.2933
▁الشهر	-10.2939
▁الأهلي	-10.294
▁Osman	-10.2941
िल	-10.2945
▁انت	-10.2947
وج	-10.2953
بين	-10.2954
▁ض	-10.2957
▁Sınıf	-10.2964
स्त	-10.2968
▁Pe	-10.297
▁الاخبار	-10.2972
▁الط	-10.2973
▁kaynak	-10.2974
▁öğren	-10.2974
▁قام	-10.2974
▁Galaxy	-10.2976
EM	-10.2977
63	-10.298
▁Yazı	-10.298
▁لأ	-10.2981
AM	-10.2981
성	-10.2981
ilmesi	-10.2985
رك	-10.2986
▁Güneş	-10.2991
同	-10.2994
▁8.	-10.2996
▁evde	-10.2997
▁Yıl	-10.3
İstanbul	-10.3003
fer	-10.3007
▁العلامات	-10.3007
▁यादव	-10.3008
▁شمال	-10.3011
▁kullanıcı	-10.3013
ก	-10.3013
量	-10.3013
56	-10.3019
▁çekti	-10.3021
ST	-10.3025
Com	-10.3027
▁अग	-10.3027
▁Şube	-10.3027
▁Ucuz	-10.3028
▁बैंक	-10.3034
▁eğer	-10.3039
品	-10.3039
▁resim	-10.3041
▁ta	-10.3041
▁मैच	-10.3042
▁yazılı	-10.3042
▁Yani	-10.3043
▁İç	-10.3043
【	-10.3045
िस	-10.3047
▁soruşturma	-10.3049
▁Kulübü	-10.3049
▁İran	-10.3053
▁الأطفال	-10.3056
▁dünyada	-10.3064
▁kazan	-10.3067
▁Tam	-10.3073
▁getiren	-10.3073
▁basit	-10.3074
يز	-10.3075
▁أمر	-10.3082
▁Ri	-10.3084
▁giden	-10.3087
▁madde	-10.3088
▁Güney	-10.3094
时间	-10.3094
▁رخيصة	-10.3095
▁sebep	-10.3095
iyoruz	-10.3104
▁müdahale	-10.3104
▁قوات	-10.3106
▁kalite	-10.3107
▁وكانت	-10.3108
▁bayram	-10.311
▁श्री	-10.3111
▁lazım	-10.3112
▁करीब	-10.3112
▁ölüm	-10.3113
라	-10.3116
▁başkanı	-10.312
▁مل	-10.3121
▁الأمريكي	-10.3125
▁تقرير	-10.3127
▁askeri	-10.3129
CI	-10.3131
▁लाल	-10.3135
▁bırak	-10.3136
▁نقطة	-10.3137
unun	-10.3138
ქ	-10.314
▁anlat	-10.314
▁geldiği	-10.3142
Sa	-10.3143
▁Car	-10.3143
气	-10.3144
دل	-10.3145
▁durumunda	-10.3146
▁1000	-10.3146
gun	-10.3146
yum	-10.3146
▁#2	-10.3147
▁ileri	-10.3147
▁فترة	-10.3148
diğini	-10.3149
pur	-10.3153
▁otomatik	-10.3154
inci	-10.3156
IR	-10.3156
▁करेंगे	-10.3157
▁art	-10.3163
学	-10.3163
0%	-10.3166
▁حد	-10.3168
sinden	-10.3169
장	-10.3171
ე	-10.3171
▁طالب	-10.3172
tt	-10.3177
DI	-10.3177
▁बजे	-10.3181
▁प्रधानमंत्री	-10.3184
▁जिले	-10.3184
▁san	-10.3187
▁Renk	-10.3187
▁पद	-10.3187
▁ख	-10.3188
▁الإنسان	-10.3189
▁خط	-10.3191
▁دقيقة	-10.3193
▁zorunda	-10.3193
▁علم	-10.3195
▁إنتاج	-10.3197
▁جودة	-10.3197
lanmış	-10.32
▁Irak	-10.3201
▁←	-10.3202
▁2006	-10.3209
▁hayal	-10.3211
app	-10.3211
رش	-10.3212
ർ	-10.3217
드	-10.3217
▁önüne	-10.3218
▁أما	-10.3222
ika	-10.3223
87	-10.3224
▁çünkü	-10.3226
▁kartı	-10.3227
▁işaret	-10.323
ımız	-10.323
ılacak	-10.3231
加	-10.3234
▁kurulu	-10.3234
▁işletme	-10.3236
▁गांधी	-10.3238
▁AB	-10.3239
▁kesinlikle	-10.3239
▁मो	-10.324
▁Mersin	-10.3242
ய	-10.3246
▁Anahtar	-10.3251
▁ली	-10.3252
利	-10.3258
▁Sakarya	-10.3258
自己	-10.326
▁الكاتب	-10.3261
▁الإسلامية	-10.3262
ട	-10.3265
▁çık	-10.3266
▁Dizi	-10.327
▁halde	-10.327
▁फोन	-10.3272
▁birisi	-10.3272
▁Sayın	-10.3273
상	-10.3275
▁च	-10.3277
▁mükemmel	-10.3281
▁bulmak	-10.3282
▁الأمم	-10.3282
▁بنسبة	-10.3283
▁बे	-10.3288
▁इ	-10.3289
▁seks	-10.3289
▁شي	-10.3291
▁ad	-10.3291
▁siteleri	-10.3292
▁ho	-10.3293
ina	-10.3295
▁هيئة	-10.3295
67	-10.3296
عي	-10.3296
城	-10.3302
▁51	-10.3302
طل	-10.3302
▁63	-10.3305
▁çalış	-10.3306
▁2018,	-10.3307
▁sol	-10.3315
جان	-10.3317
▁آلة	-10.332
▁adayı	-10.3324
▁Jo	-10.3328
▁وتم	-10.3329
▁oranı	-10.3338
▁مصدر	-10.3338
▁aşk	-10.334
UR	-10.3341
와	-10.3345
▁بجودة	-10.3345
▁सुरक्षा	-10.3345
▁التربية	-10.3348
定	-10.3349
电	-10.3349
luğu	-10.3352
하는	-10.3356
▁있습니다	-10.3358
79	-10.3361
▁أد	-10.3364
شاهد	-10.3366
相	-10.3366
▁غزة	-10.3367
▁amacı	-10.3368
nıza	-10.3368
-20	-10.3374
▁أهم	-10.3374
▁bölgede	-10.3375
▁عيد	-10.3383
太	-10.3385
화	-10.3386
اتها	-10.3387
▁आपूर्तिकर्ता	-10.3387
▁Için	-10.3389
▁القانون	-10.3389
▁مباشرة	-10.339
ez	-10.3391
Ğ	-10.3393
▁görüntü	-10.3395
▁üyeleri	-10.3398
▁You	-10.3399
▁العالمي	-10.3399
▁Servis	-10.3407
免费	-10.341
▁जहां	-10.341
▁İkinci	-10.3413
IT	-10.3416
▁الجهاز	-10.3418
val	-10.342
▁Del	-10.342
▁Hüseyin	-10.3421
cü	-10.3425
▁Pi	-10.3427
▁मुंबई	-10.343
▁Canlı	-10.3431
▁अलावा	-10.3432
▁siyasi	-10.3432
▁oyunları	-10.3432
▁birinci	-10.3432
eb	-10.3433
▁Şehit	-10.3436
क्ष	-10.344
▁sahiptir	-10.3442
▁रात	-10.3442
▁kon	-10.3444
▁مس	-10.3451
▁रुपए	-10.3453
▁الوصول	-10.3455
▁bağ	-10.3456
▁الخدمات	-10.3458
صح	-10.3458
her	-10.3459
▁ल	-10.346
▁Jan	-10.3464
▁Bilgisayar	-10.3468
غير	-10.3469
▁बी	-10.3471
▁54	-10.3472
رب	-10.3473
وال	-10.3474
神	-10.3475
▁cilt	-10.3475
af	-10.348
▁Modelleri	-10.3483
▁demek	-10.3485
यर	-10.3487
者	-10.3487
▁الل	-10.3488
فو	-10.3488
ex	-10.3489
▁ساعات	-10.3489
▁يوجد	-10.3494
▁أر	-10.3496
斗地主	-10.3496
▁Hasan	-10.3502
▁geçir	-10.3504
▁إنه	-10.3505
▁la	-10.3507
▁uygulaması	-10.3507
▁kendisine	-10.3508
▁روسيا	-10.3509
▁Ho	-10.3511
https	-10.3516
▁inceleme	-10.3516
▁लग	-10.3517
平台	-10.3518
amaz	-10.3519
TR	-10.352
▁تقوم	-10.3525
▁yapmış	-10.3526
▁ظل	-10.3526
▁Otelleri	-10.3533
ში	-10.3533
▁للت	-10.3534
▁izlenme	-10.3535
▁그	-10.3535
▁öğretmen	-10.3536
▁Hizmetleri	-10.3537
版	-10.3539
ति	-10.3539
liğini	-10.3539
▁बैठक	-10.354
如	-10.354
ده	-10.3541
▁Sun	-10.3543
▁جاء	-10.3543
▁nokta	-10.3548
िका	-10.3551
low	-10.3555
▁sar	-10.3556
▁تفسير	-10.3558
▁emekli	-10.356
▁yasa	-10.3561
cık	-10.3562
▁istedi	-10.3566
内	-10.3567
مع	-10.3568
▁seç	-10.3576
ന	-10.3576
▁السوري	-10.3577
800	-10.3579
▁Destek	-10.3581
▁خبر	-10.3581
星	-10.3584
王	-10.3585
▁कोर्ट	-10.359
▁2000	-10.359
▁لمدة	-10.3592
▁malzeme	-10.3592
bb	-10.3593
▁كر	-10.3595
▁ediliyor	-10.3596
جن	-10.3597
age	-10.3599
▁ateş	-10.3601
▁علاج	-10.3602
ม	-10.3602
▁آ	-10.3603
西	-10.3605
▁بالصور	-10.3607
يج	-10.3607
▁kadınlar	-10.3607
▁Con	-10.362
▁Va	-10.3622
▁iz	-10.3623
▁कार्य	-10.3626
rken	-10.3626
▁sefer	-10.3627
▁Fe	-10.3629
tem	-10.363
▁Inn	-10.3631
▁Gönderen	-10.3632
▁वाला	-10.3635
for	-10.3636
▁टी	-10.3642
ா	-10.3643
▁arkadaşlar	-10.3644
▁sonucunda	-10.3651
▁gündem	-10.3652
▁تعليقات	-10.3658
▁Mavi	-10.3659
▁Ki	-10.366
وش	-10.3661
나	-10.3664
▁नेता	-10.3665
▁(1	-10.3666
直播	-10.367
▁ثلاث	-10.367
फा	-10.3674
▁تُ	-10.368
cc	-10.3686
İM	-10.3689
lenmiş	-10.3691
▁ücret	-10.3691
سر	-10.3693
▁Post	-10.3695
▁चार	-10.3696
▁hg	-10.3696
▁दिए	-10.3697
▁Dil	-10.3699
رغم	-10.3699
▁مصنع	-10.37
▁Bilim	-10.3705
▁ई	-10.3705
▁ortalama	-10.3708
▁ابو	-10.3712
▁Özellikleri	-10.3714
▁दिनों	-10.3716
▁التركية	-10.3716
▁الوسيط	-10.3717
▁Grubu	-10.3717
▁जिसमें	-10.3718
ادي	-10.3718
▁कैसे	-10.3718
▁الطفل	-10.3721
हा	-10.3722
▁genelinde	-10.3723
▁إطار	-10.3723
Son	-10.3724
ياً	-10.3724
malı	-10.3724
▁زيادة	-10.3728
▁ekibi	-10.3729
▁Gazete	-10.373
▁الرد	-10.3737
▁yılda	-10.3737
玩	-10.3738
AY	-10.3741
▁ışık	-10.3743
▁belki	-10.3743
▁konuşan	-10.3743
▁döneminde	-10.3744
▁शहर	-10.3747
LIK	-10.3753
yorum	-10.3756
▁السوق	-10.3759
▁yarı	-10.3762
▁Ti	-10.3766
ร	-10.3775
اته	-10.3776
▁Gece	-10.3776
▁Kısa	-10.3779
▁Malatya	-10.3779
▁yaralı	-10.3779
ส	-10.3779
▁halk	-10.378
LİK	-10.378
白	-10.3783
▁الصحية	-10.3783
ோ	-10.3786
கள்	-10.3786
▁इसमें	-10.3787
▁yapmaya	-10.3788
ada	-10.3789
ili	-10.3789
▁Yorumları	-10.3791
▁Fiyatı	-10.3794
esi	-10.3798
▁كاملة	-10.3798
▁Beni	-10.38
ide	-10.3801
五	-10.3806
▁performans	-10.3807
▁बिहार	-10.3807
▁inşa	-10.3808
दार	-10.3809
就是	-10.3809
▁رفع	-10.3813
▁Bak	-10.3814
▁Gündem	-10.3818
شي	-10.3823
▁av	-10.3826
▁kaybetti	-10.3827
大家	-10.383
فة	-10.3832
▁الأرض	-10.3832
-09-	-10.3832
▁Lo	-10.3835
▁yıllarda	-10.3836
uyor	-10.3839
ட	-10.384
▁आम	-10.3847
▁İndir	-10.3848
▁كا	-10.3849
▁bar	-10.3851
2009	-10.3852
▁विकास	-10.3852
▁बाहर	-10.3852
▁seçenekleri	-10.3857
▁النشر	-10.3859
▁عمليات	-10.3859
ियां	-10.3862
ben	-10.3862
▁सब	-10.3863
▁وقالت	-10.3866
روب	-10.3869
▁Ca	-10.3869
▁İşleri	-10.3871
▁sonraki	-10.3874
▁بطولة	-10.3874
▁Havalimanı	-10.3875
tin	-10.3875
ंक	-10.3876
▁الجزائر	-10.3876
▁اب	-10.3878
lenme	-10.3878
▁Model	-10.3881
ciler	-10.3882
▁Download	-10.3883
eti	-10.3886
▁Harita	-10.389
600	-10.3891
nızda	-10.3892
▁adresi	-10.3893
入	-10.3896
百	-10.3897
▁सस्ते	-10.3897
gin	-10.3898
ağa	-10.3899
▁ok	-10.3907
▁hukuk	-10.3909
▁مُ	-10.3911
▁Ge	-10.3916
▁yoksa	-10.3919
▁मुताबिक	-10.392
▁बड़ा	-10.3921
▁الفلسطينية	-10.3921
▁link	-10.3922
▁مو	-10.3923
▁kullanma	-10.3924
dum	-10.3924
▁boş	-10.3928
▁giren	-10.3928
▁Mesajlar	-10.3929
▁عنه	-10.3929
▁€	-10.3931
没	-10.3934
ايا	-10.3935
acaktır	-10.3939
▁المنتج	-10.394
▁gel	-10.3941
澳门	-10.3941
▁dur	-10.3941
▁पहली	-10.3944
▁بداية	-10.3945
▁المصنعين	-10.3949
买	-10.3951
sunuz	-10.3954
جاز	-10.3959
ذا	-10.396
▁tip	-10.3962
▁अस्पताल	-10.3966
▁giy	-10.3966
ara	-10.3967
▁العمر	-10.3967
தி	-10.3971
En	-10.3971
თ	-10.3975
▁النفط	-10.3977
▁जैसे	-10.3978
▁Kaya	-10.398
▁yeşil	-10.3986
▁sıkıntı	-10.3987
üz	-10.3987
BA	-10.3988
▁كو	-10.3988
년	-10.3988
▁बि	-10.399
kları	-10.3991
正	-10.3992
▁नए	-10.3994
▁katılan	-10.3995
▁asker	-10.3995
▁etmesi	-10.3996
▁وأكد	-10.4
▁merkez	-10.4002
▁بوابة	-10.4005
▁इसी	-10.4007
式	-10.4009
论坛	-10.4011
▁yanıt	-10.4012
بال	-10.4012
▁yola	-10.4014
▁Geri	-10.4018
▁bileti	-10.4019
▁تصميم	-10.4024
▁Erzurum	-10.4024
▁inan	-10.4025
cik	-10.4026
回	-10.4029
▁koruma	-10.403
▁جمال	-10.4033
▁उप	-10.4034
▁مدريد	-10.4035
▁yapın	-10.4035
▁تع	-10.4036
▁शो	-10.4039
gerçekleştirilen	-10.4045
▁taşıma	-10.4048
▁مصادر	-10.4051
▁ölü	-10.4052
▁85	-10.4053
전	-10.4053
▁başlıyor	-10.4054
ov	-10.4054
▁söyleyen	-10.4058
9%8	-10.406
▁bulun	-10.4061
Ma	-10.4063
身	-10.4063
没有	-10.4064
टर	-10.4069
因为	-10.407
▁tahmin	-10.4071
▁خدمات	-10.4072
▁Ga	-10.4073
ans	-10.4073
makta	-10.4074
二	-10.408
▁işlemleri	-10.4081
▁yavaş	-10.4081
▁sevk	-10.4087
lanması	-10.4088
或	-10.4089
ach	-10.4094
لل	-10.4095
مل	-10.4095
▁العرض	-10.4097
laşma	-10.4097
ंत	-10.4099
وض	-10.41
▁1080	-10.4102
超	-10.4103
比	-10.4103
▁الحصول	-10.4104
▁शर्मा	-10.4104
▁telefonu	-10.4104
▁sınıf	-10.4105
पर	-10.4106
pp	-10.4106
▁मुख्य	-10.4107
▁एस	-10.4111
▁ला	-10.4112
▁Popüler	-10.4112
▁içerik	-10.4113
süz	-10.412
▁قدم	-10.412
▁erken	-10.4121
▁صفحة	-10.4126
▁الرابط	-10.4126
▁Yan	-10.4126
▁Hangi	-10.4128
▁içeren	-10.4129
▁سو	-10.4137
▁صوت	-10.4141
▁Neden	-10.4146
▁tatlı	-10.4147
▁kere	-10.4148
OS	-10.4148
▁arkadaş	-10.4149
包	-10.415
▁ब्रांड	-10.415
▁المناطق	-10.4151
▁Proje	-10.4151
्र	-10.4161
▁Sal	-10.4164
ilme	-10.4167
%0	-10.4169
0000	-10.4172
▁القدس	-10.4172
대	-10.4173
华	-10.4173
▁इंडिया	-10.4174
▁korku	-10.4174
▁sağlayan	-10.4175
▁imkanı	-10.4179
▁ra	-10.4184
▁güvenli	-10.4184
▁Bizim	-10.4184
▁yatak	-10.4187
ian	-10.4197
▁لدينا	-10.4198
▁جو	-10.4198
▁siyah	-10.4199
▁yorumlar	-10.4201
▁تعمل	-10.4203
▁موعد	-10.4204
▁ürünü	-10.4207
وى	-10.4208
▁Okul	-10.4208
ıyoruz	-10.4209
आ	-10.4211
▁Denizli	-10.4215
▁kendine	-10.4219
吧	-10.422
▁Tur	-10.422
▁वजह	-10.422
两	-10.4224
ტ	-10.4224
ये	-10.4226
▁verecek	-10.4227
الت	-10.4231
▁भर	-10.4231
▁City	-10.4235
▁ekonomi	-10.4237
▁كلمة	-10.424
▁المس	-10.424
意	-10.4243
▁परीक्षा	-10.4244
▁जिस	-10.4245
ค	-10.4245
طر	-10.4248
EN	-10.4253
▁Ziyaret	-10.4255
2000	-10.4257
▁yarın	-10.4258
▁mm	-10.426
▁süresi	-10.426
▁قانون	-10.4263
▁أعلنت	-10.4264
ப்	-10.4265
▁kırmızı	-10.4265
one	-10.4268
▁شيء	-10.4268
▁ثلاثة	-10.4274
▁حكم	-10.4275
▁vatandaşlar	-10.4278
aç	-10.428
▁Osmanlı	-10.428
▁rol	-10.4281
▁شو	-10.4282
▁نفسه	-10.4288
▁სა	-10.4291
▁Kayıt	-10.4291
▁اللي	-10.4293
▁نور	-10.4294
आर	-10.4295
▁الجسم	-10.4296
▁Oto	-10.4298
▁artış	-10.4299
bat	-10.4303
▁sevgi	-10.4304
▁مواضيع	-10.4304
▁بينما	-10.4306
▁Medya	-10.431
جة	-10.431
-10-	-10.4314
▁kurum	-10.4314
▁الإنترنت	-10.4319
ान	-10.4322
▁تفاصيل	-10.4324
在线	-10.4326
▁davet	-10.4331
▁دوري	-10.4332
▁الفيديو	-10.4333
▁600	-10.4333
▁başkan	-10.4334
▁متر	-10.4334
▁Az	-10.4335
▁görme	-10.4338
▁televizyon	-10.4338
▁حفل	-10.4341
▁العلاقات	-10.4344
▁altı	-10.4345
▁dosya	-10.4346
▁çoğu	-10.435
▁Live	-10.4353
port	-10.4355
▁kay	-10.4356
▁الو	-10.4357
▁tehdit	-10.4362
▁महीने	-10.4362
▁जीवन	-10.4363
▁sonu	-10.4364
▁الحالي	-10.4366
bil	-10.4369
▁اللقاء	-10.437
▁السورية	-10.4371
क्स	-10.4373
ेड	-10.4374
▁İsmail	-10.4376
▁66	-10.4378
baş	-10.4378
».	-10.4379
▁Kişi	-10.4382
تد	-10.4384
KA	-10.4384
▁نسبة	-10.4386
▁edilir	-10.4399
▁आया	-10.44
AB	-10.44
ırken	-10.4402
▁haberler	-10.4404
▁58	-10.4405
▁11.	-10.4405
▁49	-10.4405
த	-10.4406
元	-10.4407
IL	-10.4409
商	-10.4409
▁düşün	-10.4409
요	-10.4409
她	-10.4409
时时彩	-10.441
AR	-10.4412
▁전	-10.4415
▁9.	-10.4418
▁diyor	-10.4418
▁Kal	-10.4423
/1	-10.4423
▁ifadelerini	-10.4426
بس	-10.4428
▁kent	-10.4429
▁الإلكترونية	-10.4431
ॉ	-10.4433
▁الحب	-10.4433
sem	-10.4434
ப்ப	-10.4434
▁شكل	-10.4435
قب	-10.4442
▁işe	-10.4445
DAN	-10.4447
▁Elektrik	-10.4451
把	-10.4457
▁تجاهله	-10.4459
▁رأس	-10.446
▁sarı	-10.4463
▁Paylaş	-10.4464
▁ödül	-10.4464
▁ME	-10.4466
posta	-10.4472
hal	-10.4474
▁مؤتمر	-10.4475
▁cok	-10.4476
▁bundan	-10.4478
▁보	-10.448
İT	-10.4481
▁الجزء	-10.4484
▁باب	-10.4485
▁orada	-10.4489
▁öz	-10.4489
मे	-10.449
▁Ön	-10.4494
ाय	-10.4496
mızda	-10.4497
yat	-10.4498
▁Gönder	-10.45
▁hal	-10.4503
▁يعمل	-10.4504
▁القطاع	-10.4504
▁Si	-10.4505
▁राष्ट्रीय	-10.4505
▁has	-10.4508
िन	-10.4513
إجمالي	-10.4518
▁çıkıyor	-10.4519
▁geçmiş	-10.4519
kara	-10.4519
▁कै	-10.4519
▁kadro	-10.452
▁beş	-10.4522
ımı	-10.4524
▁الجاري	-10.4526
▁yönetimi	-10.4529
门	-10.4529
▁भर्ती	-10.453
▁चाहते	-10.453
▁vs	-10.4532
▁St	-10.4533
▁صالح	-10.4534
avi	-10.4535
ig	-10.4535
▁aşağıdaki	-10.4535
டி	-10.4535
▁ملف	-10.4542
▁çizgi	-10.4543
▁st	-10.4547
▁Kurumu	-10.4551
eme	-10.4552
एम	-10.4552
▁yarat	-10.4556
बा	-10.4558
▁وح	-10.4559
▁bal	-10.4563
▁şüpheli	-10.4566
▁İÇİN	-10.4566
by	-10.4569
주	-10.4569
lari	-10.457
▁hata	-10.4572
▁One	-10.4575
▁meslek	-10.4575
▁büyü	-10.4576
zen	-10.4576
▁हालांकि	-10.4578
▁पांच	-10.4579
▁im	-10.4581
▁yapabilirsiniz	-10.4581
je	-10.4582
▁gitti	-10.4582
▁हाल	-10.4584
bra	-10.4585
▁yılın	-10.4592
▁Sp	-10.4594
▁البلد	-10.4595
კ	-10.4595
▁مد	-10.4597
LAN	-10.4597
▁||	-10.4598
▁ilanları	-10.4604
র	-10.4606
▁आगे	-10.4607
▁केंद्र	-10.4609
nan	-10.461
قيم	-10.4612
▁الرسمي	-10.4612
▁Sohbet	-10.4616
▁Müzik	-10.4616
▁modern	-10.4621
irken	-10.4622
▁تسجيل	-10.4626
ster	-10.4626
▁انخفاض	-10.4627
▁प्रदर्शन	-10.4628
▁Kargo	-10.4629
▁yerini	-10.4634
रण	-10.4636
▁Hem	-10.4637
▁vb	-10.4642
▁aktar	-10.4643
▁قصة	-10.4644
▁başlık	-10.4649
▁çek	-10.4651
▁بالنسبة	-10.4652
جين	-10.4653
▁ge	-10.4653
▁detaylı	-10.4655
▁futbolcu	-10.4657
▁çıkış	-10.4659
inizi	-10.4659
▁Kalite	-10.4659
സ	-10.4665
▁saatlerinde	-10.4668
أن	-10.4669
▁Yapılan	-10.4675
▁جريدة	-10.4676
▁ekip	-10.4676
lığını	-10.4677
▁المرحلة	-10.4679
▁etmektedir	-10.4679
▁Adet	-10.468
Ka	-10.4681
▁bunlar	-10.4682
▁बढ़	-10.4685
▁الحرب	-10.4688
ाव	-10.4688
▁القوات	-10.4689
▁LED	-10.4691
▁sonuçları	-10.4693
▁Koç	-10.4694
ilmiş	-10.4694
lardır	-10.4695
arı	-10.4696
热	-10.4699
香港六合彩	-10.4701
▁मामला	-10.4702
▁الذهب	-10.4702
▁हूं	-10.4704
▁kesin	-10.4704
▁tarifi	-10.4705
四	-10.4707
▁TripAdvisor	-10.4707
unda	-10.4708
▁istanbul	-10.4711
▁seri	-10.4718
▁Tel	-10.4721
üm	-10.4722
▁Bo	-10.4723
ted	-10.4723
▁İnşaat	-10.4725
▁nedeni	-10.4726
لى	-10.4729
▁tarihleri	-10.4731
▁أوروبا	-10.4732
▁Tasarım	-10.4732
▁بناء	-10.4733
▁Baba	-10.4735
▁sana	-10.4738
gün	-10.4739
▁خير	-10.4739
▁verir	-10.4741
▁ث	-10.4741
▁க	-10.4742
▁sistemleri	-10.4742
▁800	-10.4743
ضرب	-10.4744
▁bul	-10.4744
▁deprem	-10.4745
ंट	-10.4745
ينا	-10.475
slug	-10.475
▁sözleşme	-10.4751
▁diyerek	-10.4752
▁रि	-10.4754
tığı	-10.4757
ity	-10.4759
▁cam	-10.476
▁işçi	-10.4761
▁kampanya	-10.4764
uş	-10.4764
▁Per	-10.4768
▁anlaşma	-10.4768
▁bende	-10.4768
▁Am	-10.4769
·	-10.4769
®	-10.4775
▁कार्यक्रम	-10.4775
▁Kategori	-10.4775
madan	-10.4777
▁बच्चों	-10.4777
▁Motor	-10.4777
▁asla	-10.4779
客	-10.4781
▁وس	-10.4784
▁istiyor	-10.4786
▁حجم	-10.4786
▁هاتف	-10.4787
إ	-10.4791
▁كلمات	-10.4795
▁سا	-10.4795
LO	-10.4797
▁ayak	-10.48
صف	-10.4804
▁Siz	-10.4805
▁başlar	-10.4806
كون	-10.4806
Yeni	-10.4809
▁insanın	-10.481
0940	-10.4816
▁Ege	-10.4816
▁öğretim	-10.4816
▁सीट	-10.4819
▁gücü	-10.482
ล	-10.4821
▁شركات	-10.4825
▁Kas	-10.4828
▁يقوم	-10.4831
▁الدم	-10.4832
▁رغم	-10.4833
▁Not	-10.4834
▁Kaç	-10.4835
▁مختلفة	-10.4841
▁1.5	-10.4844
ep	-10.4845
दी	-10.4847
▁تطوير	-10.4849
▁إطلاق	-10.485
▁2005	-10.4851
yoruz	-10.4852
▁59	-10.4865
▁gül	-10.4866
ां	-10.4866
ولي	-10.4867
牌	-10.4872
47	-10.4873
▁بر	-10.4873
▁SE	-10.4874
▁ப	-10.4876
▁anlamda	-10.4877
▁أل	-10.4878
▁Kanal	-10.4878
მა	-10.4881
ih	-10.4882
مس	-10.4883
▁mahkeme	-10.489
▁hız	-10.4894
구	-10.4897
▁बयान	-10.4898
公司	-10.4899
ram	-10.4899
▁आवेदन	-10.4899
▁जबकि	-10.49
▁Ekran	-10.4902
▁alır	-10.4903
▁وأوضح	-10.4906
ീ	-10.4908
വ	-10.4908
▁full	-10.4909
▁Lisesi	-10.4917
▁افلام	-10.4921
kur	-10.4922
▁घायल	-10.4924
▁serbest	-10.4924
▁sinema	-10.4925
▁güvenilir	-10.4925
▁beslenme	-10.4925
至	-10.4925
▁قطع	-10.4926
▁आए	-10.4929
kaya	-10.4929
▁And	-10.4931
▁Bazı	-10.4932
gı	-10.4933
▁yıldız	-10.4934
İK	-10.4934
▁मिली	-10.4935
▁البحر	-10.4936
▁konuk	-10.4937
▁Bileti	-10.4939
▁بيع	-10.4942
र्स	-10.4943
-04	-10.4944
asyon	-10.4944
▁ton	-10.4945
▁kur	-10.4945
▁arasından	-10.4945
93	-10.4946
▁Trump	-10.4948
▁ettiğini	-10.4949
치	-10.495
▁والموردين	-10.4954
layarak	-10.4955
bay	-10.4959
▁Or	-10.4965
the	-10.4967
▁İtalya	-10.4967
▁الاست	-10.4969
北	-10.4974
▁Bayram	-10.4974
▁Turları	-10.4976
طب	-10.4976
▁lider	-10.4977
▁düşen	-10.4978
ish	-10.4979
▁أعلن	-10.498
▁मिला	-10.4985
▁وأشار	-10.4988
▁بث	-10.4989
▁स्थित	-10.4989
वार	-10.499
▁Kupası	-10.4992
▁Mobil	-10.4992
▁बीजेपी	-10.4992
▁başlayacak	-10.4995
》	-10.5
مار	-10.5001
▁çıkma	-10.5001
type	-10.5001
جز	-10.5004
▁Kırmızı	-10.5005
▁Fotoğraf	-10.5005
▁لكرة	-10.5006
Al	-10.5006
▁الإدارة	-10.5008
▁kol	-10.5013
▁içine	-10.5014
▁البنك	-10.5016
▁Kol	-10.5017
த்த	-10.5019
▁İngilizce	-10.502
▁Yusuf	-10.5022
实	-10.5022
▁olumsuz	-10.5025
▁ihtiyacı	-10.5028
▁forum	-10.5029
▁اللغة	-10.503
ി	-10.5031
▁emin	-10.5033
▁Paris	-10.5034
▁يقول	-10.5035
حة	-10.5041
larımızın	-10.5042
▁القسم	-10.5044
▁yaşama	-10.5048
▁बदल	-10.5048
通	-10.505
放	-10.505
res	-10.5051
▁zengin	-10.5051
▁तहत	-10.5051
▁Digg	-10.5051
حل	-10.5052
▁cinsel	-10.5053
icio	-10.5055
▁sanayi	-10.5055
▁aktif	-10.5057
طو	-10.5057
▁doğa	-10.5059
ப	-10.5059
하	-10.5059
▁kış	-10.5061
▁kalp	-10.5061
的人	-10.5062
▁numarası	-10.5064
ince	-10.5065
▁डी	-10.5065
▁kişilerin	-10.5066
▁makinesi	-10.5068
»،	-10.5068
회	-10.507
▁बच्चे	-10.5071
▁रो	-10.5072
▁عقب	-10.5073
▁56	-10.5076
▁Sayısı	-10.5077
▁karşılaşma	-10.5079
▁kalma	-10.5081
▁الفندق	-10.5081
▁محافظ	-10.5082
▁المواقع	-10.5083
▁Published	-10.5086
▁zevk	-10.5091
शन	-10.5094
▁mah	-10.5098
":"\	-10.5099
▁hafif	-10.5099
油	-10.51
4%	-10.5102
▁إعادة	-10.5102
▁saha	-10.5103
diğiniz	-10.5104
kent	-10.5106
UM	-10.5108
yız	-10.5109
位	-10.511
更	-10.5111
▁yaka	-10.5112
▁co	-10.5114
▁olmaya	-10.5115
-12	-10.5116
ng	-10.5118
/4	-10.5118
ନ	-10.5121
▁Caddesi	-10.5127
▁الأوسط	-10.5129
▁Gerçek	-10.5131
▁işler	-10.5132
ும்	-10.5133
▁sergi	-10.5135
▁Un	-10.5136
流	-10.5139
▁عبدالله	-10.5139
博彩	-10.5141
EY	-10.5145
tv	-10.5146
▁açtı	-10.5148
进	-10.5152
ार	-10.5154
▁görsel	-10.5154
▁gazete	-10.5155
▁افضل	-10.5156
سن	-10.5158
▁وبعد	-10.5161
▁يقدم	-10.5163
ang	-10.5165
▁babası	-10.5179
▁Diş	-10.5179
▁सोमवार	-10.5179
▁işte	-10.518
▁Kaynak	-10.518
▁الأخرى	-10.5183
▁CAD	-10.5184
▁إذ	-10.5185
▁Etiket	-10.5187
▁AL	-10.5192
دون	-10.5192
▁देख	-10.5193
▁olmasını	-10.5194
تان	-10.5194
-06	-10.5194
1,	-10.5196
إن	-10.5197
▁شا	-10.5197
▁नगर	-10.5198
▁61	-10.5199
▁تو	-10.5201
▁डे	-10.5201
▁okuma	-10.5204
▁hasar	-10.5204
▁العثور	-10.5206
▁Du	-10.5208
وني	-10.5209
ेस	-10.5211
tay	-10.5212
▁elbise	-10.5212
كان	-10.5216
▁호텔	-10.5219
हर	-10.5226
▁işbirliği	-10.5228
iyorum	-10.523
数	-10.5231
▁आर	-10.5231
permalink	-10.5231
▁Digiturk	-10.5231
▁سواء	-10.5234
لك	-10.5237
ecektir	-10.5239
CE	-10.5239
▁ومع	-10.5241
图	-10.5241
▁الزمالك	-10.5243
하고	-10.5244
▁güneş	-10.5245
gül	-10.5253
lanır	-10.5255
게	-10.5255
جاب	-10.5255
请	-10.5257
ence	-10.5257
▁Çiçek	-10.5257
▁बाजार	-10.5257
▁सूचना	-10.5257
▁attı	-10.5259
▁boyutu	-10.5261
cy	-10.5262
cılar	-10.5262
ରେ	-10.5262
▁adres	-10.5265
▁Puanı	-10.5266
▁Tıp	-10.5267
ம	-10.5267
▁kaynağı	-10.5268
▁Akdeniz	-10.5278
şunları	-10.5279
1%	-10.5279
红	-10.5282
马	-10.5282
▁masa	-10.5284
üyor	-10.5285
▁süt	-10.5286
انية	-10.5286
▁Tan	-10.5288
▁Hakan	-10.5288
leyen	-10.5288
▁anlattı	-10.5291
▁لقد	-10.5291
看到	-10.5291
▁tasarımı	-10.5292
▁üretimi	-10.5294
داء	-10.5294
▁Sezon	-10.5295
朋友	-10.5297
▁renkli	-10.5298
▁السودان	-10.5299
▁Sultan	-10.53
▁तैयार	-10.5301
▁بان	-10.5304
▁Kış	-10.5308
ः	-10.5309
▁सुबह	-10.5309
▁bölümü	-10.531
其	-10.5311
▁المواضيع	-10.5313
▁yarış	-10.5314
qq	-10.5314
dık	-10.5315
▁होम	-10.5318
▁قتل	-10.532
▁الجمهورية	-10.5323
▁Ek	-10.5325
rit	-10.5325
▁कल	-10.5326
▁Resmi	-10.5327
ub	-10.5327
ard	-10.533
▁halı	-10.533
▁شباب	-10.5333
▁Bölgesi	-10.5334
游	-10.5335
▁لنا	-10.5335
▁لقاء	-10.5335
▁Orman	-10.5338
▁الإعلام	-10.5339
▁कु	-10.534
▁نظر	-10.534
▁जाती	-10.5343
•	-10.5345
Tİ	-10.5345
▁सम	-10.5346
▁--	-10.5347
ms	-10.5349
▁rengi	-10.5355
▁إسرائيل	-10.5356
▁बुधवार	-10.5362
▁bilinen	-10.5363
▁रहने	-10.5365
▁الاقتصادية	-10.5366
▁بوك	-10.537
اخ	-10.5371
东	-10.5372
▁>>	-10.5376
▁Kim	-10.5377
AF	-10.5379
▁bilgiye	-10.5383
▁sebebi	-10.5385
▁şık	-10.5385
دان	-10.5387
▁dijital	-10.5388
▁gizli	-10.5388
▁hayatı	-10.5389
▁tabi	-10.5389
5%	-10.5391
Ben	-10.5395
غا	-10.5399
带	-10.5401
▁فا	-10.5403
chi	-10.5404
▁ம	-10.5406
leşme	-10.5408
ED	-10.5409
كوم	-10.541
▁دفع	-10.541
ା	-10.541
ilecek	-10.5412
▁he	-10.5412
▁İlanları	-10.5413
▁पूरा	-10.5414
▁kira	-10.5415
▁açılan	-10.5416
▁hazırlanan	-10.5417
يها	-10.5418
▁عربية	-10.5422
▁53	-10.5422
يني	-10.5422
Ya	-10.5423
ว	-10.5423
▁nt	-10.5424
▁الهيئة	-10.5426
▁الأمير	-10.5427
94	-10.5429
ව	-10.5431
▁فلا	-10.5432
rs	-10.5433
▁Ata	-10.5436
lüğü	-10.544
▁Emre	-10.5442
▁geçtiğimiz	-10.5444
BO	-10.5446
▁99	-10.5448
▁57	-10.545
set	-10.5451
▁Erkekler	-10.5452
▁çay	-10.5452
▁المال	-10.5452
▁يد	-10.5454
عيد	-10.5454
▁हजार	-10.546
▁dik	-10.546
▁السياسي	-10.5465
▁प्रमुख	-10.5467
▁devre	-10.5468
▁con	-10.5468
▁es	-10.5469
▁الانتخابات	-10.5472
مت	-10.5476
и	-10.5477
工	-10.5477
The	-10.5478
ys	-10.5479
▁şeker	-10.548
할	-10.548
zer	-10.5481
▁بنات	-10.5481
Dİ	-10.5481
▁रह	-10.5482
حا	-10.5482
▁atan	-10.5483
▁البيانات	-10.5485
İR	-10.5489
▁मदद	-10.5494
पा	-10.5495
اتهم	-10.5495
▁Adres	-10.5495
▁binlerce	-10.5495
▁Han	-10.5498
▁düzenleme	-10.5498
▁Eş	-10.55
▁Kent	-10.5502
जन	-10.5503
▁الفني	-10.5505
lanıyor	-10.5505
▁سيارات	-10.5506
▁kişisel	-10.5506
▁وسائل	-10.5508
▁blog	-10.5509
▁المر	-10.5514
▁الحدود	-10.5515
غر	-10.5517
▁Ürünleri	-10.5518
meyen	-10.5518
-12-	-10.5518
آخر	-10.5522
▁bekliyor	-10.5528
▁teşekkürler	-10.553
زا	-10.5532
▁Par	-10.5532
▁هدف	-10.5532
▁ofis	-10.5535
▁صباح	-10.5539
▁Mini	-10.554
▁Stok	-10.5541
star	-10.5541
重	-10.5542
▁رسالة	-10.5542
▁المشروع	-10.5543
tri	-10.5543
▁Enerji	-10.5545
宝	-10.5547
▁हत्या	-10.5547
▁vakit	-10.5547
▁Latest	-10.5548
▁الطريق	-10.5552
▁rapor	-10.5556
आई	-10.5558
▁hd	-10.556
وات	-10.556
Kİ	-10.5563
La	-10.5563
▁bünyesinde	-10.5565
▁Ter	-10.5567
▁ச	-10.5567
▁Bodrum	-10.557
卡	-10.5572
▁विश्व	-10.5575
tiği	-10.5578
▁gösterdi	-10.558
▁72	-10.558
▁yolcu	-10.5582
▁غرف	-10.5583
▁Mobilya	-10.5585
che	-10.5586
▁yaralandı	-10.5586
▁را	-10.5587
球	-10.5589
▁BU	-10.559
▁köyü	-10.5591
▁ओ	-10.5593
tık	-10.5594
acağı	-10.5595
▁yaşadığı	-10.56
▁وكل	-10.56
면	-10.5602
▁aldım	-10.5603
▁قالت	-10.5605
▁Bas	-10.5608
IST	-10.5611
▁Hürriyet	-10.5611
▁समाचार	-10.5615
طة	-10.5617
▁po	-10.5618
ron	-10.562
▁olacağını	-10.5623
اث	-10.5623
▁Hafta	-10.5626
林	-10.5628
▁मंगलवार	-10.5628
▁कभी	-10.5628
▁^	-10.5629
▁alıp	-10.5633
-6	-10.5634
▁Böyle	-10.5634
▁فوق	-10.564
▁سعيد	-10.5641
▁etkisi	-10.5643
we	-10.5648
▁Deri	-10.565
▁toplantı	-10.5654
约	-10.5655
▁शेयर	-10.5655
▁aşırı	-10.5655
ks	-10.5658
▁üret	-10.566
▁الفلسطيني	-10.5671
قص	-10.5673
▁تناول	-10.5673
<	-10.5673
cam	-10.5674
▁Bunu	-10.5675
▁MP	-10.5676
▁فور	-10.5677
ந்த	-10.5678
▁kültür	-10.568
级	-10.5681
▁ilaç	-10.5681
▁hattı	-10.5681
▁कोरोना	-10.5682
▁مناطق	-10.5682
▁وع	-10.5684
▁kapat	-10.5688
▁كي	-10.5693
उसकी	-10.5694
▁uçuş	-10.5701
次	-10.5705
▁Eskişehir	-10.5706
▁أطفال	-10.5707
▁खुद	-10.5708
▁bölümünde	-10.5708
▁अलग	-10.5711
.....	-10.5713
▁62	-10.5713
▁Last	-10.5714
ხ	-10.5715
ச	-10.5716
رام	-10.5718
▁ضبط	-10.5718
|0	-10.572
lığın	-10.5721
3%	-10.5722
▁Hatay	-10.5725
ത്	-10.5725
▁açıklandı	-10.5727
彩票	-10.5731
▁გა	-10.5736
▁yasak	-10.5736
▁boya	-10.5736
▁iOS	-10.5739
▁Tatil	-10.5742
▁Oku	-10.5745
▁getir	-10.5746
▁دراسة	-10.5748
▁इसका	-10.5748
acağız	-10.5749
▁البرلمان	-10.5752
ன	-10.5752
meyi	-10.5753
ral	-10.5754
▁الثالثة	-10.5755
▁sizler	-10.5757
▁olmadan	-10.5758
ন	-10.5761
يون	-10.5764
gg	-10.5765
-03-20	-10.5765
ები	-10.5767
ib	-10.5773
ीन	-10.5773
▁होते	-10.5778
▁Cha	-10.5779
▁ortam	-10.5779
▁karakter	-10.578
▁Yine	-10.578
工作	-10.5781
▁سر	-10.5782
ku	-10.5784
lin	-10.5786
999	-10.5789
▁dev	-10.579
▁ulaşabilirsiniz	-10.5792
▁निर्माताओं	-10.5793
▁per	-10.5794
▁almaktadır	-10.5796
▁क्रिकेट	-10.5796
▁درجة	-10.5797
▁73	-10.5799
▁kızı	-10.5799
▁النار	-10.5802
Ba	-10.5805
lerimizi	-10.5807
▁park	-10.5807
يلا	-10.5808
▁स्थान	-10.5809
▁Takım	-10.5814
▁memnun	-10.5816
رين	-10.5816
▁Kullan	-10.5817
清	-10.5818
▁القادم	-10.5818
Ne	-10.5818
▁शुक्रवार	-10.5819
▁ülkenin	-10.582
lendirme	-10.5827
▁الكتاب	-10.5827
▁Kelimeler	-10.5832
şı	-10.5832
▁بحث	-10.5837
lt	-10.584
▁मुझे	-10.584
▁عروض	-10.5841
غل	-10.5844
▁sivil	-10.5845
▁yumurta	-10.5846
▁وكذلك	-10.5846
able	-10.5847
▁yaparken	-10.5848
▁महा	-10.5853
▁Metin	-10.5854
▁Ci	-10.5854
başı	-10.5858
▁First	-10.5859
▁etmeye	-10.586
▁daire	-10.5864
▁Bölümü	-10.5865
▁दूर	-10.5867
▁ulaş	-10.587
▁set	-10.587
▁acil	-10.5871
▁diyen	-10.5871
▁numara	-10.5872
▁योजना	-10.5872
▁va	-10.5873
先	-10.5873
▁alımı	-10.5874
▁سيتم	-10.5874
larımızı	-10.5878
▁hat	-10.5879
ظهر	-10.5879
▁olmasına	-10.5882
▁الجميع	-10.5882
▁पहुंचे	-10.5883
▁eğitimi	-10.5884
▁ayakkabı	-10.5885
ize	-10.5886
▁düzen	-10.5888
▁fa	-10.589
▁tel	-10.5891
▁YENİ	-10.5891
▁öğrenildi	-10.5892
▁sektöründe	-10.5894
제	-10.5894
DER	-10.5894
مو	-10.5896
▁zamanı	-10.5897
▁ısı	-10.5898
▁സ	-10.59
▁fırsat	-10.5902
▁Benzer	-10.5903
my	-10.5903
mit	-10.5903
▁لذلك	-10.5904
▁दूसरे	-10.5905
▁fi	-10.5907
▁مست	-10.5911
city	-10.5911
▁süreci	-10.5913
▁أحدث	-10.5914
▁yazılım	-10.5914
-01-	-10.5917
▁مقر	-10.5918
ـ"	-10.5918
ை	-10.5921
lem	-10.5921
cr	-10.5923
OK	-10.5924
▁पहुंच	-10.5927
空	-10.5928
Te	-10.5929
▁Kılıçdaroğlu	-10.593
▁تعديل	-10.593
▁منتخب	-10.5931
جه	-10.5932
malıdır	-10.5934
▁par	-10.5935
▁bil	-10.5936
ارت	-10.5936
▁الموافق	-10.5937
▁yapısı	-10.5937
▁deneme	-10.5937
lamak	-10.5938
سير	-10.5939
▁yıllar	-10.5943
سب	-10.5943
▁عنها	-10.5944
让	-10.5945
▁Federasyonu	-10.5946
▁bence	-10.5951
▁moda	-10.5954
▁الاجتماعية	-10.5961
▁görüşme	-10.5961
▁المدير	-10.5962
صار	-10.5962
جار	-10.5966
acağını	-10.5966
▁Sonra	-10.5967
▁maçında	-10.5969
▁Men	-10.5969
ray	-10.597
IC	-10.5973
▁संख्या	-10.5977
▁öncesinde	-10.5978
ക്ക	-10.598
▁İlan	-10.5982
▁kesim	-10.5984
▁69	-10.5984
强	-10.5985
يرة	-10.5985
▁Olay	-10.5985
▁विधानसभा	-10.5985
▁düşünüyorum	-10.5986
▁த	-10.5986
▁تل	-10.5987
▁أنا	-10.5988
▁eklendi	-10.5991
▁المشاركات	-10.5992
▁المؤتمر	-10.5992
ris	-10.5995
▁الاتصال	-10.5999
-11	-10.5999
dikleri	-10.6003
体育	-10.6004
▁değişim	-10.6005
▁kiralama	-10.6009
que	-10.6013
▁views	-10.6013
▁edip	-10.6015
▁içeriği	-10.6016
sat	-10.6017
ائ	-10.6018
十	-10.6019
دفع	-10.6023
▁yapar	-10.6025
▁Sar	-10.6028
▁الخليج	-10.6029
lam	-10.6037
mayı	-10.6038
夜	-10.6041
TM	-10.6041
ting	-10.6042
▁عم	-10.6042
▁Meclisi	-10.6042
धा	-10.6044
▁İlgili	-10.6044
▁senin	-10.6045
De	-10.6045
▁olmuştur	-10.6046
GB	-10.6048
▁süren	-10.605
▁غرفة	-10.605
▁etkinliği	-10.6053
▁maçta	-10.6053
bit	-10.6057
▁كون	-10.6058
▁الجوية	-10.606
▁kitabı	-10.606
▁arkadaşı	-10.6062
▁July	-10.6062
手机	-10.6065
دية	-10.6065
▁şeyi	-10.6067
ük	-10.6068
▁Şubesi	-10.6069
▁şirketi	-10.6069
单	-10.6069
▁closed	-10.6069
▁मौजूद	-10.6069
Ã	-10.6069
▁Vakfı	-10.6069
소	-10.6071
▁yalnızca	-10.6072
ند	-10.6072
▁yaptır	-10.6073
دت	-10.6073
ා	-10.6073
إحدى	-10.6073
yse	-10.6076
▁World	-10.6076
▁dayan	-10.6077
▁sunan	-10.6077
▁mar	-10.6078
▁Üyesi	-10.6078
▁चला	-10.6079
▁Is	-10.608
▁İnce	-10.6082
▁मौक	-10.6084
▁حملة	-10.6085
▁وَ	-10.6086
نو	-10.6087
▁Artık	-10.6089
्ट	-10.609
▁Emlak	-10.6094
▁تس	-10.6095
بات	-10.6097
▁Oyunu	-10.6102
lenmesi	-10.6102
▁Ürünler	-10.6102
▁जगह	-10.6106
ضم	-10.6106
▁أرض	-10.6108
وة	-10.6109
▁boy	-10.6109
▁उनक	-10.6112
民	-10.6114
ıyla	-10.6114
▁açma	-10.612
▁döndü	-10.6123
▁lise	-10.6124
安	-10.6125
▁olumlu	-10.6126
▁popüler	-10.6126
▁yaptıkları	-10.6126
眼	-10.6126
wi	-10.6128
nt	-10.6128
مستشفى	-10.613
▁kıl	-10.6131
▁Fer	-10.6131
▁صباحاً	-10.6131
عود	-10.6133
وح	-10.6135
▁الدولار	-10.6136
▁kalın	-10.6137
▁صحة	-10.6139
ستر	-10.6147
▁فت	-10.6149
▁Ordu	-10.615
收	-10.6153
▁الأوروبي	-10.6154
▁पहचान	-10.6154
▁प्रकार	-10.6155
abiliyor	-10.6158
▁العراقي	-10.6158
▁düşünce	-10.6158
▁भाग	-10.6159
管	-10.6161
▁ilçesi	-10.6164
▁जान	-10.6164
▁geliştir	-10.6165
▁ذكر	-10.6167
▁Jandarma	-10.6169
ie	-10.6169
زو	-10.6169
غو	-10.6171
به	-10.6174
▁11,	-10.6174
▁Karşı	-10.6177
صاب	-10.618
▁عاما	-10.618
▁نو	-10.6181
▁आधार	-10.6182
्ल	-10.6182
syon	-10.6183
ების	-10.6183
▁günler	-10.6188
▁Mü	-10.6188
▁एन	-10.6189
bul	-10.619
▁सेना	-10.6191
▁usta	-10.6192
ത്ത	-10.6192
▁gerçekleştiril	-10.6193
्रणी	-10.6194
▁DA	-10.6195
▁Cam	-10.6195
▁Eğitimi	-10.6195
▁ـ	-10.6201
▁Asya	-10.6204
101	-10.6205
▁Br	-10.6205
▁छ	-10.6209
▁ticaret	-10.6209
保	-10.621
▁Din	-10.621
▁bahçe	-10.6211
集	-10.6211
里	-10.6211
站	-10.6215
NE	-10.6217
▁Kuzey	-10.6221
مين	-10.6221
▁وإن	-10.6222
▁tamam	-10.6224
▁الرياضة	-10.6225
0939	-10.6226
▁doktor	-10.6227
▁hepsi	-10.6229
lerdir	-10.623
لق	-10.6236
▁risk	-10.6236
▁بدء	-10.6237
▁yay	-10.6239
▁Karadeniz	-10.624
▁شقة	-10.6242
▁Arka	-10.6244
▁الحر	-10.6245
leniyor	-10.6246
▁şarkı	-10.6247
Ta	-10.625
▁Kazan	-10.625
▁eşya	-10.6255
طا	-10.6256
▁(3)	-10.6261
bel	-10.6263
0902	-10.6264
方	-10.6267
▁edebilirsiniz	-10.6269
▁जून	-10.6269
izm	-10.6271
▁Ülke	-10.6274
رى	-10.6275
▁çağrı	-10.6275
حم	-10.6276
▁Ü	-10.6277
جامعة	-10.6277
ره	-10.6279
已	-10.6283
قوم	-10.6284
▁ha	-10.6292
▁وسي	-10.6295
▁Konular	-10.6295
▁alanları	-10.6297
▁मंदिर	-10.6298
▁Kore	-10.6299
▁والمصنع	-10.6299
▁الهلال	-10.6302
▁sıkı	-10.6304
▁Hi	-10.6304
▁dahi	-10.6305
iliyor	-10.6312
ef	-10.6317
▁tıklayın	-10.6326
-0	-10.6326
▁सदस्य	-10.6326
▁शनिवार	-10.6326
▁HA	-10.6327
▁السابع	-10.6327
▁مي	-10.6328
▁Barış	-10.6329
▁konaklama	-10.6333
▁#3	-10.6333
▁اكثر	-10.6334
▁bomba	-10.6337
▁yük	-10.6341
قت	-10.6341
▁yön	-10.6341
▁almaya	-10.6344
وري	-10.6346
▁Hizmet	-10.6346
▁çalışıyor	-10.6348
才	-10.6349
الكات	-10.6349
▁وسلم	-10.6349
▁البيان	-10.635
don	-10.6353
▁المواطن	-10.6354
तर	-10.6355
غني	-10.6358
▁talebi	-10.636
▁الماضية	-10.6362
شا	-10.6365
يته	-10.6366
▁onların	-10.6368
▁lisans	-10.6369
ต	-10.6371
▁يوسف	-10.6372
▁الرابع	-10.6372
作	-10.6376
TAN	-10.6377
▁Rüyada	-10.6378
▁buldu	-10.6379
▁onları	-10.638
▁أيضاً	-10.6381
▁Power	-10.6381
▁البحرين	-10.6381
战	-10.6384
▁alternatif	-10.6385
▁उपलब्ध	-10.6385
▁Archives	-10.6388
▁kalem	-10.6388
▁genellikle	-10.6389
▁البر	-10.6391
所以	-10.6396
▁turizm	-10.6401
kat	-10.6403
dil	-10.6404
seniz	-10.6413
▁رابط	-10.6413
▁बड़े	-10.6414
ି	-10.6415
▁rüya	-10.6417
▁toplantısı	-10.6418
layın	-10.6419
ix	-10.6419
▁önemlidir	-10.6421
='	-10.6422
▁Read	-10.6422
lılar	-10.6427
üp	-10.6432
ड़ा	-10.6432
▁Jun	-10.6434
▁الأخير	-10.6435
▁sorunlar	-10.6436
▁makine	-10.6436
▁المح	-10.6438
eng	-10.644
▁gelişme	-10.6441
liğin	-10.6442
▁حكومة	-10.6442
▁Ayakkabı	-10.6443
▁Dublaj	-10.6443
▁ticari	-10.6443
▁युवक	-10.6443
▁Adam	-10.6443
▁yapılmış	-10.6445
تش	-10.6446
▁तेजी	-10.6449
▁Ku	-10.645
ledi	-10.6453
▁USB	-10.6453
▁Batı	-10.6456
▁yor	-10.6457
▁almış	-10.6459
▁bekleniyor	-10.646
▁ülkede	-10.6461
مناسبة	-10.6461
▁gaz	-10.6462
▁alınması	-10.6463
lerimize	-10.6467
▁حرب	-10.6467
▁SA	-10.6467
▁sözleri	-10.6468
UL	-10.647
选	-10.6471
Ä	-10.6472
▁ऑनलाइन	-10.6472
▁أمن	-10.6477
▁Sinema	-10.6481
▁اذا	-10.6481
ढ़	-10.6483
▁كشف	-10.6484
▁التفاصيل	-10.6485
▁मन	-10.6485
قد	-10.6489
▁Bakım	-10.6489
▁Uygun	-10.649
▁حياة	-10.6493
kleri	-10.6494
▁sunuyor	-10.6499
▁kısmı	-10.6499
▁مباريات	-10.6504
▁तब	-10.6504
▁السنة	-10.6505
▁아	-10.6505
▁Oyunları	-10.6507
هو	-10.6507
▁حلقة	-10.6507
▁लगाने	-10.6509
▁platform	-10.6509
افي	-10.6514
صب	-10.6519
▁ücreti	-10.652
▁Seçim	-10.6521
▁vermeye	-10.6522
ضيف	-10.6522
ورة	-10.6524
▁रन	-10.6527
▁ilişki	-10.6529
▁شرح	-10.6529
▁بهدف	-10.653
钓	-10.6531
▁सिर्फ	-10.6531
▁Abdullah	-10.6531
müş	-10.6533
ow	-10.6533
▁حسين	-10.6533
▁değeri	-10.6533
▁77	-10.6536
जे	-10.6536
▁Mer	-10.6537
▁जाए	-10.6537
▁الكبير	-10.654
▁حساب	-10.6541
ग्र	-10.6541
▁Cumhuriyeti	-10.6542
يوم	-10.6546
▁Tr	-10.6548
خل	-10.6549
▁taraf	-10.6549
▁seni	-10.6551
ย	-10.6552
▁가	-10.6556
原	-10.6556
▁मां	-10.6556
▁لإ	-10.6557
▁صلاح	-10.656
2010	-10.6561
▁लोकसभा	-10.6561
▁Plus	-10.6561
▁जाएगी	-10.6561
▁دليل	-10.6562
ง	-10.6564
▁शिक्षा	-10.6564
BI	-10.6565
▁kişiye	-10.6567
▁شر	-10.6569
خر	-10.6572
▁الاقتصاد	-10.6572
▁आरोपी	-10.6573
▁القلب	-10.6574
▁Of	-10.6574
▁paylaşım	-10.6576
▁Uğur	-10.6576
▁Yaş	-10.6581
▁Bahis	-10.6581
स्	-10.6582
राज	-10.6582
▁dinle	-10.6588
▁Gök	-10.6589
▁Bel	-10.659
▁AR	-10.6591
▁Sol	-10.6591
▁yayınlanan	-10.6592
ünün	-10.6592
▁otelleri	-10.6592
▁موقف	-10.6598
▁عربي	-10.6598
?”	-10.6598
365	-10.66
ेंगे	-10.6601
[/	-10.6603
▁toprak	-10.6609
عرف	-10.6609
▁주	-10.661
▁निर्देश	-10.6611
▁معرض	-10.6617
▁yakalandı	-10.6618
▁Mor	-10.6619
만	-10.662
龙	-10.662
▁होंगे	-10.6621
ি	-10.6622
ँ	-10.6623
▁تعرض	-10.6623
▁तरफ	-10.6624
mas	-10.6624
ğe	-10.6625
▁tedavisi	-10.6628
▁kuralları	-10.663
精	-10.6635
▁şikayet	-10.6636
▁Sivas	-10.6638
▁अंक	-10.6638
عاد	-10.6639
▁الإسرائيلي	-10.664
▁mesajı	-10.664
تل	-10.6641
▁شكرا	-10.6643
وث	-10.6643
▁الصف	-10.6649
▁üçüncü	-10.6649
▁सोशल	-10.665
▁रविवार	-10.665
▁مجرد	-10.665
▁गिर	-10.6656
▁eylem	-10.6657
فار	-10.6658
यों	-10.6659
▁للا	-10.666
▁dünyaya	-10.666
▁مح	-10.6663
▁Projesi	-10.6664
sından	-10.6671
▁kendisi	-10.6673
▁حديث	-10.6675
tti	-10.6678
식	-10.668
mur	-10.668
▁अच्छा	-10.668
▁buraya	-10.668
باط	-10.668
▁sektör	-10.668
▁سلمان	-10.6681
▁Bin	-10.6683
جا	-10.6683
">	-10.6685
▁asıl	-10.6685
പ	-10.6686
▁الفرنسي	-10.6686
IS	-10.6687
masını	-10.6688
▁cezası	-10.669
وط	-10.6691
▁Air	-10.6691
▁वा	-10.6696
▁الدور	-10.6696
mıyor	-10.6696
▁आग	-10.6697
oo	-10.6697
▁söyle	-10.6698
▁kazandı	-10.6698
lerimizin	-10.6701
▁संबंध	-10.6701
▁düzenli	-10.6701
زيد	-10.6704
▁yat	-10.6707
▁yetkili	-10.671
-02-	-10.671
▁Söz	-10.671
▁العليا	-10.671
▁कहना	-10.6712
محاولة	-10.6712
▁العملية	-10.6714
▁Okulu	-10.6717
▁مجلة	-10.6718
▁وصف	-10.6721
▁احد	-10.6723
부	-10.6724
Biz	-10.6724
▁Çek	-10.6726
▁बॉलीवुड	-10.6726
▁आदि	-10.6727
总	-10.673
▁hakim	-10.6731
▁Mat	-10.6732
▁أهل	-10.6734
▁71	-10.6735
▁Buna	-10.6739
▁مجانا	-10.6739
▁vi	-10.6741
▁değişiklik	-10.6741
▁القادمة	-10.6741
▁Mutfak	-10.6742
▁देते	-10.6743
▁bazen	-10.6744
نظر	-10.6744
▁Ber	-10.6751
VA	-10.6759
▁احمد	-10.6759
ong	-10.6761
▁करके	-10.6762
▁जल्द	-10.6762
▁un	-10.6763
tel	-10.6766
▁منهم	-10.6767
▁hoca	-10.6768
▁صيانة	-10.6769
接	-10.6769
黑	-10.6769
명	-10.677
▁Seyahat	-10.677
▁Işık	-10.6771
klarını	-10.6773
▁Doç	-10.6775
0928	-10.6775
kol	-10.6776
ny	-10.6777
طي	-10.6778
▁1-	-10.6781
log	-10.6782
▁المواد	-10.6782
▁iade	-10.6784
▁लिखा	-10.6785
▁Sev	-10.6789
▁उन	-10.6793
ud	-10.6794
款	-10.6795
RI	-10.6796
▁Muhammed	-10.6801
▁muhteşem	-10.6801
şi	-10.6802
▁وش	-10.6802
▁تشكيل	-10.6803
▁kedi	-10.6803
▁ulaşım	-10.6803
▁Böylece	-10.6804
ere	-10.6806
▁kendisini	-10.6806
▁我	-10.6808
▁68	-10.6808
▁Kon	-10.6809
▁misafir	-10.6809
ES	-10.681
▁!!	-10.681
▁Ab	-10.6811
▁büyüme	-10.6812
▁Alt	-10.6812
▁والد	-10.6814
يّ	-10.6815
حسن	-10.6819
▁bağlantı	-10.6819
给	-10.6819
TV	-10.6822
ذهب	-10.6823
قدم	-10.6831
▁istihdam	-10.6831
转	-10.6831
▁क्योंकि	-10.6831
▁PC	-10.6831
▁التركي	-10.6832
▁j	-10.6833
्यू	-10.6835
▁بحسب	-10.6835
▁Program	-10.6836
▁برج	-10.6838
▁درهم	-10.6839
▁çaba	-10.6839
▁Tag	-10.6841
▁bunları	-10.6842
▁गो	-10.6843
▁المحلي	-10.6845
还是	-10.6845
مثل	-10.6845
▁dönemi	-10.6845
اة	-10.6847
▁Yakın	-10.6857
▁إلي	-10.6858
▁geçerli	-10.6861
指	-10.6861
▁York	-10.6862
▁ऐसी	-10.6862
▁जनता	-10.6863
▁Müşteri	-10.6863
▁çerçevesinde	-10.6865
▁بالفيديو	-10.6867
يث	-10.6867
▁Gür	-10.6869
ثبت	-10.6869
▁البطولة	-10.6871
▁arttır	-10.6872
▁Süleyman	-10.6872
▁ليبيا	-10.6872
▁दिल	-10.6875
▁standart	-10.6879
▁paylaş	-10.688
Türk	-10.6882
▁düğün	-10.6883
▁Che	-10.6885
ill	-10.6885
888	-10.6887
ட்ட	-10.689
▁يصل	-10.689
▁फोटो	-10.6891
▁विदेश	-10.6892
▁الأن	-10.6893
▁فيروس	-10.6896
▁DO	-10.6897
▁cihaz	-10.6898
ld	-10.6905
▁gemi	-10.6905
▁अमेरिका	-10.6908
▁HABER	-10.6909
▁95	-10.6909
्या	-10.6913
ක	-10.6914
▁dua	-10.6915
▁एक्स	-10.6921
▁Bütün	-10.6922
问	-10.6922
处	-10.6923
▁الض	-10.6923
▁जिससे	-10.6924
▁istiyorsanız	-10.6924
▁yerli	-10.6927
ന്‍	-10.6927
▁السابقة	-10.6929
las	-10.693
▁Sağlığı	-10.6938
▁Satılık	-10.6939
只	-10.6941
▁Ru	-10.6943
▁पत्नी	-10.6943
▁esas	-10.6945
ِّ	-10.6946
裡	-10.6949
dy	-10.6952
yn	-10.6953
±	-10.6954
▁जनवरी	-10.6954
▁Günlük	-10.6955
▁फैसला	-10.6956
业	-10.6957
▁Yorumlar	-10.6957
بير	-10.6958
mal	-10.6959
▁soğuk	-10.696
▁اللاعب	-10.696
قاد	-10.6962
▁toptan	-10.6962
يان	-10.6964
▁Kamu	-10.6965
▁الفوز	-10.6965
بان	-10.6965
▁الفن	-10.6966
nci	-10.6966
▁çocukların	-10.6966
▁uyarı	-10.6967
AZ	-10.6972
▁खा	-10.6972
nizde	-10.6972
تعامل	-10.6976
û	-10.6976
▁Otobüs	-10.6977
▁kurulan	-10.6977
▁نقاط	-10.6977
▁onlara	-10.6978
▁Hazır	-10.6978
mde	-10.6979
▁राय	-10.6979
▁للأ	-10.698
▁Tipi	-10.6982
呢	-10.6984
▁नंबर	-10.6985
▁April	-10.6986
▁شارك	-10.6987
▁يعني	-10.6987
تى	-10.6988
▁ederken	-10.6988
▁nerede	-10.6988
قدر	-10.6991
rin	-10.6995
▁الوضع	-10.6996
▁Öte	-10.6996
til	-10.6996
▁toplu	-10.6996
▁पोस्ट	-10.6997
▁الرياضية	-10.6997
يتي	-10.7
्ड	-10.7002
▁Es	-10.7003
mişti	-10.7004
Mar	-10.7005
ائر	-10.7005
▁temsil	-10.7005
▁Sokak	-10.7006
▁12.	-10.7009
▁भेज	-10.701
▁برشلونة	-10.7011
▁Konut	-10.7013
▁خارج	-10.7013
▁den	-10.7014
▁आदेश	-10.7016
▁olmayı	-10.7018
▁الأكثر	-10.7018
▁شعر	-10.7019
tes	-10.7019
Se	-10.7019
▁Kartal	-10.702
▁final	-10.7022
▁देखा	-10.7023
cek	-10.7023
ılarak	-10.7025
سك	-10.7028
▁بد	-10.7029
gal	-10.7029
▁نسخة	-10.703
kon	-10.703
masına	-10.7032
▁HDP	-10.7033
▁sürüyor	-10.7033
▁المركزي	-10.7037
شار	-10.7038
▁kamp	-10.7038
▁공	-10.7039
▁sokak	-10.704
ائه	-10.704
oloji	-10.704
ليرة	-10.7042
ارات	-10.7042
एल	-10.7042
信	-10.7045
▁राहुल	-10.7046
▁أعضاء	-10.7046
▁Koca	-10.7047
阿	-10.7047
▁Kapı	-10.7047
▁سيكون	-10.7048
▁uyumlu	-10.7049
▁Ceza	-10.7049
▁evinde	-10.7049
▁الحي	-10.705
ிய	-10.705
▁جر	-10.705
▁alabilirsiniz	-10.7052
▁يعد	-10.7053
▁noktasına	-10.7054
▁sevgili	-10.7055
▁sorular	-10.7056
▁oteller	-10.7057
▁لهذه	-10.7058
▁الاجتماع	-10.7059
▁inşaat	-10.7059
▁وصول	-10.7062
index	-10.7063
▁anlam	-10.7063
▁Evet	-10.7064
▁savunma	-10.7071
▁تصل	-10.7074
eceğini	-10.7074
▁yalnız	-10.7074
영	-10.7074
鱼	-10.7077
肉	-10.7077
ေ	-10.7078
▁doğrultusunda	-10.7078
▁sürpriz	-10.7078
▁istiyoruz	-10.7079
▁Düğün	-10.7079
▁zamanlarda	-10.708
▁etkinlik	-10.7082
▁ड	-10.7087
▁CO	-10.7088
▁derin	-10.7088
eği	-10.7091
ino	-10.7092
▁Kanunu	-10.7094
▁110	-10.7097
ğını	-10.7097
liler	-10.7097
İS	-10.7098
▁الث	-10.7103
▁Kır	-10.7103
▁bildirdi	-10.7104
ترو	-10.7104
格	-10.7107
钱	-10.7108
Haber	-10.7109
县	-10.7109
크	-10.7109
▁पूरे	-10.7109
سوق	-10.7109
▁والس	-10.7109
لح	-10.711
status	-10.711
▁Play	-10.7112
▁sağlığı	-10.7113
▁മ	-10.7114
อ	-10.7118
ും	-10.7118
▁garanti	-10.7122
▁gıda	-10.7125
▁दिवस	-10.7125
ves	-10.7127
▁شرق	-10.7128
layabilirsiniz	-10.713
▁oldukları	-10.7132
▁67	-10.7135
▁Alışveriş	-10.7137
▁Elbise	-10.7139
▁المختلفة	-10.714
▁उपयोग	-10.714
▁मूल्य	-10.714
▁tablet	-10.7141
▁Cep	-10.7142
▁yararlan	-10.7143
▁ورد	-10.7147
غال	-10.7149
باب	-10.715
-15	-10.7151
▁oyna	-10.7152
▁makale	-10.7154
▁gelin	-10.7155
▁olanlar	-10.7155
eceği	-10.7155
लो	-10.7156
▁şube	-10.7156
▁शाह	-10.7158
türk	-10.7159
▁kuş	-10.7165
▁اول	-10.7165
每	-10.7167
▁الحكم	-10.7167
▁2-	-10.7167
▁yönünde	-10.7169
▁sanatçı	-10.7169
▁كرة	-10.717
▁Star	-10.7171
▁ilginç	-10.7172
▁लगाया	-10.7173
Her	-10.7174
▁سعد	-10.7175
نز	-10.7176
▁Kahramanmaraş	-10.7176
▁وليس	-10.7176
/3	-10.7177
யில்	-10.7178
▁بغداد	-10.7178
▁üzerindeki	-10.7179
layacak	-10.7182
▁Dış	-10.7182
▁Times	-10.7184
▁yolları	-10.7186
▁II	-10.7187
سأل	-10.7187
/2	-10.7188
▁kanun	-10.7189
▁السياحة	-10.7189
▁كيفية	-10.719
يلي	-10.7191
gel	-10.7192
▁mavi	-10.7192
▁temizlik	-10.7192
▁gezi	-10.7194
▁Yönetimi	-10.7194
GA	-10.7195
▁olacağı	-10.7195
▁العسكرية	-10.7196
▁كار	-10.7197
▁حماية	-10.7201
▁कह	-10.7205
▁Geçen	-10.7206
HD	-10.7206
▁الخامس	-10.7207
▁صلى	-10.7209
طلق	-10.7209
▁الإلكتروني	-10.7209
ılıyor	-10.7209
▁bilgisi	-10.7211
▁التنمية	-10.7212
ريد	-10.7214
▁sorunları	-10.7214
وبة	-10.7219
tic	-10.7221
فيديو	-10.7221
▁करती	-10.7222
cılık	-10.7223
▁Pat	-10.7226
▁fatura	-10.7229
▁sitemiz	-10.7229
▁Müdür	-10.7229
ेशन	-10.7231
▁الشرقية	-10.7231
▁سابق	-10.7232
▁الطبية	-10.7234
▁الدورة	-10.7234
ight	-10.7234
▁Dışişleri	-10.7235
▁karşıya	-10.7236
▁Üniversite	-10.7236
▁ağ	-10.7236
▁Temel	-10.7236
▁سبب	-10.7238
▁الذى	-10.7238
▁katılım	-10.7239
▁الطلاب	-10.724
ebilecek	-10.724
حكم	-10.7243
▁الأمنية	-10.7244
▁بهذا	-10.7244
unuz	-10.7244
▁etmiş	-10.7246
▁التابعة	-10.7249
▁sor	-10.7249
بمدينة	-10.7252
▁MA	-10.7254
-14	-10.7256
يتها	-10.7258
diğimiz	-10.726
Ro	-10.726
meli	-10.7261
sf	-10.7262
्व	-10.7264
yer	-10.7265
▁جن	-10.7265
拉	-10.7267
ise	-10.7267
▁सवाल	-10.7267
▁onlar	-10.7268
▁fiyatlar	-10.7268
▁fayda	-10.7269
▁öğrencileri	-10.727
▁Karaman	-10.7273
▁_	-10.7274
tür	-10.7275
▁فن	-10.7276
انة	-10.7276
اذ	-10.7278
▁mağaza	-10.7278
▁النادي	-10.7278
▁bey	-10.7281
▁Renkli	-10.7283
-16	-10.7284
منذ	-10.7284
कि	-10.7284
ysa	-10.7288
ेश	-10.729
▁Bayrak	-10.729
▁أهداف	-10.7292
装	-10.7298
▁व्यक्ति	-10.7298
▁Daire	-10.7298
▁السلطة	-10.7299
▁kaybı	-10.7299
▁Herkes	-10.7299
▁yağmur	-10.7299
▁çelik	-10.73
▁عين	-10.7301
▁Şarkı	-10.7302
▁العزيز	-10.7302
▁bildirildi	-10.7305
HA	-10.7306
١	-10.7307
▁سير	-10.7307
......	-10.7309
▁अन	-10.731
▁رجل	-10.731
lit	-10.7311
▁Pan	-10.7312
▁سلسلة	-10.7312
▁سان	-10.7312
▁ऑफ	-10.7313
AC	-10.7313
मो	-10.7316
▁أقل	-10.7316
▁Mahkemesi	-10.7318
▁tecrübe	-10.732
KI	-10.7322
शा	-10.7324
▁Çanta	-10.7326
art	-10.7326
▁المنزل	-10.7327
一下	-10.7327
SPOR	-10.7328
▁tipi	-10.7329
▁जन	-10.733
▁sorumluluk	-10.733
ling	-10.733
▁बॉक्स	-10.7331
▁taşıyan	-10.7331
▁edil	-10.7332
▁Kolay	-10.7333
▁;	-10.7334
▁insanları	-10.7334
bin	-10.7335
▁سجل	-10.7336
▁firması	-10.7336
way	-10.7337
view	-10.7337
▁المرور	-10.7338
▁kullandığı	-10.7339
▁Satın	-10.734
▁Lu	-10.734
▁एम	-10.7342
str	-10.7343
dıkları	-10.7348
mes	-10.7351
bur	-10.7355
გ	-10.7357
▁NE	-10.7361
赛程	-10.7362
▁السلطات	-10.7362
▁kilometre	-10.7362
▁Duvar	-10.7363
▁وبين	-10.7366
▁تعلن	-10.7367
▁bilen	-10.7374
▁firmamız	-10.7376
▁أنّ	-10.7377
ريب	-10.7378
!!!	-10.7384
▁있다	-10.7385
▁गा	-10.7386
▁vatandaş	-10.7395
დი	-10.7395
▁الأحمر	-10.7395
▁सहित	-10.7396
▁more	-10.7396
▁लड़की	-10.7397
▁الفنان	-10.7397
▁Tarifi	-10.7398
▁تي	-10.7399
tma	-10.7399
ction	-10.7402
▁मान	-10.7403
▁ट	-10.7404
▁نهائي	-10.7404
▁March	-10.7405
▁सर	-10.7406
यू	-10.7408
قام	-10.7409
▁الدعم	-10.7413
▁tarzı	-10.7414
▁yak	-10.7416
هان	-10.7417
▁كلية	-10.7417
▁قراءة	-10.7419
▁Plan	-10.742
hen	-10.7421
▁Balıkesir	-10.7422
▁اختيار	-10.7422
▁deri	-10.7423
▁Acil	-10.7426
赌场	-10.7427
मान	-10.7429
▁बनाया	-10.7429
▁Önce	-10.7429
▁الطب	-10.743
▁Öğretmen	-10.7436
▁जाते	-10.7437
▁üretici	-10.7437
▁कार्ड	-10.7437
▁وفاة	-10.7438
COM	-10.7438
▁बाल	-10.7439
علام	-10.744
▁Elazığ	-10.744
cel	-10.7448
▁istediği	-10.7449
▁yapıl	-10.7449
▁دار	-10.7452
▁Üç	-10.7453
▁olmadı	-10.7453
خبر	-10.7454
راب	-10.7455
car	-10.7455
ou	-10.7455
▁Öğrenci	-10.7456
निक	-10.7456
▁मार	-10.7457
ite	-10.7457
▁Hu	-10.7457
▁أسرع	-10.7457
GE	-10.7459
فاء	-10.746
▁Sağ	-10.7461
台湾	-10.7461
▁belirli	-10.7461
▁dizisi	-10.7462
▁पीएम	-10.7462
▁Merhaba	-10.7464
ies	-10.7464
▁bakış	-10.7464
▁kaçak	-10.7465
▁عز	-10.7465
▁सो	-10.7465
▁gidiyor	-10.7466
▁வி	-10.7466
▁Metal	-10.7467
▁anlatan	-10.7469
ில்	-10.747
▁geçiş	-10.747
▁Mal	-10.7471
▁Araba	-10.7474
▁ألمانيا	-10.7475
▁June	-10.7475
▁gör	-10.7476
nizin	-10.7476
向	-10.7477
mayın	-10.7479
▁قامت	-10.7481
ே	-10.7484
▁kendilerini	-10.7491
및	-10.7492
▁Ünlü	-10.7492
Ge	-10.7493
▁सीमा	-10.7493
▁hapis	-10.7495
yken	-10.7495
-8	-10.7496
ूल	-10.7496
▁belirt	-10.7498
–	-10.7499
▁Kolye	-10.7502
▁olduğuna	-10.7503
▁मा	-10.7503
alı	-10.7503
▁الحكومية	-10.7504
▁çanta	-10.7505
ınca	-10.7507
▁झ	-10.7508
▁قضية	-10.7508
▁მო	-10.7509
yl	-10.7509
▁الدخول	-10.751
ونة	-10.7512
UK	-10.7512
▁doğrudan	-10.7513
ثق	-10.7513
▁ihale	-10.7518
▁hastane	-10.7521
▁mo	-10.7522
▁bakan	-10.7522
lek	-10.7522
▁छोड़	-10.7522
▁Basketbol	-10.7524
▁प्राप्त	-10.7524
香	-10.7524
▁gözü	-10.7525
▁çöz	-10.7525
باء	-10.7526
▁kullanmak	-10.7528
▁sınır	-10.7528
ılabilir	-10.7529
0.000	-10.7532
▁Güven	-10.7534
ary	-10.7535
▁النقل	-10.7538
▁hesabı	-10.7538
▁यू	-10.7539
▁Değer	-10.7543
▁Maç	-10.7545
▁Fi	-10.7545
▁English	-10.7546
▁önceden	-10.7547
▁Yardım	-10.7547
▁دخول	-10.7548
▁ملابس	-10.7549
▁planı	-10.7552
राम	-10.7552
ेज	-10.7555
▁98	-10.7555
رض	-10.7557
▁ध्यान	-10.7557
▁yedek	-10.7557
▁وحدة	-10.7558
▁görülen	-10.7558
▁खास	-10.756
▁मह	-10.7561
list	-10.7563
123	-10.7565
▁koronavirüs	-10.7568
▁المهندس	-10.7569
▁January	-10.7572
▁November	-10.7573
▁Sel	-10.7574
PE	-10.7575
ரி	-10.7577
lerim	-10.7577
▁Alanya	-10.7578
ING	-10.7582
▁Em	-10.7583
/12/	-10.7584
▁zam	-10.7585
Sen	-10.7586
İş	-10.7587
RO	-10.7587
	-10.759
却	-10.759
▁गयी	-10.759
▁كذلك	-10.759
▁Yatak	-10.7591
▁उत्पादन	-10.7592
▁बिना	-10.7592
hir	-10.7595
▁ç	-10.7595
▁البرامج	-10.7597
جمع	-10.7597
▁dağ	-10.7598
▁الحل	-10.7598
▁millet	-10.76
name	-10.7601
lenir	-10.7601
▁hayırlı	-10.7603
او	-10.7604
▁zel	-10.761
现在	-10.761
▁Ed	-10.7611
عين	-10.7614
İŞ	-10.7614
▁duyurdu	-10.7618
يدي	-10.7618
SU	-10.7618
▁doku	-10.7623
9%84%	-10.7623
لين	-10.7624
▁porno	-10.7625
▁Basın	-10.7628
▁등	-10.7628
▁kalitesi	-10.7629
ــــ	-10.763
▁Art	-10.763
▁معظم	-10.763
ريك	-10.763
/5	-10.7633
şan	-10.7634
▁çıkacak	-10.7635
▁ulaştı	-10.7638
طلب	-10.764
▁78	-10.764
▁anlama	-10.7642
▁yerleri	-10.7645
▁81	-10.7648
TAR	-10.7649
▁المقبلة	-10.7654
▁yapabilir	-10.7655
活动	-10.7655
▁मार्च	-10.7656
eçtiğimiz	-10.7656
▁restoran	-10.7657
▁nakliye	-10.7658
▁महिलाओं	-10.7658
ரு	-10.7658
▁365	-10.7659
▁İSTANBUL	-10.7659
▁चर्चा	-10.7659
▁واست	-10.7662
▁88	-10.7663
rı	-10.7665
يلة	-10.7667
▁Fen	-10.7667
▁المحافظة	-10.7668
स्प	-10.7669
▁men	-10.767
▁الماء	-10.767
და	-10.767
▁منزل	-10.7676
▁fikir	-10.7679
▁Yu	-10.768
▁öğrencilerin	-10.7681
لعب	-10.7684
्म	-10.7684
▁والله	-10.7687
▁한	-10.7687
▁موسم	-10.7688
双	-10.7688
यदि	-10.7688
▁सीरीज	-10.7689
▁Isparta	-10.7689
EP	-10.7692
▁engelli	-10.7693
▁Kullanıcı	-10.7695
شق	-10.7697
▁Rehberi	-10.7699
▁الرسمية	-10.7699
▁herkese	-10.77
▁Gazi	-10.7701
▁herkesin	-10.7702
▁जल	-10.7704
த்து	-10.7705
layıp	-10.7706
ml	-10.7706
▁Dec	-10.7708
-9	-10.771
بيل	-10.7711
▁Hızlı	-10.7712
اخر	-10.7715
دور	-10.7717
نفس	-10.7718
▁KA	-10.7718
▁problem	-10.7718
▁यूरो	-10.7721
深	-10.7721
▁sorumlu	-10.7721
立	-10.7721
▁कार्रवाई	-10.7722
▁فرنسا	-10.7722
key	-10.7724
▁رجال	-10.7724
▁Hz	-10.7726
%25	-10.7727
▁katıldığı	-10.7731
iv	-10.7732
《	-10.7734
▁유	-10.7736
▁anlar	-10.7736
rar	-10.7738
▁اللعبة	-10.7738
ोर	-10.7739
▁ada	-10.7739
ය	-10.774
▁kendilerine	-10.7741
▁kumaş	-10.7742
▁perde	-10.7743
iyeti	-10.7744
▁यात्रा	-10.7745
ON	-10.7745
▁Doğum	-10.7748
▁Net	-10.7748
▁üzeri	-10.775
▁OL	-10.7751
间	-10.7752
▁kahve	-10.7755
▁Baskı	-10.7756
mb	-10.7758
▁देखने	-10.776
▁المتخصصة	-10.7761
▁تحديد	-10.7762
▁ഇ	-10.7762
▁있는	-10.7762
▁Belediyespor	-10.7764
layıcı	-10.7765
فيد	-10.7769
▁firmalar	-10.7769
▁yolda	-10.7779
▁yedi	-10.7779
kt	-10.778
▁odası	-10.7781
▁الآ	-10.7782
▁örgütü	-10.7787
▁AS	-10.7788
▁Mısır	-10.779
▁إليه	-10.779
▁العلم	-10.7791
▁العلاج	-10.7794
▁Düzce	-10.7794
▁النائب	-10.7794
amadı	-10.7795
▁eksik	-10.7795
▁جزء	-10.7797
▁vatandaşların	-10.7797
▁أنواع	-10.7798
▁كال	-10.7798
▁hakları	-10.7798
▁مؤسسة	-10.7799
▁markası	-10.7799
▁değerlendir	-10.7801
▁görevi	-10.7804
▁الفنية	-10.7804
بري	-10.7808
ani	-10.7809
▁시	-10.781
ai	-10.7812
▁organizasyon	-10.7815
▁نصف	-10.7817
▁कोशिश	-10.7822
▁जुलाई	-10.7822
ஸ்	-10.7822
):	-10.7822
▁belirtilen	-10.7823
ّد	-10.7824
▁mezun	-10.7825
▁Ham	-10.7826
▁대	-10.7828
▁piyasa	-10.7835
سون	-10.7837
▁مسلسلات	-10.7839
▁ID	-10.784
नि	-10.7842
0938	-10.7842
▁olduğunuz	-10.7843
medi	-10.7843
▁Dünyanın	-10.7843
▁yargı	-10.7845
ზე	-10.7846
şer	-10.7848
-7	-10.7849
▁يوتيوب	-10.7851
ASI	-10.7852
▁76	-10.7852
არ	-10.7852
▁Tak	-10.7854
▁شراء	-10.7854
gh	-10.7854
▁Bunlar	-10.7855
ୁ	-10.7855
▁रिलीज	-10.7855
▁स्वास्थ्य	-10.7856
▁डाउनलोड	-10.7856
▁बोर्ड	-10.7856
▁घंटे	-10.7857
▁Link	-10.7857
▁dolayısıyla	-10.7857
▁olmalı	-10.7857
مديرية	-10.7858
▁Yayınları	-10.786
kü	-10.7862
▁المحكمة	-10.7862
▁gitme	-10.7862
▁gelmesi	-10.7863
▁الإسلام	-10.7863
▁yık	-10.7867
▁سورة	-10.7867
▁barış	-10.7868
▁कप	-10.7868
▁koy	-10.7871
▁منظمة	-10.7873
▁kazanan	-10.7875
حتى	-10.7876
▁العين	-10.7876
▁Title	-10.7877
▁Roma	-10.7878
SS	-10.7885
Ana	-10.7885
▁Copyright	-10.7885
عمل	-10.7888
火	-10.7889
板	-10.7889
▁My	-10.789
▁अच्छी	-10.789
▁मोबाइल	-10.789
▁تعالى	-10.789
▁ortadan	-10.789
▁لله	-10.789
▁isterseniz	-10.7891
فاق	-10.7891
▁تح	-10.7894
0,	-10.7895
▁sürücü	-10.7897
▁virüs	-10.7898
▁إعلان	-10.7899
zo	-10.7901
▁sağlıyor	-10.7904
▁bitir	-10.7905
▁ولد	-10.7907
▁demir	-10.7908
▁uyar	-10.7909
▁पत्र	-10.7915
▁Sıcak	-10.7916
▁معه	-10.7917
tım	-10.7921
ران	-10.7921
此	-10.7922
yar	-10.7922
शी	-10.7923
용	-10.7923
▁गुरुवार	-10.7924
满	-10.7924
▁السيارة	-10.7924
▁अधिकारियों	-10.7924
▁पार	-10.7925
▁mevcuttur	-10.7925
لان	-10.7925
▁edeceğiz	-10.7926
▁وصل	-10.7929
▁umut	-10.7932
▁orman	-10.7933
▁الوزير	-10.7935
▁الخدمة	-10.7935
9%	-10.7937
▁kelime	-10.7937
▁Oldu	-10.7938
▁Üst	-10.7938
sar	-10.7945
▁Bolu	-10.7946
▁थाना	-10.7947
▁sonuna	-10.7947
▁ولاية	-10.7949
▁kanser	-10.7949
▁Date	-10.7951
▁don	-10.7951
▁February	-10.7952
rk	-10.7954
代	-10.7954
०	-10.7957
取	-10.7957
▁analiz	-10.7957
▁emniyet	-10.7958
هل	-10.7958
kli	-10.7959
▁olduklarını	-10.7962
▁الصحي	-10.7963
ंज	-10.7965
ɑ	-10.7965
ங்க	-10.7966
▁Microsoft	-10.7967
▁مرات	-10.7967
rek	-10.7968
▁BA	-10.7969
▁ağrı	-10.7972
▁tarz	-10.7972
▁Kombi	-10.7972
▁İngiliz	-10.7973
▁December	-10.7974
eceğiz	-10.7979
ิ	-10.7984
حفظ	-10.7986
र्ड	-10.7986
▁AY	-10.7987
▁duygu	-10.7989
▁....	-10.799
▁eleman	-10.799
▁Sak	-10.7991
▁मै	-10.7991
▁Kılıç	-10.7992
▁Durumu	-10.7994
Be	-10.7994
▁وكيل	-10.7997
▁आपकी	-10.7997
▁أب	-10.7999
قا	-10.7999
راد	-10.8
டு	-10.8
فعال	-10.8004
dem	-10.8005
▁işleri	-10.801
▁जवाब	-10.8011
▁sonuçlar	-10.8012
동	-10.8014
▁tehlike	-10.8015
جدد	-10.8016
▁taşı	-10.8018
قع	-10.8019
▁Alan	-10.802
▁Alman	-10.802
imizin	-10.8021
▁Komisyonu	-10.8021
ெ	-10.8025
▁प्रतिशत	-10.8026
▁फीसदी	-10.8026
米	-10.8026
ora	-10.8026
▁Yerel	-10.8027
فق	-10.8027
▁قيمة	-10.8027
حص	-10.8028
▁الطعام	-10.8029
▁belge	-10.803
▁sebebiyle	-10.803
▁It	-10.8033
▁kadınların	-10.8036
▁الجمعية	-10.804
IK	-10.8041
نس	-10.8042
▁grubu	-10.8043
▁saatleri	-10.8044
▁الحق	-10.8044
rim	-10.8045
2)	-10.8047
▁स्तर	-10.8048
नो	-10.8052
▁निर्माण	-10.8053
▁2.0	-10.8054
▁Tem	-10.8055
▁yöntemi	-10.8057
mayan	-10.8057
▁देखें	-10.806
هذه	-10.8061
pon	-10.8062
▁çalışmalarını	-10.8062
▁مقتل	-10.8063
▁Sınav	-10.8063
▁Bahçe	-10.8064
▁नया	-10.8065
▁تعد	-10.8069
▁8,	-10.807
▁hastalık	-10.8071
种	-10.8076
كين	-10.8076
▁सि	-10.8076
▁الحديث	-10.8078
मन	-10.8078
▁mobilya	-10.8079
▁الطرق	-10.8081
진	-10.8083
▁दल	-10.8083
▁أبطال	-10.8084
त्र	-10.8091
დ	-10.8091
▁Çocuklar	-10.8091
പ്പ	-10.8092
价	-10.8093
▁LG	-10.8093
喜欢	-10.8094
▁التطبيق	-10.8095
▁bisiklet	-10.8095
▁رفض	-10.8095
iya	-10.8095
tif	-10.8095
▁Öztürk	-10.8096
▁Valisi	-10.8096
▁تراجع	-10.8096
▁Tu	-10.8103
istan	-10.8104
▁düz	-10.8104
▁‬	-10.8106
但是	-10.8107
صدق	-10.8109
▁Makinesi	-10.8109
▁قوة	-10.8111
▁#4	-10.8111
▁(2	-10.8113
▁amaçlı	-10.8114
▁all	-10.8114
tom	-10.8119
▁القيام	-10.8125
घ	-10.8125
▁यूपी	-10.8126
ıyorum	-10.8127
▁وص	-10.8128
▁लगातार	-10.8129
▁önümüzde	-10.813
士	-10.813
▁الأشخاص	-10.813
▁يعتبر	-10.8132
തി	-10.8134
▁ser	-10.8135
▁بأنه	-10.8135
GS	-10.8136
استكشاف	-10.8138
▁ليست	-10.8138
jo	-10.8139
فن	-10.8141
ட்	-10.8142
რი	-10.8142
tör	-10.8143
德	-10.8143
▁الغربية	-10.8145
▁forma	-10.8148
▁سورية	-10.8148
▁مطار	-10.8151
▁Dikkat	-10.8153
▁Çift	-10.8154
▁فرصة	-10.8155
▁مواجهة	-10.8156
-18	-10.8158
düğü	-10.8161
▁Gıda	-10.8162
交	-10.8163
▁यूएस	-10.8164
운	-10.8164
▁सलमान	-10.8164
▁पसंद	-10.8164
▁August	-10.8164
▁yaygın	-10.8164
▁الامارات	-10.8164
▁huzur	-10.8164
▁çekici	-10.8165
صنع	-10.8165
▁الكمبيوتر	-10.8168
계	-10.8169
ala	-10.8169
▁AA	-10.817
shi	-10.817
▁بلغ	-10.8171
▁buradan	-10.8171
▁Firma	-10.8172
▁ku	-10.8175
▁96	-10.8176
.11.	-10.818
▁المجموعة	-10.8182
▁طرق	-10.8182
▁Selçuk	-10.8183
▁parçası	-10.8183
جري	-10.8185
真	-10.8185
常	-10.8186
▁olası	-10.8187
zon	-10.819
▁تصريحات	-10.8191
ربي	-10.8191
세	-10.8191
فه	-10.8191
िट	-10.8193
▁رائع	-10.8196
▁पेश	-10.8196
▁(0)	-10.8196
▁Savaş	-10.8197
码	-10.8199
连	-10.8199
▁endişe	-10.8199
▁فعاليات	-10.8199
▁sigara	-10.8199
▁चुकी	-10.8199
▁arıza	-10.82
▁itibariyle	-10.82
▁şok	-10.8201
▁79	-10.8202
▁İlçesi	-10.8204
▁자	-10.8204
sizlik	-10.8204
▁القرار	-10.8205
No	-10.8206
▁المسلحة	-10.8206
حصل	-10.8207
▁pas	-10.8207
▁buluştu	-10.8207
▁yapıldığı	-10.8208
ادة	-10.821
▁Jul	-10.8213
▁مواطن	-10.8214
▁أهمية	-10.8218
abilen	-10.8219
▁nda	-10.822
▁deneyim	-10.822
▁seçeneği	-10.822
ladığı	-10.8222
hr	-10.8222
▁نجوم	-10.8226
▁rezervasyon	-10.8228
▁2017,	-10.8229
▁المغربي	-10.8229
▁لان	-10.8229
▁2)	-10.8231
زال	-10.8234
관	-10.8234
▁TBMM	-10.8234
▁प्रियंका	-10.8234
▁şifre	-10.8234
▁Yüz	-10.8236
ضر	-10.8236
▁المصنع	-10.8237
ويل	-10.8237
▁بيانات	-10.8237
▁mini	-10.8239
▁हमला	-10.824
▁الواقع	-10.824
ola	-10.8241
▁حر	-10.8245
▁mp	-10.8245
▁दा	-10.8246
▁olduğumuz	-10.8246
▁TR	-10.8246
▁Savunma	-10.8246
▁Dev	-10.8247
▁المقرر	-10.8253
▁çocukları	-10.8254
这个	-10.8254
▁del	-10.8256
ंद	-10.8256
TÜ	-10.8257
비	-10.8262
▁기	-10.8262
▁edilmiş	-10.8262
pan	-10.8262
▁السفر	-10.8264
▁maske	-10.8268
편	-10.8269
▁LinkBack	-10.8269
▁शिकायत	-10.8269
▁erkekler	-10.8269
▁लिये	-10.827
▁सीएम	-10.827
▁خلف	-10.8273
▁مصطفى	-10.8273
يع	-10.8274
▁açılış	-10.8276
▁الأعلى	-10.8277
▁yorumları	-10.8277
▁أخر	-10.8279
gs	-10.828
▁الفيلم	-10.8283
▁arazi	-10.8285
▁تشرين	-10.8285
TO	-10.8286
▁edildiği	-10.8288
▁الحج	-10.8288
ilerek	-10.8289
«	-10.8292
▁Lisans	-10.8294
amp	-10.8294
▁içindeki	-10.8296
وزارة	-10.8303
▁टेस्ट	-10.8304
▁tarım	-10.8305
ebiliyor	-10.8305
يط	-10.8307
▁le	-10.8307
वें	-10.8308
▁ederiz	-10.8308
보	-10.831
▁2003	-10.831
▁يذكر	-10.8311
▁biçimde	-10.8312
▁मिलने	-10.8312
pınar	-10.8313
▁uyuşturucu	-10.8313
ء	-10.8313
ano	-10.8316
▁الأردن	-10.8317
▁Çay	-10.8317
▁الإرهاب	-10.8318
▁Ukrayna	-10.8324
mekte	-10.8325
▁paylaştı	-10.8325
▁Doğru	-10.8326
▁belgesi	-10.8326
▁وقف	-10.8327
Ra	-10.8328
达	-10.8333
▁aralarında	-10.8334
▁지	-10.8336
▁gurur	-10.8336
/05/	-10.8339
▁uç	-10.834
▁Kamera	-10.834
▁yapmanız	-10.834
▁nefes	-10.834
▁آلاف	-10.8341
شت	-10.8342
dağ	-10.8344
▁sak	-10.8345
▁sitesinde	-10.8345
ُّ	-10.8346
larım	-10.8347
ள	-10.8347
▁Technorati	-10.8347
▁Birinci	-10.8347
لون	-10.8349
▁والتعليم	-10.835
▁yalan	-10.835
our	-10.835
ire	-10.835
▁المست	-10.8352
Li	-10.8354
▁86	-10.8354
▁بنا	-10.8354
px	-10.8354
▁arkadaşları	-10.8355
▁Filmleri	-10.8357
ksiyon	-10.8357
▁düzenlediği	-10.8361
▁ضرورة	-10.8361
uf	-10.8362
▁görün	-10.8364
▁lideri	-10.8365
▁12,	-10.8365
ligi	-10.8366
هُ	-10.8367
▁geliştirme	-10.8367
▁Ziraat	-10.837
然	-10.837
照	-10.8375
▁750	-10.8375
월	-10.8375
开始	-10.8375
▁Kitabı	-10.8375
▁Hasta	-10.8375
▁ilave	-10.8376
什麽	-10.8376
डे	-10.8377
▁ülkemizde	-10.8377
▁kaybeden	-10.838
تمنى	-10.838
▁if	-10.838
▁masaj	-10.8383
لقى	-10.8384
▁الدراسة	-10.8384
mik	-10.8394
▁लखनऊ	-10.8396
变	-10.8403
布	-10.8405
قسم	-10.8409
▁الكرة	-10.841
▁क्यों	-10.841
▁القيادة	-10.8412
TER	-10.8413
▁دا	-10.8414
▁جهة	-10.8414
ണ	-10.8415
▁BE	-10.8415
试	-10.8416
ilebilir	-10.8418
▁Otomobil	-10.8419
▁Birleşi	-10.8426
】【,】【	-10.8428
▁بدر	-10.8429
▁EN	-10.8431
كار	-10.8433
▁Salonu	-10.8433
▁Cem	-10.8433
▁عليكم	-10.8433
▁girişimi	-10.8434
أم	-10.8434
▁pe	-10.8434
▁صف	-10.8439
▁ameliyat	-10.844
landığı	-10.8444
sunu	-10.8444
학	-10.8446
便	-10.8446
▁yazan	-10.8446
▁आयोजित	-10.8446
▁sayede	-10.8447
▁النواب	-10.8447
▁açıldı	-10.8449
▁صديق	-10.8451
▁farkı	-10.8452
▁نجم	-10.8452
▁محطة	-10.8454
▁الأميركي	-10.8455
▁قلب	-10.8455
راك	-10.8455
▁Bank	-10.8456
▁فان	-10.8457
▁memur	-10.8459
▁vücut	-10.846
▁وق	-10.846
▁عا	-10.8462
▁دو	-10.8465
رن	-10.8465
▁Bilgileri	-10.8466
▁olayı	-10.8466
ვი	-10.8468
Net	-10.8468
ღ	-10.8471
راء	-10.8471
▁ग्राम	-10.8473
0,00	-10.8476
▁Sat	-10.8476
း	-10.8476
▁الدفع	-10.8478
FE	-10.8478
적	-10.8479
▁kullanıcılar	-10.848
ct	-10.8481
زع	-10.8482
ture	-10.8482
▁kahvaltı	-10.8482
▁इसलिए	-10.8482
KS	-10.8482
▁hakaret	-10.8482
▁Gümüş	-10.8483
▁चुके	-10.8483
line	-10.8485
▁zemin	-10.8485
▁لماذا	-10.849
امي	-10.8496
▁başı	-10.8497
න	-10.8499
एन	-10.85
▁ortamda	-10.85
larınız	-10.8501
▁بإ	-10.8502
▁تر	-10.8504
▁الانترنت	-10.8504
▁مدرب	-10.8504
ثر	-10.8507
حد	-10.8516
▁metrekare	-10.8518
▁प्रशासन	-10.8518
راج	-10.8518
▁वालों	-10.8518
??	-10.8519
▁اتحاد	-10.852
▁دقائق	-10.8522
▁Hediye	-10.8526
▁çiz	-10.8529
▁October	-10.8535
▁RE	-10.8537
▁سيد	-10.8538
▁Öğretim	-10.8539
▁إبراهيم	-10.8541
▁your	-10.8542
▁घ	-10.8542
خط	-10.8542
▁bakın	-10.855
▁KO	-10.855
▁süper	-10.8554
▁افتتاح	-10.8556
▁vermektedir	-10.8557
▁제	-10.8558
▁جا	-10.8558
▁खरीद	-10.856
▁hızla	-10.8561
▁كريم	-10.8564
شم	-10.8565
ıldığı	-10.8565
▁दिखा	-10.8566
▁ध	-10.8567
▁المسلمين	-10.8568
▁anlayışı	-10.857
▁Boy	-10.857
▁yemeği	-10.8571
▁Kuru	-10.8572
▁gösteriyor	-10.8573
解	-10.8574
▁كانون	-10.8575
▁bunların	-10.8575
▁शिव	-10.8577
MAN	-10.8578
▁Aslan	-10.8581
见	-10.8583
ick	-10.8584
cer	-10.8586
▁2012,	-10.8586
▁أعلى	-10.8588
ड़ी	-10.8588
▁rk	-10.8589
▁इं	-10.8589
送	-10.8589
难	-10.859
▁داعش	-10.859
▁birbirinden	-10.8591
▁Açıklaması	-10.8593
ेंट	-10.8595
▁min	-10.8596
dere	-10.8596
▁عمان	-10.8597
وقف	-10.86
▁demokrasi	-10.8603
mat	-10.8605
▁kadının	-10.8606
▁hikaye	-10.8611
▁Don	-10.8613
▁Yunanistan	-10.8615
▁Dolar	-10.8616
-2019	-10.8616
▁adeta	-10.8617
▁kutu	-10.8622
▁الصورة	-10.8625
ंच	-10.8626
盘	-10.8626
Ko	-10.8627
-30	-10.8628
-2018	-10.8628
▁बने	-10.8631
▁योगी	-10.8633
شر	-10.8634
▁ER	-10.8634
▁altını	-10.8634
▁başarılar	-10.8636
ayet	-10.8639
▁hatırla	-10.8641
ლი	-10.8643
不是	-10.8644
▁tablo	-10.8646
▁düzenlendi	-10.8646
▁83	-10.8648
iç	-10.8649
教	-10.8649
▁الضغط	-10.8649
▁süreç	-10.8652
▁Şen	-10.8653
دّ	-10.8653
▁ja	-10.8654
▁pil	-10.8655
رجع	-10.8658
KAN	-10.8658
ाम	-10.8662
近	-10.8662
石	-10.8663
▁भाई	-10.8665
▁Yurt	-10.8666
انى	-10.8667
sy	-10.8669
▁keyifli	-10.867
▁أنت	-10.8671
BE	-10.8671
Co	-10.8672
ezilecek	-10.8672
▁was	-10.8672
▁بلا	-10.8673
▁adını	-10.8676
▁ს	-10.8676
روس	-10.8679
▁satışı	-10.8679
▁19,	-10.868
▁العلمي	-10.868
NET	-10.868
yacak	-10.8681
DO	-10.8681
▁العسكري	-10.8682
uc	-10.8683
ND	-10.8684
eş	-10.8688
▁Magazin	-10.869
ven	-10.8691
250	-10.8693
▁रखा	-10.8695
▁karşılık	-10.8695
ürü	-10.8696
جم	-10.8697
िम	-10.8697
传	-10.8698
▁sağlayacak	-10.8699
住	-10.87
▁تشغيل	-10.87
▁الإعلان	-10.87
▁ideal	-10.8701
▁banyo	-10.8701
▁pay	-10.8704
▁الأيام	-10.8705
▁tl	-10.8707
طار	-10.8708
▁مساعد	-10.871
▁gram	-10.871
▁पिता	-10.8711
▁جد	-10.8711
▁السادس	-10.8712
ेन	-10.8716
▁Kap	-10.8716
جلس	-10.8718
بعد	-10.8718
▁oranında	-10.8719
لية	-10.8722
10.	-10.8722
▁دورة	-10.8722
▁عبدال	-10.8726
par	-10.873
रिया	-10.8733
نوع	-10.8736
▁şarj	-10.8737
▁बारिश	-10.8738
▁adalet	-10.8738
▁اللواء	-10.8738
▁Super	-10.8738
▁üstü	-10.8738
▁लगी	-10.8739
▁birlik	-10.874
("	-10.874
▁يجعل	-10.8743
▁icin	-10.8744
2008	-10.8747
MP	-10.8748
▁विरोध	-10.8749
▁المدني	-10.8754
რა	-10.8757
并	-10.8757
▁جمعية	-10.8758
▁id	-10.8763
AH	-10.8765
Fi	-10.8765
▁Tut	-10.8766
▁Kapak	-10.8767
264	-10.877
هي	-10.8772
▁मिनट	-10.8774
▁المق	-10.8774
▁rahmet	-10.8775
ک	-10.8775
▁giderek	-10.8776
▁تعزيز	-10.8776
▁kullanılır	-10.8777
▁Onur	-10.8781
ريس	-10.8782
▁البيت	-10.8783
რე	-10.8783
ura	-10.8785
▁yasal	-10.8787
▁ö	-10.8789
க்கு	-10.8791
▁merkezinde	-10.8793
sion	-10.8793
▁heyecan	-10.8795
▁istifa	-10.8795
▁Amasya	-10.8795
KO	-10.8797
ls	-10.8799
قو	-10.8799
oc	-10.88
▁Tv	-10.88
▁rahatsız	-10.8802
▁Cami	-10.8805
▁तेज	-10.8805
▁والب	-10.8805
بى	-10.8805
uncu	-10.8807
nuz	-10.8808
▁işin	-10.8808
اسي	-10.8809
bs	-10.881
全讯网	-10.881
▁Mücadele	-10.8811
青	-10.8811
▁Yüksel	-10.8811
▁du	-10.8811
▁पढ़ें	-10.8812
▁alım	-10.8812
▁vermiş	-10.8812
2006	-10.8813
SO	-10.8814
▁مسؤول	-10.8816
▁मई	-10.8816
▁(4)	-10.8816
▁tartışma	-10.8818
▁ردود	-10.882
▁तौर	-10.882
فى	-10.882
▁पि	-10.8822
nik	-10.8825
yin	-10.8826
قطع	-10.8829
▁dakikada	-10.883
ൂ	-10.8832
pr	-10.8834
mesini	-10.8835
▁गु	-10.8837
▁bilir	-10.884
▁करा	-10.884
▁Başvuru	-10.884
▁Tatlı	-10.8843
بول	-10.8843
▁koşu	-10.8845
服务	-10.8847
category	-10.8848
ମ	-10.8848
▁बल	-10.8849
▁وبال	-10.885
sc	-10.885
▁मेरी	-10.8851
▁mutluluk	-10.8851
▁مرض	-10.8852
LL	-10.8852
节	-10.8854
如果	-10.8854
▁yüzünden	-10.8855
MI	-10.8857
ाने	-10.8857
▁özellikler	-10.8858
▁Meslek	-10.8858
▁KB	-10.8858
0932	-10.8859
别	-10.8859
▁Kadir	-10.8863
▁जे	-10.8864
▁Sam	-10.8864
▁Ses	-10.8865
▁örgüt	-10.8865
سيد	-10.8868
▁عودة	-10.8869
▁kavga	-10.8871
▁نصر	-10.8872
▁صغيرة	-10.8873
▁tutar	-10.8874
cha	-10.8874
ൻ	-10.8878
▁yürüyüş	-10.8878
nızın	-10.888
url	-10.8881
ेंद्र	-10.8881
▁شاب	-10.8884
▁धर्म	-10.8885
▁ممكن	-10.8886
▁المتوقع	-10.8889
▁tamamladı	-10.8889
▁فهو	-10.8889
dığınız	-10.8889
▁الكلمات	-10.8891
▁يست	-10.8891
landırma	-10.8893
Yorum	-10.8894
▁Uzman	-10.8894
ate	-10.8895
▁Uzmanı	-10.8895
▁بدأت	-10.8899
▁benzeri	-10.8899
▁인	-10.8902
▁tesis	-10.8904
▁bilet	-10.8904
ميل	-10.8904
▁vurgu	-10.8904
▁تعليم	-10.8906
▁الأم	-10.8906
ses	-10.8908
soy	-10.8908
▁Veri	-10.8909
▁patlama	-10.891
▁alış	-10.891
▁balık	-10.891
▁değişik	-10.8913
ücü	-10.8914
▁saati	-10.8915
पाल	-10.8917
▁74	-10.8917
त्त	-10.8917
六	-10.8922
▁bağış	-10.8922
러	-10.8923
들	-10.8925
▁يكشف	-10.8929
गर	-10.8929
▁hastalığı	-10.893
sit	-10.893
▁مدرسة	-10.8933
2.0	-10.8933
melidir	-10.8933
▁file	-10.8935
ائق	-10.8935
했다	-10.8935
bal	-10.8936
تن	-10.8938
▁تعلم	-10.8939
▁بالت	-10.8939
▁Terör	-10.8941
सिन	-10.8942
▁olduğundan	-10.8945
▁طرح	-10.8945
lon	-10.8945
▁türü	-10.8945
▁الحركة	-10.8945
▁Adresi	-10.8945
▁Hat	-10.8946
▁22,	-10.8948
▁inç	-10.8952
▁çekim	-10.8956
ائم	-10.8958
▁Dar	-10.8958
▁anında	-10.8959
运	-10.8959
▁silahlı	-10.8959
국	-10.8959
克	-10.896
OĞLU	-10.896
में	-10.8961
▁ملك	-10.8962
▁neredeyse	-10.8962
▁Rize	-10.8963
شركة	-10.8966
▁Yılı	-10.8968
▁bütçe	-10.8969
▁öncelikle	-10.8969
▁MI	-10.8971
▁나	-10.8975
▁topu	-10.8977
▁रा	-10.8977
▁مرور	-10.8978
▁125	-10.8978
▁kazanma	-10.8981
▁cami	-10.8981
▁onay	-10.8982
▁seviye	-10.8983
▁2.5	-10.8984
▁kısmında	-10.8985
▁الاقتصادي	-10.8986
▁Boz	-10.8989
daş	-10.8989
▁şekil	-10.8994
▁güvenliği	-10.8996
▁तस्वीर	-10.8997
▁yerden	-10.8997
▁नौकरी	-10.8998
▁लगभग	-10.8998
▁dayanıklı	-10.8998
▁koltuk	-10.8998
▁अगस्त	-10.8999
abil	-10.9
gü	-10.9
们	-10.9
▁düştü	-10.9001
नगर	-10.9001
▁जाना	-10.9004
ملك	-10.9005
▁الرائدة	-10.9006
▁gelmiş	-10.9006
▁التح	-10.9006
▁Fragmanı	-10.9006
▁selam	-10.9008
▁Pil	-10.901
▁بش	-10.9012
▁personeli	-10.9014
▁Dijital	-10.9015
ras	-10.9015
CO	-10.9017
▁Za	-10.9017
▁مترجمة	-10.9017
▁المغربية	-10.9018
▁المكتب	-10.902
حظ	-10.9021
حضر	-10.9021
▁28,	-10.9021
▁Pen	-10.9022
▁Arap	-10.9023
▁tuz	-10.9024
▁boyu	-10.9024
مه	-10.9025
现	-10.9025
yüz	-10.9026
ike	-10.9027
▁AN	-10.9028
all	-10.9028
▁seçimi	-10.9028
▁الأميركية	-10.9029
tak	-10.9029
▁وج	-10.903
▁yansıt	-10.9032
▁ayır	-10.9032
غلق	-10.9033
▁go	-10.9033
▁Resim	-10.9034
边	-10.9035
▁hızı	-10.9036
群	-10.9036
书	-10.9037
▁أدوات	-10.9037
▁مادة	-10.9038
▁Hastane	-10.9038
▁uyu	-10.9038
▁vererek	-10.9038
गढ़	-10.9039
vat	-10.9039
▁beğen	-10.904
lardı	-10.9043
▁PS	-10.9044
▁عنوان	-10.9048
▁bugüne	-10.9051
▁النساء	-10.9052
▁واشنطن	-10.9053
ug	-10.9053
عن	-10.9057
▁Eve	-10.9058
▁İnceleme	-10.9059
نق	-10.906
ّر	-10.9061
Kar	-10.9062
لات	-10.9062
laması	-10.9064
▁Muğla	-10.9065
▁قر	-10.9066
▁رائعة	-10.9067
iyo	-10.9069
▁Sabah	-10.907
▁केस	-10.9071
▁sizleri	-10.9071
رز	-10.9071
▁konser	-10.9074
▁Say	-10.9074
▁milletvekili	-10.9074
▁नरेंद्र	-10.9074
▁बिजली	-10.9074
▁राजस्थान	-10.9074
paşa	-10.9074
▁बेटी	-10.9075
▁باستخدام	-10.9075
▁السن	-10.908
▁एल	-10.908
</	-10.908
▁البا	-10.9081
date	-10.9081
▁وك	-10.9082
▁Has	-10.9082
▁SON	-10.9083
▁डि	-10.9084
بك	-10.9084
▁13,	-10.9086
▁gitmek	-10.9087
▁शाम	-10.9088
bas	-10.9089
▁ذو	-10.9091
َّ	-10.9092
علم	-10.9093
▁منتجات	-10.9095
+1	-10.9096
fir	-10.9097
▁terk	-10.9098
▁git	-10.9101
▁yöntem	-10.9102
▁Instagram	-10.9103
out	-10.9104
بدأ	-10.9106
▁رب	-10.9107
▁kahraman	-10.911
落	-10.9111
▁edilecek	-10.9112
粉	-10.9112
▁maddi	-10.9112
▁Ye	-10.9112
▁रोल	-10.9113
▁Kürt	-10.9114
AV	-10.9115
▁olmaktadır	-10.9115
شير	-10.9115
▁الحد	-10.9116
lor	-10.9117
▁عرب	-10.9118
▁ത	-10.9122
▁الثقافة	-10.9123
▁المستوى	-10.9123
▁आवश्यकता	-10.9123
新闻网	-10.9124
ദ	-10.9124
▁Yazdır	-10.9124
▁بهذه	-10.913
له	-10.9131
▁مهمة	-10.9134
▁konular	-10.9135
▁teknolojisi	-10.9135
eg	-10.9135
▁insanı	-10.9138
zu	-10.9138
ම	-10.9139
▁Mutlu	-10.914
اهر	-10.914
DU	-10.9143
▁97	-10.9143
▁Amerikan	-10.9143
▁operasyonu	-10.9144
طف	-10.9144
물	-10.9148
防	-10.915
▁زيت	-10.915
必	-10.915
▁إصابة	-10.9151
▁Yangın	-10.9151
▁vatandaşlarımız	-10.9151
▁تنظيف	-10.9154
▁القرن	-10.9154
गे	-10.9155
▁الانتقال	-10.9156
▁जेल	-10.9158
▁تحرير	-10.9159
900	-10.9161
▁aşağı	-10.9163
▁الحوار	-10.9164
▁namaz	-10.9164
▁çalışmalarına	-10.9166
CD	-10.9169
▁मिले	-10.9169
ليك	-10.917
مد	-10.9172
산	-10.9173
▁giyim	-10.9175
▁verilmesi	-10.9176
▁yayınlandı	-10.9177
▁रोड	-10.9177
▁kg	-10.9178
öl	-10.9179
▁180	-10.918
▁شرطة	-10.9181
▁yolunda	-10.9181
▁كلام	-10.9181
▁बै	-10.9183
▁Mac	-10.9185
اخبار	-10.9186
وين	-10.9186
▁hu	-10.9186
▁Okuma	-10.9186
▁tat	-10.9186
早	-10.9187
▁çekiyor	-10.9187
-17	-10.9187
率	-10.9187
▁الأصلي	-10.9188
▁başlangıç	-10.9189
▁öğle	-10.9189
▁Otomatik	-10.9189
▁Gö	-10.919
▁GB	-10.9191
▁beklenen	-10.9193
▁oğlu	-10.9193
▁बैग	-10.9194
▁tut	-10.9199
▁112	-10.9199
Ar	-10.9201
▁Müslüman	-10.9201
▁Hemen	-10.9202
▁स्थिति	-10.9205
yr	-10.9205
على	-10.9206
▁الغاز	-10.9207
▁طفل	-10.9207
▁वायरल	-10.9207
网址	-10.9208
▁tanıtım	-10.9208
▁ظهر	-10.9208
نى	-10.921
▁casino	-10.921
-13	-10.9212
ph	-10.9213
▁listesi	-10.9217
CH	-10.9218
amıyor	-10.9218
▁إليها	-10.922
leştirme	-10.9222
▁جدة	-10.9223
ance	-10.9224
osu	-10.9226
菜	-10.9227
世界	-10.9227
▁Kontrol	-10.9227
▁kullanan	-10.9228
▁أجهزة	-10.9228
हार	-10.9228
▁वहां	-10.9229
▁चीनी	-10.9231
▁ac	-10.9232
▁الإسلامي	-10.9234
cn	-10.9234
日本	-10.9234
▁This	-10.9235
▁مشكلة	-10.9236
▁محل	-10.9243
▁2016,	-10.9244
▁حوالي	-10.9244
▁هى	-10.9245
신	-10.9247
▁kullanıcıların	-10.9247
▁firmaları	-10.9247
▁malzemeleri	-10.925
هام	-10.925
▁pdf	-10.925
▁ağaç	-10.925
▁VER	-10.9251
In	-10.9253
▁लगे	-10.9254
▁güne	-10.9254
▁Direktörü	-10.9256
▁برا	-10.9259
▁evden	-10.9259
▁dolaş	-10.926
▁25,	-10.9262
점	-10.9262
香港	-10.9266
▁عبدالعزيز	-10.9266
▁geleneksel	-10.9267
manız	-10.9269
▁sunulan	-10.9269
ğa	-10.9269
▁بح	-10.9274
▁जमा	-10.9275
▁किस	-10.9276
عل	-10.9277
تاريخ	-10.9278
▁مدى	-10.9279
▁kurtul	-10.9279
تحرك	-10.9279
▁الحزب	-10.928
▁mesafe	-10.928
▁tutuklandı	-10.9281
▁hali	-10.9282
▁كثير	-10.9283
▁annesi	-10.9285
▁denetim	-10.9285
▁new	-10.9287
第一	-10.9287
▁समाज	-10.9287
IP	-10.9288
▁Liste	-10.9294
post	-10.9295
كِ	-10.9296
▁sap	-10.9297
ტი	-10.9299
رون	-10.93
▁artır	-10.9302
راق	-10.9302
▁التعليمية	-10.9303
半	-10.9303
dd	-10.9304
ად	-10.9304
云	-10.9305
▁İspanya	-10.9305
▁أيضًا	-10.9305
▁शुरुआत	-10.9305
▁bıçak	-10.9305
ด	-10.9306
om	-10.9308
▁Beş	-10.9308
्ज	-10.931
▁kurul	-10.931
▁عاجل	-10.931
▁projeler	-10.9314
▁Pu	-10.9314
▁yaşlı	-10.9315
▁Sha	-10.9319
შ	-10.932
▁Nevşehir	-10.932
▁Halil	-10.9321
▁सै	-10.9324
▁Akıllı	-10.9324
▁Festivali	-10.9329
▁kimlik	-10.933
أخبار	-10.9331
▁جميل	-10.9331
▁Wi	-10.9334
▁noktada	-10.9336
古	-10.9343
声	-10.9343
讯	-10.9344
‭	-10.9344
▁ट्वीट	-10.9344
经	-10.9344
▁होना	-10.9345
▁आयोग	-10.9345
صدر	-10.9345
▁filmleri	-10.9346
▁sö	-10.9347
▁هجوم	-10.9348
▁klima	-10.9349
都是	-10.9353
▁مكافحة	-10.9353
meden	-10.9356
▁kodu	-10.9358
لاف	-10.9359
duk	-10.9365
CL	-10.9365
Ankara	-10.9366
▁النوع	-10.9368
sil	-10.937
ضع	-10.937
ლ	-10.9372
▁قدر	-10.9373
mayacak	-10.9374
▁المُ	-10.9374
▁हार	-10.9375
▁aş	-10.9375
मेंट	-10.9376
▁bizlere	-10.9376
▁მ	-10.9379
▁Forumu	-10.938
امة	-10.938
ाया	-10.9382
料	-10.9382
▁الفرنسية	-10.9383
使用	-10.9384
▁स्ट	-10.9384
▁faydalan	-10.9384
leriniz	-10.9385
NO	-10.9386
▁130	-10.9386
larımıza	-10.9388
Spor	-10.9391
▁(3	-10.9394
▁사	-10.9396
▁yakınlarında	-10.9399
▁seksi	-10.94
MO	-10.9403
شرف	-10.9404
▁Ajansı	-10.9405
▁fırsatı	-10.9406
/10	-10.9408
yip	-10.9408
▁أصحاب	-10.9408
▁الاستثمار	-10.9408
kh	-10.9409
▁Final	-10.941
بية	-10.9411
▁kenar	-10.9412
▁البعض	-10.9412
▁الروسي	-10.9413
▁التعامل	-10.9415
▁2013,	-10.9416
لام	-10.9417
خرج	-10.9417
▁miktar	-10.9419
ولى	-10.942
周	-10.9422
▁जुड़े	-10.9422
▁Kart	-10.9423
▁والن	-10.9423
您	-10.9423
州	-10.9423
▁गंभीर	-10.9423
▁Görev	-10.9423
▁कौन	-10.9424
▁الأبيض	-10.9424
▁الثورة	-10.9424
▁निवासी	-10.9424
▁باريس	-10.9424
▁mekan	-10.9426
▁المؤسسات	-10.9427
▁مربع	-10.9427
بط	-10.9431
▁اتفاق	-10.9431
الب	-10.9433
برا	-10.9433
▁gördü	-10.9434
abı	-10.9434
▁बढ़ा	-10.9435
Le	-10.9435
ائها	-10.9436
▁oyunlar	-10.9437
▁ट्रेन	-10.9439
çak	-10.9441
▁الجنوبية	-10.9442
▁تداول	-10.9443
▁정	-10.9444
hil	-10.9445
ure	-10.9446
▁تحمل	-10.9448
▁مهم	-10.9448
▁yaşamak	-10.9448
▁زوج	-10.9449
新闻	-10.945
▁ago	-10.9451
▁टीवी	-10.9453
▁نص	-10.9454
ros	-10.9454
▁kapak	-10.9454
كَ	-10.9454
▁isimler	-10.9459
2%	-10.9459
▁unut	-10.946
换	-10.946
▁Mahmut	-10.9463
▁Tabi	-10.9463
▁lastik	-10.9463
واصل	-10.9464
▁मुद्रा	-10.9466
▁वै	-10.9466
شك	-10.9466
▁المتحدث	-10.9466
▁중	-10.9467
▁isteme	-10.9467
▁köşe	-10.9468
▁لجميع	-10.9469
知道	-10.9469
▁Gör	-10.947
▁فوز	-10.9472
▁ذ	-10.9473
件	-10.9474
▁hükümet	-10.9475
▁الثلاث	-10.9476
mus	-10.9477
2007	-10.9477
▁Toplum	-10.9477
dikten	-10.9478
▁خطة	-10.9478
▁gazeteci	-10.9481
tive	-10.9483
dh	-10.9486
▁كوم	-10.9487
24)	-10.9491
▁ürünlerin	-10.9493
VE	-10.9494
▁الروسية	-10.9494
र्म	-10.9495
▁ولي	-10.9495
房	-10.95
▁وست	-10.95
尔	-10.9501
低	-10.9502
▁House	-10.9502
▁Kuş	-10.9502
▁الرجال	-10.9503
▁Yo	-10.9503
شف	-10.9504
▁توزيع	-10.9505
▁(19	-10.9507
▁दक्षिण	-10.9512
iği	-10.9512
ورد	-10.9513
▁وغيرها	-10.9515
▁بحق	-10.9515
end	-10.9516
▁الْ	-10.9518
▁MB	-10.952
▁Farklı	-10.9526
كة	-10.9527
▁Tekirdağ	-10.9529
ليب	-10.953
▁82	-10.953
gr	-10.9532
ترك	-10.9532
▁kategorisinde	-10.9534
▁सड़क	-10.9534
üne	-10.9534
▁Kurban	-10.9534
imizi	-10.9535
▁More	-10.9535
▁Elektronik	-10.9536
▁3.5	-10.9537
▁المالي	-10.9538
▁yarar	-10.9538
دم	-10.954
▁yıkama	-10.954
▁تويتر	-10.954
▁ظهور	-10.9542
▁elektronik	-10.9542
▁फ़	-10.9543
▁شاء	-10.9543
▁ankara	-10.9545
▁edilmiştir	-10.9546
▁Show	-10.9546
üncü	-10.9546
▁ÖZ	-10.9548
▁meclis	-10.9548
gın	-10.9549
▁batı	-10.9549
cal	-10.955
▁sağlam	-10.955
ندا	-10.955
▁hastaneye	-10.9552
007	-10.9554
▁أرشيف	-10.9555
▁सेक्स	-10.9557
▁Örneğin	-10.9559
ound	-10.9561
▁Taksit	-10.9563
side	-10.9564
الة	-10.9564
فون	-10.9565
▁???	-10.9566
day	-10.9567
▁سؤال	-10.9568
조	-10.9568
▁arz	-10.9569
▁बेहतर	-10.9572
कल	-10.9572
ضغط	-10.9573
▁89	-10.9575
▁halka	-10.9575
ाब	-10.9577
▁faydalı	-10.9577
▁takımın	-10.9578
▁الإجراءات	-10.9579
▁مشيرا	-10.9581
▁Afrika	-10.9582
▁konferans	-10.9582
▁Silah	-10.9582
og	-10.9583
▁सूची	-10.9583
▁Mardin	-10.9583
150	-10.9584
▁özen	-10.9584
▁بلد	-10.9584
▁العراقية	-10.9586
▁يعلن	-10.9587
▁Kimdir	-10.9588
FA	-10.9588
▁Views	-10.9591
▁يعرف	-10.9592
少	-10.9592
نع	-10.9593
EK	-10.9593
▁civarında	-10.9593
▁اللاعبين	-10.9595
تجار	-10.9598
ضاف	-10.96
خت	-10.96
amayan	-10.9601
▁Bülent	-10.9603
▁Hindistan	-10.9603
▁تغيير	-10.9606
▁kazandır	-10.9606
▁Oyna	-10.9608
color	-10.9612
فريق	-10.9612
دري	-10.9613
▁إجراءات	-10.9613
▁Zonguldak	-10.9614
ağ	-10.9614
▁दौर	-10.9616
味	-10.9621
▁beden	-10.9621
黄	-10.9621
▁gereği	-10.9622
▁विभिन्न	-10.9622
▁Marmara	-10.9622
େ	-10.9622
▁إنشاء	-10.9623
▁Huawei	-10.9626
0.0	-10.9629
▁التدريب	-10.963
▁kare	-10.963
▁انطلاق	-10.9631
ınızı	-10.9631
▁lig	-10.9636
▁konuş	-10.9637
▁düşman	-10.9637
sey	-10.9638
dığımız	-10.9639
vin	-10.9639
▁27,	-10.964
▁يو	-10.9641
▁Adayı	-10.9641
▁الملف	-10.9643
▁100%	-10.9643
▁غرب	-10.9645
▁Set	-10.9647
▁dini	-10.9651
▁أمريكا	-10.9651
선	-10.9651
madı	-10.9651
▁Cilt	-10.9652
▁النهائي	-10.9656
▁ailesi	-10.9657
ildiği	-10.9659
洗	-10.9661
优	-10.9661
usu	-10.9661
▁tıklayınız	-10.9663
▁الجهات	-10.9664
▁اللون	-10.9664
▁PDF	-10.9665
▁14.	-10.967
▁القضاء	-10.967
▁Yapımı	-10.9672
▁وعدم	-10.9673
▁17,	-10.9673
▁Kaza	-10.9675
▁Millet	-10.9675
diklerini	-10.9677
▁ആ	-10.9678
▁yaşadı	-10.9687
स्क	-10.9688
▁القائمة	-10.9688
▁açıklamalarda	-10.9689
▁özellik	-10.9689
bl	-10.969
aba	-10.9691
LÜ	-10.9691
▁şartları	-10.9692
展	-10.9693
▁Oyuncu	-10.9694
▁مكة	-10.9695
▁लेख	-10.9695
umuz	-10.9696
▁yetkilileri	-10.9696
▁أك	-10.9697
ে	-10.9702
受	-10.9702
由	-10.9702
▁medyum	-10.9703
▁Şampiyonası	-10.9703
千	-10.9703
▁دم	-10.9703
ნ	-10.9703
▁Yabancı	-10.9704
▁attığı	-10.9704
▁İYİ	-10.9705
军	-10.9705
▁स्व	-10.9707
SK	-10.9707
इस	-10.9708
▁Hatta	-10.971
ID	-10.971
▁स्टार	-10.971
▁araçlar	-10.9711
▁مطالب	-10.9711
rik	-10.9713
▁सरकारी	-10.9714
vs	-10.9715
▁aşkın	-10.9718
▁dis	-10.9718
▁yarım	-10.9719
▁Bundan	-10.9721
▁تمت	-10.9723
hl	-10.9723
ண	-10.9724
müz	-10.9724
▁Size	-10.9726
▁समे	-10.9727
▁Güç	-10.9727
طور	-10.973
▁uygulay	-10.973
▁hizmetler	-10.973
اسم	-10.973
ბ	-10.9732
con	-10.9733
El	-10.9734
lip	-10.9735
▁bilgilendirme	-10.974
▁vatan	-10.9741
▁بعدما	-10.9741
▁şiddet	-10.9741
▁3-	-10.9743
▁çocuğun	-10.9743
局	-10.9743
▁September	-10.9743
▁about	-10.9743
如何	-10.9743
▁قيادة	-10.9744
▁الهواء	-10.9745
▁edici	-10.9745
▁yöntemleri	-10.9745
▁بالتعاون	-10.9747
zz	-10.9748
वीं	-10.9748
▁कराया	-10.9748
▁الدقيقة	-10.9751
▁aşağıda	-10.9752
fen	-10.9752
▁القضية	-10.9753
▁വ	-10.9754
▁{"	-10.9756
▁الخل	-10.9758
▁stres	-10.9759
jan	-10.9759
िस्ट	-10.9759
觉得	-10.976
▁Aç	-10.976
▁Kor	-10.9761
٥	-10.9762
▁Boyutu	-10.9764
نك	-10.9766
▁تحقق	-10.9767
▁kaydı	-10.9771
▁पे	-10.9771
▁لعام	-10.9772
▁sorgulama	-10.9773
നി	-10.9773
demir	-10.9774
خب	-10.9777
▁Free	-10.9777
▁kongre	-10.9778
▁güncelleme	-10.978
anlar	-10.978
▁오	-10.9784
ذكر	-10.9784
▁بحضور	-10.9784
▁rakibi	-10.9784
":{"	-10.9785
روح	-10.9785
▁Gökhan	-10.9786
▁लाभ	-10.9787
▁عليهم	-10.9788
ची	-10.9788
▁Suriyeli	-10.9789
▁مهرجان	-10.9789
▁Seti	-10.979
gerçekleştirildi	-10.9791
▁süreçte	-10.9792
▁تك	-10.9792
▁olaylar	-10.9793
▁Sorular	-10.9794
▁Hak	-10.9794
ive	-10.9796
▁yaşat	-10.9796
▁Com	-10.9797
▁القبض	-10.9797
▁gününde	-10.9798
▁anlamı	-10.9799
aka	-10.9799
He	-10.9801
▁분	-10.9802
altı	-10.9803
-2013	-10.9804
دني	-10.9805
غي	-10.9807
წ	-10.9808
▁Anayasa	-10.9809
▁Ah	-10.9809
................	-10.9811
▁kardeşi	-10.9811
▁yüzey	-10.9813
▁üreticileri	-10.9813
▁siyaset	-10.9814
خير	-10.9816
▁tamamı	-10.9816
فض	-10.9819
raf	-10.9821
بني	-10.9821
▁geçirdi	-10.9821
ურ	-10.9822
▁biliyor	-10.9823
▁yeme	-10.9823
입니다	-10.9824
▁esnasında	-10.9825
▁الطيران	-10.9825
▁pratik	-10.9826
▁Telefonu	-10.9826
▁kulüp	-10.9826
▁التجارة	-10.9826
▁المنخفض	-10.9827
▁हाई	-10.9827
▁चलते	-10.9828
▁أسبوع	-10.9828
▁yapması	-10.9829
شغل	-10.9829
pt	-10.9831
▁कं	-10.9834
▁kullanılması	-10.9835
▁ملعب	-10.9836
bol	-10.9836
اتي	-10.9837
▁oyuncusu	-10.9839
ilmiştir	-10.9842
▁bitki	-10.9842
▁قم	-10.9843
üş	-10.9843
▁შე	-10.9845
▁الجولة	-10.9846
▁Geliştirme	-10.9847
▁النظر	-10.9847
各	-10.985
▁البريد	-10.9853
▁düşüş	-10.9853
▁امام	-10.9853
pen	-10.9854
▁alması	-10.9854
▁em	-10.9854
▁kampanyası	-10.9855
İZ	-10.9855
▁çekme	-10.9855
0.00	-10.9858
▁dekorasyon	-10.986
▁하	-10.9864
عمال	-10.9865
▁Casino	-10.9866
▁protesto	-10.9866
▁Club	-10.9866
▁görünüyor	-10.9867
▁انتشار	-10.9867
▁الحرارة	-10.9867
علوم	-10.9868
زان	-10.987
▁birliği	-10.9871
▁Day	-10.9871
▁ந	-10.9874
▁2015,	-10.9875
DIR	-10.9875
▁tanesi	-10.9876
▁çıkması	-10.9876
▁anlamına	-10.9878
▁numaralı	-10.9879
▁amaç	-10.988
▁أس	-10.9881
▁saniye	-10.9882
▁ip	-10.9884
▁Kadıköy	-10.9885
▁ihracat	-10.9885
▁tanım	-10.9886
▁eğlenceli	-10.9887
vir	-10.9888
दर	-10.989
▁تردد	-10.9891
▁सात	-10.9893
张	-10.9894
电影	-10.9894
▁Ağ	-10.9895
▁ملايين	-10.9896
فور	-10.9897
▁أصبح	-10.9899
700	-10.99
▁ARA	-10.9903
▁Adalet	-10.9908
win	-10.9911
▁soruları	-10.9912
▁gözlem	-10.9913
روم	-10.9914
ाना	-10.9915
▁لمن	-10.9916
mın	-10.9917
▁جوجل	-10.9917
▁mail	-10.9918
park	-10.992
▁உ	-10.9921
▁700	-10.9921
▁canım	-10.9921
த்	-10.9921
tek	-10.9922
üstü	-10.9923
TS	-10.9923
▁noktasında	-10.9924
٣	-10.9925
eh	-10.9925
▁الرجل	-10.9926
▁yazma	-10.9927
▁hissed	-10.9928
qu	-10.9929
▁Paket	-10.9933
▁ata	-10.9937
quot	-10.9937
Ay	-10.9938
▁Black	-10.9943
▁المجال	-10.9944
ونه	-10.9945
资	-10.9946
▁Kılıf	-10.9947
▁davası	-10.9947
队	-10.9947
ُ1	-10.9948
斯	-10.9948
首	-10.9948
▁soy	-10.9948
บ	-10.9949
▁Komutanlığı	-10.9949
▁türkçe	-10.995
▁जाएंगे	-10.995
്യ	-10.9951
▁sabit	-10.9951
▁gerçekleşen	-10.9952
▁Doktor	-10.9952
▁(5)	-10.9953
▁दूसरी	-10.9954
▁stok	-10.9955
▁Turan	-10.9961
▁10,	-10.9961
PA	-10.9961
▁علينا	-10.9961
▁temas	-10.9962
▁bıraktı	-10.9963
▁بدأ	-10.9963
الشؤون	-10.9967
▁Örgü	-10.9969
▁مدار	-10.9973
مُ	-10.9973
ინ	-10.9974
TEN	-10.9981
▁الشخصية	-10.9981
▁العالي	-10.9982
▁Filmi	-10.9983
ക്	-10.9984
▁किसान	-10.9984
▁الفرق	-10.9985
كرم	-10.9985
▁Banka	-10.9986
▁Kiralık	-10.9986
2,	-10.9987
▁20,	-10.9987
Dünya	-10.9988
▁الهند	-10.9989
它	-10.999
▁इस्तेमाल	-10.9991
▁Center	-10.9991
box	-10.9992
▁إجراء	-10.9993
▁الخط	-10.9995
▁हा	-10.9996
▁يتعلق	-10.9997
▁84	-10.9998
▁الكهرباء	-11.0001
▁للعمل	-11.0001
▁kadrosu	-11.0002
()	-11.0002
▁gr	-11.0005
▁أبي	-11.0005
▁boyut	-11.0005
▁ماي	-11.0005
▁Sü	-11.0006
قف	-11.0007
▁ster	-11.0007
▁ekledi	-11.0011
حض	-11.0014
▁port	-11.0015
▁Ruh	-11.0015
▁العلوم	-11.0016
▁لبنانية	-11.002
دخل	-11.0022
▁Ji	-11.0023
फ़	-11.0023
ائع	-11.0023
▁दिख	-11.0027
▁dönüşüm	-11.0029
师	-11.003
▁والع	-11.003
พ	-11.0032
▁सुप्रीम	-11.0033
▁ग्रामीण	-11.0033
ولا	-11.0033
▁izmir	-11.0033
▁Paşa	-11.0034
▁sunmaktadır	-11.0034
▁bekliyoruz	-11.0035
▁aracılığıyla	-11.0035
▁पड़	-11.0036
▁Yaka	-11.0036
▁büyüsü	-11.004
वाल	-11.004
▁जिसे	-11.0041
▁رمز	-11.0041
क़	-11.0041
الات	-11.0042
▁oyuncular	-11.0042
▁إصدار	-11.0042
▁Doğa	-11.0045
▁çalışmak	-11.0045
sha	-11.0046
▁البشرية	-11.0046
شعر	-11.0046
تكم	-11.0046
▁Evi	-11.0047
ან	-11.005
▁pat	-11.0054
eau	-11.0054
▁ढ	-11.0054
▁المستقبل	-11.0055
▁أبوظبي	-11.0056
laştı	-11.0057
बर	-11.0057
▁مجاني	-11.0058
▁Normal	-11.0058
▁süredir	-11.0059
▁Feb	-11.0059
▁تقييم	-11.0061
ற	-11.0062
HAN	-11.0062
▁sunduğu	-11.0064
▁İŞ	-11.0065
▁Dön	-11.0065
िश	-11.0066
▁विधायक	-11.0067
▁ولل	-11.0067
▁yaptık	-11.0068
ძ	-11.007
▁الرياضي	-11.0072
오	-11.0074
▁Bağ	-11.0074
▁çıkardı	-11.0074
▁خطر	-11.0075
▁जिन	-11.0076
▁الجودة	-11.0077
▁belirlenen	-11.0077
▁Giyim	-11.0078
▁oto	-11.0079
zar	-11.0079
▁dili	-11.0081
▁Engin	-11.0082
▁Yapılır	-11.0082
▁فأ	-11.0083
▁المستشار	-11.0083
▁सही	-11.0086
▁kurma	-11.0087
नाथ	-11.0087
داع	-11.0087
▁Etti	-11.0087
▁هم	-11.0088
mil	-11.0088
▁थीं	-11.0088
▁Terim	-11.009
soft	-11.0092
▁yetiştir	-11.0092
न्न	-11.0093
▁çatışma	-11.0094
▁مشاكل	-11.0095
▁edebilir	-11.0096
▁kalır	-11.0097
▁gönül	-11.0097
الى	-11.0098
▁etkin	-11.0099
▁GÜN	-11.01
dor	-11.0101
▁mutfak	-11.0101
▁धन	-11.0104
с	-11.0106
▁व्यापार	-11.0109
야	-11.011
▁düzey	-11.011
▁Page	-11.011
▁يأتي	-11.011
▁uygulamaları	-11.0111
▁kutusu	-11.0112
▁Bul	-11.0112
▁abone	-11.0113
CT	-11.0114
▁maaş	-11.0115
ั	-11.0116
排	-11.0116
زام	-11.0116
ာ	-11.0116
调	-11.0116
死	-11.0116
拿	-11.0117
▁उम्मीद	-11.0117
▁isteği	-11.0117
RAN	-11.0117
▁उम्र	-11.0117
▁घोषणा	-11.0117
▁माध्यम	-11.0117
▁नीचे	-11.0117
▁işletim	-11.0117
연	-11.0117
▁Sevgili	-11.012
▁oranları	-11.012
▁शव	-11.012
▁تعتبر	-11.0121
▁gösterir	-11.0125
ष्ट	-11.0125
▁Yanıtla	-11.0127
▁rakip	-11.0128
kta	-11.0129
▁toz	-11.0129
▁bel	-11.0132
▁yazdı	-11.0133
▁ayar	-11.0133
▁Test	-11.0134
داعش	-11.0134
▁पति	-11.0135
▁arkasında	-11.0136
▁Part	-11.0139
▁Mahalle	-11.0139
dal	-11.0141
▁डाल	-11.0143
bank	-11.0143
▁يع	-11.0144
نه	-11.0144
بور	-11.0146
-25	-11.0147
ıt	-11.0149
-22	-11.0151
▁değişikliği	-11.0153
▁عالمية	-11.0154
▁2004	-11.0155
▁Chi	-11.0155
▁bağımsız	-11.0156
▁yatır	-11.0157
ülü	-11.0159
▁تصريح	-11.0159
▁والإ	-11.0159
▁الرابعة	-11.0159
视	-11.0159
字	-11.0159
0936	-11.0159
결	-11.0159
▁मॉडल	-11.0159
▁المكرمة	-11.0159
▁गये	-11.016
act	-11.0162
▁بذلك	-11.0164
زين	-11.0165
hit	-11.0166
▁المصادر	-11.0167
▁Nov	-11.0167
▁esnaf	-11.0167
▁جداً	-11.0168
ृत	-11.0168
بيت	-11.0168
جاد	-11.0169
▁تحتاج	-11.017
▁KAL	-11.017
▁Wa	-11.017
▁الوزن	-11.0172
/8	-11.0172
छ	-11.0172
Di	-11.0173
▁vaka	-11.0176
▁demiş	-11.0176
▁الشمالية	-11.0177
▁taşın	-11.0178
▁Mon	-11.0179
▁Fan	-11.0179
▁بق	-11.0182
▁हि	-11.0182
lock	-11.0182
▁قوية	-11.0182
▁نجاح	-11.0183
▁Parkı	-11.0184
عقد	-11.0185
▁şekli	-11.0186
▁बच	-11.0187
▁الجو	-11.0188
▁الآخر	-11.0189
liyor	-11.019
▁Der	-11.0194
▁market	-11.0194
▁حدث	-11.0194
▁Dairesi	-11.0196
▁فرع	-11.0196
ile	-11.0197
▁2002	-11.0197
街	-11.0202
호	-11.0202
▁festival	-11.0202
▁tiyatro	-11.0202
▁हरियाणा	-11.0202
عَ	-11.0202
▁seyret	-11.0202
▁Numarası	-11.0203
▁Hiç	-11.0204
▁price	-11.0204
▁لأنه	-11.0204
சி	-11.0204
▁evet	-11.0205
▁سبيل	-11.0205
▁yapıyoruz	-11.0207
▁عناصر	-11.0208
ktedir	-11.0208
▁زائر	-11.0208
Su	-11.0209
▁الصلاة	-11.0209
hra	-11.021
▁1.6	-11.0211
▁비	-11.0211
ിയ	-11.0213
▁تقع	-11.0216
▁قائد	-11.0217
ّل	-11.0217
的时候	-11.0218
زن	-11.0218
عان	-11.0218
官方网站	-11.0219
बे	-11.0219
jala	-11.0222
▁اليمني	-11.0223
▁ila	-11.0224
▁günleri	-11.0225
▁شكر	-11.0226
▁140	-11.0228
▁الحبيب	-11.0228
▁Cor	-11.0231
▁Koruma	-11.0231
▁maddesi	-11.0231
▁جيدة	-11.0232
▁çıktığı	-11.0235
▁Diyanet	-11.0238
leyerek	-11.0238
▁mevsim	-11.0239
▁krizi	-11.0241
▁logo	-11.0241
男	-11.0241
form	-11.0243
ä	-11.0245
▁नवंबर	-11.0245
软件	-11.0245
▁Resort	-11.0245
▁sahte	-11.0245
▁हिस्सा	-11.0245
٠	-11.0246
▁وفقا	-11.0247
▁bakımından	-11.0248
▁Müzesi	-11.025
meniz	-11.0251
live	-11.0253
▁ekmek	-11.0254
▁politika	-11.0254
▁نشاط	-11.0258
ışma	-11.0258
▁başladığı	-11.0258
مسلسل	-11.0259
▁부	-11.026
رغب	-11.0261
▁Takı	-11.0263
sl	-11.0264
▁الهدف	-11.0264
▁العودة	-11.0264
▁birini	-11.0269
لاء	-11.027
▁harekete	-11.027
▁Sorun	-11.0272
▁gösterdiği	-11.0274
▁Lise	-11.0274
▁sitemizde	-11.0275
abilmek	-11.0276
दे	-11.0276
دب	-11.0276
▁şirketleri	-11.0281
دام	-11.0286
因	-11.0286
▁सह	-11.0287
▁सुविधा	-11.0287
▁Beach	-11.0288
▁كاتب	-11.0289
atör	-11.0289
▁Ardından	-11.029
▁alınarak	-11.0292
▁अनु	-11.0293
▁türk	-11.0293
▁anı	-11.0295
▁Kapat	-11.0296
▁sel	-11.0298
िए	-11.0299
▁terörist	-11.03
To	-11.0302
▁getirmek	-11.0302
他们	-11.0303
-2011	-11.0303
▁nelerdir	-11.0304
▁●	-11.0304
▁دائما	-11.0305
▁بنك	-11.0308
PO	-11.031
انت	-11.0311
▁hakem	-11.0313
▁प्यार	-11.0315
▁Hal	-11.0316
▁المو	-11.0317
yıp	-11.0319
▁dosyası	-11.032
▁ஆ	-11.0322
لال	-11.0325
▁جمع	-11.0325
步	-11.0326
▁Kedi	-11.0327
▁beyin	-11.0327
▁kombi	-11.0328
▁gerçekleştirdi	-11.0328
质	-11.0329
ruk	-11.0329
反	-11.033
속	-11.033
▁संगठन	-11.0331
货	-11.0331
▁koku	-11.0331
▁gidip	-11.0332
▁kurumsal	-11.0332
िटी	-11.0332
▁yılının	-11.0333
▁نموذج	-11.0333
▁Orhan	-11.0333
▁araçları	-11.0334
ვა	-11.0334
▁حاليا	-11.0334
마	-11.0337
dro	-11.0337
▁olabilirsiniz	-11.0337
▁Kul	-11.0338
্	-11.0338
sim	-11.0339
طالب	-11.034
▁الاتفاق	-11.034
Rİ	-11.034
▁تب	-11.034
▁देव	-11.034
▁Mas	-11.0345
▁sex	-11.0347
▁kanal	-11.0348
ீ	-11.0348
▁IŞİD	-11.0349
▁البريطانية	-11.035
ANI	-11.035
▁Kaliteli	-11.035
▁Taşıma	-11.0351
St	-11.0352
▁سعودي	-11.0352
▁saf	-11.0354
▁केवल	-11.0354
▁ili	-11.0357
▁erişim	-11.0358
▁ruh	-11.0358
▁صحفي	-11.0359
ু	-11.036
▁getirildi	-11.036
提	-11.036
▁السيسي	-11.036
ân	-11.036
वन	-11.0363
▁bildir	-11.0363
دعم	-11.0367
▁Tra	-11.0367
turk	-11.0369
şehir	-11.0372
▁الإسرائيلية	-11.0372
假	-11.0373
语	-11.0374
▁tebrik	-11.0374
▁İçişleri	-11.0374
▁अवसर	-11.0374
▁بمحافظة	-11.0374
▁Transfer	-11.0374
▁kurban	-11.0375
▁will	-11.0377
网络	-11.0378
▁etkinlikler	-11.0378
▁tüket	-11.0379
‍	-11.0379
ero	-11.0382
▁دينار	-11.0384
ण्ड	-11.0387
ास	-11.0388
▁الملكي	-11.0388
▁عامة	-11.039
▁الصناعية	-11.039
▁السكر	-11.0392
▁استمرار	-11.0393
▁Group	-11.0394
/01/	-11.0395
cem	-11.0397
raj	-11.0403
الأ	-11.0404
ısı	-11.0405
قاتل	-11.0405
UT	-11.0406
▁Lütfen	-11.0407
are	-11.0407
第	-11.0409
OM	-11.041
▁bulunma	-11.041
▁9,	-11.0411
▁TOKİ	-11.0414
▁uğraş	-11.0415
▁ज़	-11.0415
▁yapmayı	-11.0415
गो	-11.0416
▁लॉन्च	-11.0417
组	-11.0417
▁रेलवे	-11.0418
▁Davutoğlu	-11.0418
▁أمير	-11.0419
med	-11.0419
Pa	-11.0422
▁parmak	-11.0423
dıklarını	-11.0423
rah	-11.0426
▁#5	-11.0426
مون	-11.0428
ous	-11.0428
mun	-11.0428
中心	-11.0428
قرار	-11.043
vas	-11.043
▁سياسة	-11.0431
▁dar	-11.0432
▁kalk	-11.0434
▁sizlerle	-11.0435
▁tamir	-11.0436
▁öğrencilere	-11.0437
Do	-11.0437
▁التقنية	-11.044
▁haz	-11.0441
ريح	-11.0443
▁بينهم	-11.0443
duğu	-11.0445
yecek	-11.0446
▁izleme	-11.0446
red	-11.0447
نسي	-11.0448
▁bilgilere	-11.0449
لّ	-11.045
▁समझ	-11.0451
tme	-11.0453
▁kimi	-11.0454
!..	-11.0454
▁önemi	-11.0454
eceğiniz	-11.0456
▁Ağır	-11.0458
▁Hacı	-11.0458
झ	-11.0459
▁verilecek	-11.046
速	-11.0461
▁koşulları	-11.0461
Â	-11.0461
▁बिक्री	-11.0461
▁ثاني	-11.0461
▁petrol	-11.0461
निमय	-11.0461
वाह	-11.0461
▁حضور	-11.0461
▁المدنية	-11.0463
▁roman	-11.0463
▁वी	-11.0464
우	-11.0464
TC	-11.0465
▁Far	-11.0465
▁araştır	-11.0466
▁ro	-11.0467
ნი	-11.0468
▁taksit	-11.0468
▁may	-11.0469
▁TRY	-11.0469
▁التحرير	-11.0471
/6	-11.0471
▁SP	-11.0471
▁kaplama	-11.0473
▁قطعة	-11.0473
▁Gelen	-11.0474
▁سيتي	-11.0474
▁व्यवस्था	-11.0474
▁ger	-11.0478
▁Garanti	-11.0478
▁Sony	-11.0479
▁açı	-11.0479
▁bit	-11.0479
سلم	-11.048
▁Listesi	-11.0483
▁طب	-11.0483
▁بشر	-11.0484
ას	-11.0484
▁المش	-11.0485
ð	-11.0486
▁kaldığı	-11.0488
▁LTD	-11.0489
▁Bana	-11.0489
ില്‍	-11.049
▁माह	-11.0492
دخول	-11.0493
ونا	-11.0494
▁kriz	-11.0494
خف	-11.0495
فين	-11.0496
▁रख	-11.0498
ön	-11.05
بلغ	-11.05
▁background	-11.05
pro	-11.05
▁Rum	-11.0501
جال	-11.0501
ari	-11.0502
SAN	-11.0503
▁yöneticileri	-11.0504
▁kod	-11.0504
草	-11.0505
▁nakliyat	-11.0505
▁Bilişim	-11.0505
▁अगले	-11.0506
▁Halı	-11.0506
棋牌游戏	-11.0506
生活	-11.0507
▁Gezi	-11.0509
▁kiralık	-11.0509
▁etmeyi	-11.051
▁uyum	-11.0512
실	-11.0513
▁निकाल	-11.0513
▁yıllardır	-11.0515
▁‘‘	-11.0516
▁Hotels	-11.0516
شارك	-11.0517
니	-11.0518
▁izleyici	-11.0519
▁Edirne	-11.0519
ata	-11.0524
▁salonu	-11.0526
▁16,	-11.0526
▁konularda	-11.0527
▁النجم	-11.0531
İYE	-11.0531
▁حصل	-11.0532
▁davran	-11.0533
REN	-11.0534
ଜ	-11.0537
▁Ju	-11.0539
▁günün	-11.0543
र्क	-11.0543
عبد	-11.0545
larındaki	-11.0546
食	-11.0547
▁UP	-11.0547
播	-11.0548
출	-11.0549
▁satılık	-11.0549
▁Max	-11.055
▁sıvı	-11.055
▁durumlarda	-11.055
▁halkı	-11.0551
▁होटल	-11.0551
▁شارع	-11.0552
▁hayır	-11.0552
▁Sinan	-11.0553
▁Platformu	-11.0554
ائب	-11.0555
ഷ	-11.0555
▁المتوسط	-11.0557
공	-11.0559
找	-11.056
▁कश्मीर	-11.0561
制	-11.0561
Ev	-11.0562
வி	-11.0563
▁Sevgi	-11.0564
نظم	-11.0567
▁iken	-11.0569
▁halkın	-11.057
ഹ	-11.0572
गत	-11.0577
▁yorumu	-11.0579
img	-11.0579
▁duyma	-11.058
▁جيد	-11.058
EX	-11.058
▁detaylar	-11.058
▁gönderildi	-11.0583
▁الجانب	-11.0584
▁14,	-11.0585
दान	-11.0586
▁ماذا	-11.0587
▁القمر	-11.0587
▁dedim	-11.0588
▁lan	-11.0588
▁öldü	-11.0588
▁وأضافت	-11.059
सं	-11.0591
▁Hoca	-11.0591
亚洲	-11.0593
▁Ertuğrul	-11.0593
▁للايجار	-11.0593
▁दिसंबर	-11.0593
▁दुकान	-11.0593
▁komşu	-11.0593
观	-11.0593
publish	-11.0594
सर	-11.0594
ර	-11.0594
elli	-11.0594
使	-11.0594
تحويل	-11.0595
-04-20	-11.0595
▁gayet	-11.0596
alan	-11.0596
▁المد	-11.0596
▁29,	-11.0597
6%	-11.0599
▁alıcı	-11.0599
▁tüketimi	-11.0599
▁128	-11.06
▁आपका	-11.0601
miyorum	-11.0601
▁تكشف	-11.0602
▁(5	-11.0602
يض	-11.0602
▁Gold	-11.0605
-2008	-11.0606
/07/	-11.0609
▁وتابع	-11.0609
ALI	-11.061
▁sözler	-11.0612
▁Fuarı	-11.0614
▁Haz	-11.0615
▁Kaymakamı	-11.0615
▁gelme	-11.0617
▁طويلة	-11.0618
▁eğlence	-11.0618
▁mat	-11.062
▁vazgeç	-11.0623
▁فرص	-11.0626
▁Best	-11.0626
ımızın	-11.0627
ല്‍	-11.0628
▁tv	-11.0628
▁الخامسة	-11.0634
▁बोल	-11.0635
सु	-11.0637
RT	-11.0637
提供	-11.0637
ো	-11.0638
角	-11.0638
▁कार्यकर्ता	-11.0638
▁Porno	-11.0638
▁آسيا	-11.0638
▁Meydanı	-11.064
▁تابع	-11.0641
بلدية	-11.0641
▁yükleme	-11.0641
تح	-11.0642
▁ettiler	-11.0642
▁uyku	-11.0644
▁kasa	-11.0645
-2016	-11.0647
▁الأمور	-11.0648
к	-11.0649
lmaz	-11.065
▁bet	-11.0652
▁toplantısında	-11.0652
Çocuk	-11.0655
جعل	-11.0655
tıcı	-11.0655
▁katı	-11.0655
عوا	-11.0656
▁याद	-11.0656
▁verici	-11.0656
▁ca	-11.0657
▁kul	-11.0657
ضار	-11.0657
▁مقالات	-11.0658
▁Trafik	-11.0658
▁الأجهزة	-11.0659
खा	-11.0661
▁जु	-11.0661
وفي	-11.0662
▁تواصل	-11.0662
வு	-11.0662
▁Toplantı	-11.0663
▁şansı	-11.0665
▁160	-11.0669
mesine	-11.0674
▁देर	-11.0674
▁dans	-11.0678
▁alanlarda	-11.0678
▁Aug	-11.0679
MAK	-11.068
▁söylüyor	-11.068
▁Tah	-11.0681
▁görevli	-11.0682
▁Arslan	-11.0682
▁Bedava	-11.0682
▁23,	-11.0683
▁الصلب	-11.0683
▁kalıcı	-11.0684
lenecek	-11.0684
▁الرحمن	-11.0684
रन	-11.0686
▁مرحلة	-11.0686
▁लो	-11.0686
▁لمواجهة	-11.0686
▁طباعة	-11.0687
▁النوم	-11.0687
ेल	-11.0688
rap	-11.0688
▁iste	-11.0688
مير	-11.0688
-23	-11.0688
▁Doğal	-11.0688
▁sözü	-11.0688
▁السفير	-11.0689
▁dikkatli	-11.0689
▁Emin	-11.069
عم	-11.069
stat	-11.0692
▁إقامة	-11.0692
▁ettim	-11.0695
▁पु	-11.0696
▁بطريقة	-11.0699
تواجد	-11.0699
ding	-11.0699
الحاجة	-11.0699
된	-11.07
▁aldık	-11.0703
▁ი	-11.0705
liğine	-11.0706
▁يح	-11.0707
جول	-11.0707
▁uygulamalar	-11.0707
▁الحوثي	-11.0708
mdan	-11.0709
▁İşlem	-11.071
قطاع	-11.071
▁lezzet	-11.0711
▁Hollanda	-11.0712
ল	-11.0713
关	-11.0714
▁detayları	-11.0714
dr	-11.0715
ნა	-11.0716
▁상	-11.0718
▁Hukuk	-11.0718
▁dk	-11.0718
YS	-11.0719
ही	-11.0721
▁Yatırım	-11.0721
▁çalıştığı	-11.0721
სი	-11.0723
atı	-11.0724
▁Arası	-11.0725
1-	-11.0725
umu	-11.0725
▁testi	-11.0726
考	-11.0726
blogspot	-11.0727
言	-11.0727
قط	-11.0727
▁بقيمة	-11.0727
▁سبورت	-11.0727
▁ikili	-11.0728
▁التشغيل	-11.0729
▁مياه	-11.0729
TB	-11.0729
gil	-11.073
▁olmalıdır	-11.0733
▁पहुंची	-11.0735
mail	-11.0736
▁pasta	-11.0738
▁rahatlıkl	-11.074
▁بالأ	-11.0741
▁1999	-11.0742
▁योग	-11.0742
▁hisse	-11.0742
▁dikkate	-11.0743
லை	-11.0743
▁يكن	-11.0745
▁வ	-11.0746
▁bekleme	-11.0746
▁البناء	-11.0746
▁evi	-11.0748
▁سبق	-11.0749
▁bulunur	-11.075
▁94	-11.0752
▁görüntülendi	-11.0753
zan	-11.0754
▁cenaze	-11.0756
كشف	-11.0757
▁ml	-11.0758
▁مجانية	-11.0758
ियन	-11.0759
▁John	-11.076
▁işleme	-11.076
▁miktarı	-11.0763
▁yaşamını	-11.0763
▁data	-11.0764
DİR	-11.0764
▁جعل	-11.0764
ظاهرة	-11.0765
sızlık	-11.0765
واجه	-11.077
具	-11.077
ଦ	-11.0772
▁yardımı	-11.0772
▁referans	-11.0772
岛	-11.0772
▁Koltuk	-11.0772
▁زايد	-11.0773
▁küresel	-11.0773
▁नोट	-11.0773
▁yürütülen	-11.0774
▁gelerek	-11.0774
▁وجاء	-11.0775
▁باللغة	-11.0776
▁resimleri	-11.0776
▁हमले	-11.0777
qui	-11.0778
▁kuruluş	-11.0779
▁Öncelikle	-11.0779
لقي	-11.0779
▁للغاية	-11.0779
LT	-11.078
حاول	-11.0781
▁يحمل	-11.0782
▁Sil	-11.0783
عجب	-11.0784
▁kimdir	-11.0784
▁kamyon	-11.0785
rc	-11.0786
▁yapım	-11.0786
▁Ey	-11.0787
▁ونحن	-11.0789
ارد	-11.079
분	-11.079
part	-11.0791
▁Tür	-11.0791
ऊ	-11.0791
leyici	-11.0793
▁oran	-11.0795
▁free	-11.0795
▁form	-11.0796
muyor	-11.0796
لاعب	-11.0797
▁Başka	-11.0799
▁girdiği	-11.08
▁Onlar	-11.08
▁App	-11.0802
▁Restoranları	-11.0802
▁الجزائري	-11.0803
dis	-11.0803
lenmiştir	-11.0805
ரா	-11.0806
▁शा	-11.0807
طن	-11.0807
▁akıl	-11.0807
ناس	-11.0808
~~	-11.0809
▁oynadığı	-11.0812
راس	-11.0812
جيب	-11.0812
رحب	-11.0813
非	-11.0816
bc	-11.0816
▁panel	-11.0816
配	-11.0817
▁أَ	-11.0817
▁organ	-11.0817
โ	-11.0817
▁الكبرى	-11.0817
▁शरीर	-11.0817
▁गुजरात	-11.0817
▁इलाज	-11.0818
失	-11.0818
lâ	-11.0818
▁ağzı	-11.0818
▁Kiralama	-11.0819
▁içer	-11.0819
▁Hakları	-11.082
▁ayda	-11.082
▁الجامعات	-11.0822
▁döviz	-11.0823
-%	-11.0825
▁Ağrı	-11.0825
▁النتائج	-11.0826
▁demektir	-11.0827
▁function	-11.0828
yy	-11.0832
ullah	-11.0834
▁Geç	-11.0835
▁करे	-11.0835
▁beğeni	-11.0835
▁ortamı	-11.0837
▁رؤية	-11.0837
▁Evde	-11.0839
▁çatı	-11.0839
▁كتبت	-11.084
▁alınacak	-11.0842
▁kulak	-11.0844
▁sayfada	-11.0844
tro	-11.0846
ვე	-11.0847
▁زر	-11.0847
രി	-11.0847
▁المسجد	-11.0848
ort	-11.0851
span	-11.0851
▁içeri	-11.0851
▁hai	-11.0851
▁aracın	-11.0852
▁arzu	-11.0852
ِي	-11.0853
▁برو	-11.0853
形	-11.0854
▁الاس	-11.0857
▁ليلة	-11.0857
▁يحتاج	-11.0857
▁Tanı	-11.0858
▁yürü	-11.0858
▁gelişmeler	-11.0859
imize	-11.086
لوك	-11.0861
▁birbirine	-11.0863
材料	-11.0863
报导	-11.0867
▁عل	-11.0868
▁bulma	-11.0869
▁IP	-11.0871
▁açıdan	-11.0871
ışı	-11.0873
▁bırakma	-11.0876
▁وجد	-11.0878
▁serisi	-11.0878
lm	-11.0879
▁الحالية	-11.088
개	-11.088
▁المؤسسة	-11.088
▁tr	-11.0881
▁ag	-11.0884
abileceği	-11.0885
▁93	-11.0888
likler	-11.0892
NG	-11.0893
▁طلاب	-11.0896
▁Sur	-11.0897
▁جميلة	-11.0897
▁Dönem	-11.0901
yü	-11.0901
▁Sıra	-11.0901
انا	-11.0903
rem	-11.0903
▁performansı	-11.0907
省	-11.0908
▁محكمة	-11.0908
▁kaldırıldı	-11.0908
▁olmaması	-11.0908
▁Pamuk	-11.0908
설	-11.0908
▁Çankaya	-11.0909
▁ah	-11.0909
▁ahşap	-11.0909
▁الأستاذ	-11.0909
▁प्लान	-11.0909
▁Ac	-11.0909
▁شهادة	-11.0909
▁الانسان	-11.0909
بيع	-11.091
▁ऑस्ट्रेलिया	-11.0911
▁जरूरत	-11.0911
▁kaydeden	-11.0911
▁الإصابة	-11.0913
ودي	-11.0914
▁biber	-11.0915
▁Kuvvetleri	-11.0915
▁تستخدم	-11.0916
▁PO	-11.0916
.09.20	-11.0917
▁vermesi	-11.0917
▁متاحة	-11.0918
▁الهواتف	-11.092
▁Burcu	-11.0921
▁takdirde	-11.0922
▁İndirim	-11.0922
▁فضل	-11.0923
▁الشعبية	-11.0923
نشط	-11.0925
▁سريع	-11.0926
▁aşı	-11.0926
lis	-11.0928
KE	-11.0928
▁الوجه	-11.0929
▁takı	-11.0933
▁Gelin	-11.0936
▁مقارنة	-11.094
erken	-11.094
يري	-11.0941
▁tarihte	-11.0943
िर	-11.0943
▁kura	-11.0944
الك	-11.0944
▁मध्य	-11.0945
▁Görüş	-11.0946
▁طول	-11.0947
YO	-11.0947
▁uzat	-11.0947
▁വി	-11.0948
世界杯	-11.0949
▁kızlar	-11.0949
لف	-11.0949
▁Pakistan	-11.0951
应	-11.0953
▁Ger	-11.0953
3)	-11.0954
推荐	-11.0954
▁çöp	-11.0954
▁अप्रैल	-11.0954
▁आयोजन	-11.0954
▁Köpek	-11.0954
▁पत्रकार	-11.0955
▁iftar	-11.0955
▁diliyorum	-11.0956
▁संबंधित	-11.0957
▁beyler	-11.0958
▁Kale	-11.0958
dığım	-11.0959
▁kilit	-11.0959
PS	-11.0961
▁misiniz	-11.0961
ümüz	-11.0962
▁yaptım	-11.0964
ec	-11.0965
▁YA	-11.0967
emez	-11.0967
fo	-11.0968
▁örgü	-11.0969
حرس	-11.0971
▁yazdığı	-11.0972
مرة	-11.0974
▁one	-11.0974
▁الأعضاء	-11.0975
▁China	-11.0976
▁sok	-11.0978
▁Gen	-11.0979
ब्र	-11.0979
한다	-11.098
▁1.0	-11.098
▁PA	-11.0981
ظل	-11.0981
▁والح	-11.0982
▁18,	-11.0982
▁gü	-11.0984
2.5	-11.0984
adi	-11.0985
▁Yerler	-11.0985
▁الحمل	-11.0985
بع	-11.0985
▁مواد	-11.0986
▁West	-11.0989
▁içme	-11.0991
▁sunum	-11.0992
pu	-11.0994
سعى	-11.0995
جور	-11.0996
ebileceği	-11.0997
▁Bilgiler	-11.0998
▁tasar	-11.1
技巧	-11.1
馆	-11.1
려	-11.1
코	-11.1
非常	-11.1001
▁कपूर	-11.1001
▁स्	-11.1001
▁BM	-11.1001
▁الاصلي	-11.1001
توجد	-11.1001
▁प्रदान	-11.1001
▁kültürel	-11.1004
عون	-11.1004
بعث	-11.1005
▁آب	-11.1005
vis	-11.1005
▁oynanan	-11.1006
▁بسرعة	-11.1006
▁filmin	-11.1007
▁الجزيرة	-11.1007
▁duyduğu	-11.1007
▁Berlin	-11.1009
▁91	-11.1009
kte	-11.1011
▁işlemler	-11.1012
gue	-11.1012
NIN	-11.1013
طرق	-11.1013
%2	-11.1013
▁yükle	-11.1015
مكان	-11.1017
▁ري	-11.1017
gov	-11.1019
▁böylece	-11.1019
1)	-11.1021
▁مق	-11.1021
பி	-11.1022
▁حالات	-11.1023
نزل	-11.1023
▁وهم	-11.1024
▁350	-11.1025
▁öner	-11.1026
▁programları	-11.1027
▁سليمان	-11.1027
▁kav	-11.1027
▁Dergisi	-11.1028
▁düşünme	-11.1028
▁وقع	-11.1031
▁Yağ	-11.1031
▁birden	-11.1033
▁450	-11.1034
▁apk	-11.1035
▁kredisi	-11.1035
▁عشرة	-11.1037
เ	-11.1038
▁teklifi	-11.1038
▁أبرز	-11.1039
بمنطقة	-11.1044
ica	-11.1044
TH	-11.1045
arken	-11.1045
企业	-11.1046
ු	-11.1046
产品	-11.1046
سكن	-11.1047
北京	-11.1047
합니다	-11.1047
Cumhurbaşkanlığı	-11.1047
▁euro	-11.1047
▁खत्म	-11.1047
皇冠	-11.1047
▁ufak	-11.1047
Fa	-11.1047
طم	-11.1048
▁korumak	-11.1048
ით	-11.1049
آل	-11.105
lamış	-11.105
▁الطائرة	-11.1053
▁الكهربائية	-11.1055
रु	-11.1055
NİN	-11.1055
▁uydu	-11.1058
تاب	-11.1058
▁Şikayet	-11.1058
▁sorgu	-11.1059
NDE	-11.1059
Lo	-11.106
شهد	-11.1062
ება	-11.1062
▁പ്ര	-11.1062
▁atama	-11.1062
ماء	-11.1063
▁Yolu	-11.1063
▁ürünün	-11.1063
▁metal	-11.1064
▁verimli	-11.1066
▁süs	-11.1068
▁falan	-11.1068
▁Indian	-11.1069
nak	-11.107
▁har	-11.107
▁öğret	-11.107
ash	-11.1071
거	-11.1073
▁adamı	-11.1075
इल	-11.1075
▁Fransız	-11.1076
ona	-11.1076
▁app	-11.1077
▁Yerli	-11.1079
ფ	-11.108
▁AUD	-11.1081
▁Delhi	-11.1081
▁Kursu	-11.1081
▁sesi	-11.1082
فان	-11.1082
ESİ	-11.1083
▁Payla	-11.1083
听	-11.1083
عرب	-11.1084
▁hayran	-11.1084
▁??	-11.1084
▁الخير	-11.1085
lamaya	-11.1085
▁الرقم	-11.1089
ime	-11.1091
GO	-11.1091
▁التالية	-11.1092
江	-11.1092
足	-11.1093
▁नही	-11.1093
血	-11.1093
▁दाम	-11.1093
▁Yavuz	-11.1093
▁teşvik	-11.1093
▁للحصول	-11.1093
디	-11.1093
▁कदम	-11.1094
▁Hayvan	-11.1095
▁لندن	-11.1095
▁CLP	-11.1095
▁شاشة	-11.1095
▁Birçok	-11.1095
▁पहला	-11.1096
▁nder	-11.1096
▁artması	-11.1096
▁TE	-11.1097
▁CM	-11.1097
▁बनी	-11.1098
رحل	-11.1099
▁المدن	-11.1099
கி	-11.1101
▁اللازمة	-11.1101
დე	-11.1103
▁مؤشر	-11.1104
▁kupa	-11.1105
▁Life	-11.1106
ami	-11.1106
▁شقق	-11.1107
▁sırt	-11.1107
▁Market	-11.1108
▁قرية	-11.1109
ত	-11.111
▁कट	-11.111
▁الإيراني	-11.1111
▁kıs	-11.1113
▁biridir	-11.1115
▁Pazarlama	-11.1116
▁bonus	-11.1118
▁115	-11.1118
단	-11.112
▁ايضا	-11.112
▁Galeri	-11.1121
▁iyice	-11.1122
▁hizmete	-11.1127
▁सेट	-11.1127
▁merkezine	-11.1128
los	-11.1128
यु	-11.1129
**	-11.1132
▁Yaşar	-11.1134
▁borç	-11.1135
▁الفنانة	-11.1135
▁(4	-11.1136
笑	-11.1139
▁Nakliyat	-11.114
▁स्टील	-11.114
▁انواع	-11.114
▁sendika	-11.114
▁Pendik	-11.1141
▁البيئة	-11.1141
ବ	-11.1141
▁hanım	-11.1142
▁sürecinde	-11.1142
真人	-11.1142
▁Kişisel	-11.1144
▁مستقبل	-11.1145
▁إس	-11.1147
▁الصباح	-11.1149
▁şa	-11.1149
▁الغذائية	-11.115
▁yumuşak	-11.115
><	-11.1151
قم	-11.1151
-21	-11.1153
ള	-11.1156
▁حفظ	-11.1156
▁ترك	-11.1157
▁الاولى	-11.1158
▁الجن	-11.1159
▁mağdur	-11.1162
▁etkinlikleri	-11.1162
▁prim	-11.1163
abi	-11.1163
▁geleceği	-11.1163
▁نشرت	-11.1164
▁dönemin	-11.1165
▁eser	-11.1165
▁لون	-11.1167
▁dalga	-11.1168
▁प्रकाश	-11.1168
▁sakin	-11.1168
▁Gizli	-11.1172
▁وخ	-11.1172
▁hazırlık	-11.1174
▁yazık	-11.1175
ेगा	-11.1176
▁tüketici	-11.1177
▁güçlendir	-11.1178
gy	-11.1179
▁mod	-11.1181
▁geçme	-11.1182
▁Villa	-11.1185
الا	-11.1186
冷	-11.1187
▁göğüs	-11.1187
▁kimyasal	-11.1187
▁अंतिम	-11.1187
▁sanırım	-11.1187
▁केंद्रीय	-11.1188
▁Memur	-11.1188
▁360	-11.1189
▁%100	-11.1192
öz	-11.1193
Po	-11.1193
▁üyelik	-11.1195
صبح	-11.1197
我的	-11.1198
▁yönde	-11.1198
▁dost	-11.1199
▁İsveç	-11.1204
ൽ	-11.1204
ული	-11.1204
▁kanıt	-11.1205
hur	-11.1205
▁harita	-11.1205
0924	-11.1206
▁ali	-11.1208
يئة	-11.1211
▁Devamını	-11.1213
فع	-11.1213
▁Ala	-11.1216
▁رأي	-11.1217
最近	-11.1217
story	-11.1217
▁tören	-11.1218
▁تحويل	-11.1218
قال	-11.1219
गल	-11.122
▁الكو	-11.122
▁Gar	-11.1225
سمع	-11.1225
▁kişiyi	-11.1225
حن	-11.1225
ेहद	-11.1226
▁Usta	-11.1227
say	-11.1228
▁olduk	-11.123
▁ettik	-11.1231
▁النصر	-11.1233
建	-11.1234
ป	-11.1234
ney	-11.1234
▁الشارقة	-11.1234
▁जनरल	-11.1234
▁yen	-11.1234
نف	-11.1234
larınızın	-11.1234
▁تحدث	-11.1235
▁EV	-11.1237
▁Vatan	-11.1238
▁başlat	-11.1238
ava	-11.1239
يء	-11.1239
▁उसका	-11.124
▁مساحة	-11.124
▁Toto	-11.1241
▁Japonya	-11.1242
▁geldiğini	-11.1244
ეს	-11.1247
▁يعود	-11.1248
୍	-11.1248
▁برئاسة	-11.1249
▁नौ	-11.125
▁الملفات	-11.1251
▁최	-11.1253
lenerek	-11.1253
▁sahil	-11.1254
tha	-11.1254
▁المشترك	-11.1255
غان	-11.1257
▁المل	-11.1258
▁ده	-11.1259
▁Ulusal	-11.1259
▁लोक	-11.1259
▁Sistemleri	-11.1261
نغ	-11.1262
▁Comment	-11.1263
▁Sizler	-11.1264
aca	-11.1265
▁beraberlik	-11.1267
▁हिन्दी	-11.1267
▁belir	-11.1268
▁boz	-11.1268
▁üstüne	-11.1269
شوف	-11.1269
लाल	-11.1269
مية	-11.1273
مثال	-11.1275
▁Cafe	-11.1275
▁çal	-11.1277
▁الكا	-11.1278
▁pi	-11.1278
يدة	-11.128
양	-11.1282
▁iddaa	-11.1282
▁şaşır	-11.1282
▁राशि	-11.1283
▁Nerede	-11.1283
▁لكي	-11.1284
▁Adıyaman	-11.1284
سبب	-11.1285
/03/	-11.1288
mut	-11.129
▁alınma	-11.129
条	-11.1292
MEK	-11.1292
▁الرئيسي	-11.1293
ப்பு	-11.1293
▁markaları	-11.1293
▁Real	-11.1293
▁çalışır	-11.1294
▁المخ	-11.1294
▁الأساسية	-11.1295
▁meydan	-11.1295
▁bakımı	-11.1295
▁varlık	-11.1297
▁1.2	-11.1301
几	-11.1301
مَ	-11.1304
▁öneri	-11.1304
▁Sistem	-11.1308
▁kazanç	-11.1309
▁Ser	-11.1309
▁sunar	-11.1309
nur	-11.1311
▁deneyimi	-11.1313
위	-11.1314
شد	-11.1314
Ak	-11.1316
▁platformu	-11.1317
resi	-11.1317
UŞ	-11.1318
تقدم	-11.1319
▁Yaklaşık	-11.1319
▁yerler	-11.1319
▁download	-11.132
/2019	-11.132
▁CE	-11.1321
XX	-11.1323
▁alanlar	-11.1327
▁حوار	-11.1327
拍	-11.1328
世	-11.1328
▁Oy	-11.1328
波	-11.1329
▁bez	-11.1329
▁Ze	-11.1329
酒	-11.1329
▁Özgür	-11.1329
▁اونلاين	-11.1329
프	-11.1329
▁cinayet	-11.133
▁yüzü	-11.133
▁देखते	-11.1331
篮球	-11.1331
▁kalıp	-11.1331
▁حصريا	-11.1332
720	-11.1332
الح	-11.1333
▁रखने	-11.1333
MM	-11.1333
▁लड़	-11.1333
▁اخت	-11.1334
▁Karaca	-11.1335
▁قادر	-11.1336
▁öğrencisi	-11.1336
▁مراكز	-11.1338
ذر	-11.1339
ლე	-11.1339
▁24,	-11.1339
تصرف	-11.1341
▁kurtar	-11.1342
▁his	-11.1344
▁Ayak	-11.1345
▁विजय	-11.1347
मेड़ी	-11.1347
▁bedeli	-11.1349
▁करवा	-11.1351
▁ورقة	-11.1351
▁مسابقة	-11.1351
تميز	-11.1351
TU	-11.1353
▁Olan	-11.1354
ack	-11.1356
▁بالرياض	-11.1356
▁evlilik	-11.1356
▁مخ	-11.1359
▁بارك	-11.1359
سان	-11.136
▁Bence	-11.136
▁EL	-11.1362
Fiyatları	-11.1367
▁yağı	-11.1368
▁கா	-11.1369
{	-11.137
دوا	-11.137
▁Mağaza	-11.1371
▁حمل	-11.1371
▁सांसद	-11.1371
चर	-11.1372
PM	-11.1373
-06-20	-11.1374
专	-11.1375
▁yükseldi	-11.1375
업	-11.1376
▁antrenman	-11.1377
▁itfaiye	-11.1377
▁müsabaka	-11.1377
▁अदालत	-11.1377
ारा	-11.1377
▁राष्ट्रपति	-11.1377
िता	-11.138
▁emeği	-11.138
▁يؤكد	-11.1381
▁Savaşı	-11.1381
▁that	-11.1382
لَ	-11.1382
▁يريد	-11.1383
برز	-11.1384
▁Aziz	-11.1387
▁aşama	-11.1388
▁sıfır	-11.1389
直	-11.1391
▁yanına	-11.1392
▁br	-11.1392
你的	-11.1392
▁المعرض	-11.1397
▁ga	-11.1397
▁getirme	-11.1397
▁Grand	-11.1397
▁بني	-11.1397
ust	-11.1398
▁مجتمع	-11.1398
vet	-11.1399
رحم	-11.14
RU	-11.1401
▁वन	-11.1402
فصل	-11.1403
▁Giresun	-11.1404
▁الفصل	-11.1404
▁تركيب	-11.1405
ELİ	-11.1406
خي	-11.1407
uma	-11.141
▁yelik	-11.141
777	-11.1412
▁صناعة	-11.1414
▁bizimle	-11.1416
▁توقعات	-11.1416
▁خمس	-11.1417
▁ey	-11.1417
▁गर्म	-11.1418
▁verilme	-11.1419
-2017	-11.1419
işi	-11.1421
َيْ	-11.1421
IZ	-11.1422
PT	-11.1422
园	-11.1424
▁آي	-11.1424
▁भगवान	-11.1425
▁zeytin	-11.1425
▁बाइक	-11.1425
="0"	-11.1425
히	-11.1425
▁galibiyet	-11.1425
▁fiziksel	-11.1425
india	-11.1426
ممارسة	-11.1427
▁kutlama	-11.1427
örü	-11.1428
▁तेल	-11.1429
▁القر	-11.1429
lanarak	-11.143
▁taraftar	-11.143
"}}	-11.143
raz	-11.1431
वाद	-11.1432
▁sil	-11.1433
▁النسخة	-11.1434
▁Gri	-11.1435
यो	-11.1435
حر	-11.1435
▁فهي	-11.1436
▁kesme	-11.1436
▁पंजाब	-11.1437
▁İşletme	-11.1437
▁yerleştir	-11.1437
اكس	-11.1438
▁सोच	-11.1438
▁يورو	-11.1439
--	-11.1441
▁Bahar	-11.1442
dıktan	-11.1444
▁التجاري	-11.1445
قار	-11.1447
▁Kerim	-11.1447
▁جار	-11.1447
▁Led	-11.1447
mü	-11.145
不过	-11.1451
DS	-11.1451
▁16.	-11.1452
001	-11.1453
▁günümüzde	-11.1453
▁sun	-11.1456
oto	-11.1457
Dr	-11.1458
abileceğiniz	-11.1458
▁tanıma	-11.146
▁خلالها	-11.1461
很多	-11.1461
function	-11.1462
▁hedefi	-11.1463
مكافحة	-11.1463
/02/	-11.1464
ios	-11.1465
▁الحديثة	-11.1465
▁arttı	-11.1466
Si	-11.1466
زوج	-11.1467
▁onur	-11.1468
▁ସ	-11.1468
▁Ch	-11.1471
微	-11.1472
burg	-11.1472
春	-11.1473
▁अपडेट	-11.1473
▁filtre	-11.1473
▁itiraz	-11.1473
喝	-11.1473
记者	-11.1473
▁खिलाड़ी	-11.1473
مجموعة	-11.1474
SP	-11.1474
▁başlaması	-11.1475
▁أساس	-11.1476
▁कला	-11.1476
▁VAR	-11.1476
▁Aslında	-11.1476
▁المه	-11.1477
▁रे	-11.1479
▁Ortak	-11.148
lot	-11.148
Kara	-11.148
▁किसानों	-11.1482
▁yükseliş	-11.1482
▁بخصوص	-11.1486
▁बचत	-11.1487
▁المسلسل	-11.1488
▁Bahçeli	-11.1489
▁النيابة	-11.1489
امل	-11.1491
ابة	-11.1491
▁Bed	-11.1494
acağım	-11.1494
▁التونسي	-11.1494
▁Devam	-11.1495
▁ستكون	-11.1495
▁حلم	-11.1497
▁style	-11.1498
▁başvur	-11.1499
▁TÜRKİYE	-11.1499
▁geçer	-11.1501
▁(6)	-11.1501
▁معا	-11.1502
▁الحسين	-11.1503
▁Valiliği	-11.1503
▁konulu	-11.1504
▁إست	-11.1504
120	-11.1505
put	-11.1506
▁الكر	-11.1507
▁درجات	-11.1509
lenebilir	-11.1509
▁Onun	-11.1511
عتقد	-11.1511
rol	-11.1513
wal	-11.1514
ულ	-11.1514
▁değerlendiril	-11.1516
▁اسعار	-11.1517
▁hayatta	-11.1517
▁أح	-11.1518
JI	-11.1519
▁سيما	-11.152
▁الشمس	-11.1521
터	-11.1522
座	-11.1522
▁पूजा	-11.1522
▁دمشق	-11.1522
▁acaba	-11.1522
த்தில்	-11.1523
▁şehrin	-11.1523
▁Umut	-11.1524
▁yolculuk	-11.1524
▁düzenlenecek	-11.1527
mel	-11.1527
म्ब	-11.1528
▁विचार	-11.1528
▁belirlendi	-11.1529
▁lüks	-11.1529
डा	-11.1531
▁Bet	-11.1531
▁الأزمة	-11.1532
▁Camii	-11.1533
leşmiş	-11.1534
▁الطبي	-11.1535
▁Artı	-11.1536
ore	-11.1536
fil	-11.1536
▁مال	-11.1537
▁başardı	-11.1539
▁Düz	-11.1539
▁Up	-11.1541
▁Kalp	-11.1542
▁sporcu	-11.1543
▁अव	-11.1545
▁87	-11.1546
▁artan	-11.1546
çü	-11.1546
){	-11.1547
▁IS	-11.1548
▁إعداد	-11.1548
mad	-11.1548
▁ayağı	-11.1548
▁başlığı	-11.1548
സി	-11.1548
▁حمد	-11.1549
yerek	-11.1549
▁내	-11.155
تعلم	-11.1552
▁oyuncuları	-11.1552
gra	-11.1553
▁olanak	-11.1553
lması	-11.1553
▁Beğen	-11.1553
切	-11.1554
▁oynama	-11.1555
mir	-11.1555
ाइड	-11.1558
रि	-11.1562
خدم	-11.1562
çu	-11.1562
不知道	-11.1563
▁उपकरण	-11.1563
▁الطلب	-11.1564
ılmıştır	-11.1564
தா	-11.1564
bak	-11.1565
▁idare	-11.1565
▁İs	-11.1566
نَ	-11.1566
▁أصل	-11.1566
▁وراء	-11.1568
CU	-11.1568
력	-11.1569
餐	-11.1569
▁समस्या	-11.157
易	-11.157
▁sür	-11.157
باس	-11.157
ช	-11.1571
投注	-11.1571
ഭ	-11.1571
▁Restaurant	-11.1571
▁قنوات	-11.1571
▁मजबूत	-11.1571
▁विकेट	-11.1571
▁सप्ताह	-11.1571
▁تساعد	-11.1571
▁جهود	-11.1571
▁gidiş	-11.1573
▁musunuz	-11.1573
▁yapılıyor	-11.1579
ूर	-11.1581
غام	-11.1581
▁Çorum	-11.1582
▁انها	-11.1582
▁المدارس	-11.1583
روا	-11.1586
▁بعيد	-11.1589
▁बनाए	-11.1589
▁Pra	-11.159
▁30,	-11.1591
也是	-11.1593
▁الشام	-11.1594
▁متابعة	-11.1594
اكي	-11.1595
▁السبب	-11.1596
▁بلغت	-11.1596
▁परि	-11.1596
▁temsilcileri	-11.1597
جوز	-11.1597
▁üstünde	-11.1599
▁Burak	-11.1599
▁paylaşmak	-11.1601
▁حقق	-11.1602
فهم	-11.1602
▁çözümü	-11.1604
▁Office	-11.1605
▁formu	-11.1606
फर	-11.1606
யா	-11.1607
▁altyapı	-11.1611
طلاق	-11.1611
▁KDV	-11.1611
▁Boyut	-11.1612
联	-11.1618
富	-11.1619
▁kapasitesi	-11.1619
ท	-11.1619
▁ham	-11.162
▁Sipariş	-11.162
▁makyaj	-11.162
종	-11.162
▁sermaye	-11.162
▁कार्यालय	-11.162
mba	-11.162
▁Sinop	-11.162
▁organize	-11.1621
▁भारी	-11.1621
▁एयर	-11.1621
▁yaşıyor	-11.1621
▁إل	-11.1622
ÜN	-11.1622
▁26,	-11.1625
▁Bursaspor	-11.1627
▁اضافة	-11.1627
▁köpek	-11.1628
سين	-11.1632
FI	-11.1634
-2015	-11.1634
▁तय	-11.1636
▁लिख	-11.1636
اله	-11.1636
▁وو	-11.1637
ที่	-11.1638
▁لديك	-11.1638
▁Şeker	-11.1639
▁ekle	-11.1639
larca	-11.164
MS	-11.1641
▁2014,	-11.1642
रू	-11.1644
▁anlamlı	-11.1644
▁aralık	-11.1645
▁خمسة	-11.1649
LAMA	-11.165
زل	-11.1651
▁पो	-11.1652
▁Yunus	-11.1652
▁واسعة	-11.1653
شة	-11.1653
▁uygulan	-11.1654
rr	-11.1654
▁أفراد	-11.1654
▁2001	-11.1655
▁görünüm	-11.1656
▁قرب	-11.1662
Daha	-11.1663
▁Ateş	-11.1664
▁रेल	-11.1664
▁yerlerde	-11.1665
景	-11.1667
ئة	-11.1668
▁götür	-11.1669
▁Avukat	-11.1669
▁पीछे	-11.1669
阳	-11.1669
咖啡	-11.1669
▁Modern	-11.1669
▁tutuklu	-11.167
▁duy	-11.1671
يكا	-11.1672
▁geçiyor	-11.1674
▁चि	-11.1674
▁Sep	-11.1675
▁السم	-11.1675
▁يوفر	-11.1676
▁satan	-11.1676
▁التقرير	-11.1677
▁कराने	-11.1679
▁İz	-11.168
可能	-11.1681
▁كشفت	-11.1683
▁भाषा	-11.1684
▁davranış	-11.1684
▁kuvvet	-11.1684
توافق	-11.1686
نيا	-11.1686
▁yakında	-11.1687
▁الكتب	-11.1687
▁الالكترونية	-11.1689
حجز	-11.169
▁geçirdiği	-11.169
maları	-11.169
▁MO	-11.1691
ാണ്	-11.1693
▁sürü	-11.1694
idi	-11.1694
طال	-11.1695
▁ट्र	-11.1695
▁دعا	-11.1695
▁어	-11.1696
UZ	-11.1697
▁eşit	-11.1699
▁Çözüm	-11.17
!”	-11.1701
▁2020,	-11.1701
book	-11.1704
▁duru	-11.1704
▁مج	-11.1707
▁İşçi	-11.1707
▁şehrinde	-11.1707
▁Filistin	-11.1707
▁KAT	-11.171
▁कानून	-11.1711
AG	-11.1711
▁रोक	-11.1711
果	-11.1714
lacak	-11.1716
ومي	-11.1717
room	-11.1717
素	-11.1717
病	-11.1718
▁klasik	-11.1718
▁ऊपर	-11.1718
▁अभियान	-11.1719
▁Londra	-11.1719
▁yüzlerce	-11.1719
▁plastik	-11.1719
▁العيد	-11.172
▁안	-11.172
▁aran	-11.172
▁edilmektedir	-11.1721
▁we	-11.1724
▁يوميا	-11.1725
MB	-11.1725
▁#8	-11.1728
▁gerçekleşti	-11.1729
▁ملفات	-11.1729
▁Kit	-11.1729
▁azalt	-11.1734
▁birşey	-11.1735
▁SU	-11.1736
تأكد	-11.1737
▁şiir	-11.1738
▁Köy	-11.1738
▁rekor	-11.1738
فوق	-11.1741
%3	-11.1741
▁Esnaf	-11.1741
pl	-11.1742
▁mezar	-11.1742
▁ihtimali	-11.1743
أجهزة	-11.1744
صوم	-11.1744
▁omuz	-11.1746
AYI	-11.1746
▁وتحميل	-11.1746
▁الكشف	-11.1746
▁şirketin	-11.1747
BS	-11.1747
▁التنفيذي	-11.1749
▁car	-11.1749
क्र	-11.1751
推	-11.1753
yol	-11.1753
▁التحقيق	-11.1754
▁saatte	-11.1755
تكون	-11.1756
٩	-11.1758
▁Salih	-11.1758
▁Kapalı	-11.1758
allah	-11.176
▁بِ	-11.176
▁erdi	-11.1762
حرم	-11.1762
▁Dan	-11.1763
▁birer	-11.1764
▁KAR	-11.1765
赢	-11.1767
依	-11.1768
′	-11.1768
毛	-11.1768
ॅ	-11.1768
▁위치	-11.1768
▁eşliğinde	-11.1768
▁Zafer	-11.1769
▁Plastik	-11.1769
ated	-11.177
▁نيويورك	-11.177
▁المدرسة	-11.177
▁صحيح	-11.177
▁sanık	-11.177
▁isimleri	-11.177
.25	-11.1772
▁derecede	-11.1772
▁लगता	-11.1772
▁يبدو	-11.1773
▁Kurt	-11.1773
फे	-11.1773
गंज	-11.1774
old	-11.1777
▁يؤدي	-11.1777
▁تست	-11.1777
▁عمرو	-11.1778
cent	-11.1778
▁Media	-11.1778
▁الأسد	-11.1779
▁yaptığımız	-11.1779
önü	-11.1779
▁yaptığını	-11.1779
ens	-11.1783
GI	-11.1784
া	-11.1785
عياد	-11.1786
▁رسائل	-11.1788
▁fon	-11.1788
▁Il	-11.1789
▁المادة	-11.1789
▁pc	-11.179
▁Resimleri	-11.1791
▁bulunduğunu	-11.1791
mem	-11.1792
▁((	-11.1792
less	-11.1793
▁إفريقيا	-11.1794
أفضل	-11.1794
▁1,5	-11.1794
▁yazısı	-11.1794
▁MS	-11.1795
▁الام	-11.1795
ম	-11.1795
▁gelişmiş	-11.1796
▁Dün	-11.1796
▁Örnek	-11.1796
▁92	-11.1799
▁haftada	-11.18
يرو	-11.1801
wo	-11.1801
الله	-11.1804
▁başkanları	-11.1805
ார்	-11.1806
▁Banyo	-11.1807
قات	-11.1807
最新	-11.1808
타	-11.1813
دمج	-11.1814
牛	-11.1817
무	-11.1818
兴	-11.1818
独	-11.1818
河	-11.1818
离	-11.1818
금	-11.1818
族	-11.1818
▁ambalaj	-11.1818
▁bedava	-11.1818
м	-11.1818
地址	-11.1818
木	-11.1818
▁المكان	-11.1819
▁ulusal	-11.182
▁İmamoğlu	-11.182
ாக	-11.182
▁Mod	-11.1821
▁taze	-11.1821
▁أبناء	-11.1822
▁العاملين	-11.1823
-01-20	-11.1824
has	-11.1824
▁مبارك	-11.1824
▁alırken	-11.1824
▁olduğum	-11.1825
▁puanı	-11.1826
ori	-11.1827
▁ayrıldı	-11.1828
▁yet	-11.1828
ल्कि	-11.1828
▁الحالات	-11.183
klerini	-11.1831
वत	-11.1833
▁الوسط	-11.1834
▁السياحية	-11.1835
▁kitle	-11.1835
فكر	-11.1839
▁NO	-11.184
▁Foto	-11.1841
عب	-11.1842
تعادل	-11.1844
▁TEK	-11.1846
▁‫	-11.1846
▁isteyenler	-11.1848
▁जानें	-11.1848
▁medyada	-11.1848
▁edilme	-11.1848
▁Stil	-11.1849
ाबाद	-11.1851
kür	-11.1852
▁عامل	-11.1852
▁الشي	-11.1854
▁الجلد	-11.1854
350	-11.1855
▁kağıt	-11.1856
▁ച	-11.1857
▁प्रेम	-11.1861
안	-11.1864
▁kaynakları	-11.1864
▁देशों	-11.1866
▁माना	-11.1866
▁الشريف	-11.1867
▁कनाडा	-11.1868
▁orijinal	-11.1868
▁جلسة	-11.187
▁Ph	-11.1872
▁yukarı	-11.1874
▁°	-11.1874
▁ന	-11.1874
▁العلمية	-11.1876
▁Olma	-11.1876
▁tren	-11.1878
حذر	-11.1879
kul	-11.1879
▁سات	-11.1879
▁çocuğu	-11.188
عمر	-11.188
وعية	-11.188
▁gittiği	-11.1881
▁الوظائف	-11.1882
▁أداء	-11.1882
▁Love	-11.1883
▁çalıştı	-11.1888
▁신	-11.189
▁aylarında	-11.189
▁जम्मू	-11.189
▁EK	-11.1891
lad	-11.1891
▁(10	-11.1891
▁مميز	-11.1895
▁başvurusu	-11.1895
चार	-11.1897
ृ	-11.1897
diler	-11.1897
▁تقارير	-11.1898
▁ilerle	-11.1898
▁تحسين	-11.19
▁çocuklara	-11.1902
▁çeşit	-11.1903
زه	-11.1903
عادة	-11.1903
-24	-11.1905
▁해	-11.1906
▁Başarı	-11.1906
inize	-11.1907
▁düzeyde	-11.1908
ี	-11.1909
▁هؤلاء	-11.191
▁Uşak	-11.1911
▁अस	-11.1916
lerdeki	-11.1917
▁فَ	-11.1918
▁منع	-11.1919
介绍	-11.1919
본	-11.1919
▁Fırat	-11.1919
▁महत्वपूर्ण	-11.1919
▁सचिव	-11.1919
▁Holding	-11.1919
▁लागू	-11.1919
▁चुका	-11.1919
/08/	-11.192
▁Adnan	-11.192
▁manevi	-11.192
像	-11.192
मर	-11.1922
▁üretilen	-11.1922
▁vesile	-11.1924
ايل	-11.1926
▁تقل	-11.1927
/04/	-11.1927
قاب	-11.1928
ତ	-11.1928
Cİ	-11.1929
▁#6	-11.1929
Mo	-11.193
yap	-11.193
▁yoluyla	-11.1931
类	-11.1931
OP	-11.1932
ولد	-11.1934
▁بينها	-11.1936
▁عادل	-11.1937
▁لأول	-11.1937
▁dediği	-11.1937
▁2011,	-11.1938
▁alana	-11.194
▁مز	-11.194
▁Selam	-11.194
▁مدبلج	-11.1941
▁थ	-11.1941
▁İlişkiler	-11.1942
light	-11.1943
▁ziyaretçi	-11.1944
ட்டு	-11.1944
▁kayıp	-11.1944
▁bizleri	-11.1944
sever	-11.1944
lıkları	-11.1945
berg	-11.1945
▁فصل	-11.1946
▁noktası	-11.1946
دافع	-11.1947
▁comment	-11.1948
▁aldığını	-11.1948
▁duruma	-11.1949
▁الصوت	-11.1949
قود	-11.1951
kle	-11.1952
ின்	-11.1952
جولة	-11.1953
130	-11.1954
ّا	-11.1955
واء	-11.1956
发现	-11.1956
▁छात्र	-11.1957
doğ	-11.1957
▁opsiyon	-11.1958
▁الإنسانية	-11.196
▁حقيقة	-11.1965
ابي	-11.1965
ستخدم	-11.1966
▁diz	-11.1967
▁연	-11.1968
▁بور	-11.1969
فيس	-11.1969
larken	-11.1969
แ	-11.197
رويترز	-11.197
▁Pradesh	-11.197
▁الإسكندرية	-11.197
직	-11.197
▁Dosya	-11.197
▁vakti	-11.197
▁iklim	-11.197
▁Karabük	-11.197
▁bayrak	-11.197
სა	-11.1971
▁Özdemir	-11.1971
▁غياب	-11.1971
▁इलाके	-11.1972
▁Hadi	-11.1972
▁بعنوان	-11.1973
▁இந்த	-11.1973
▁تستطيع	-11.1973
▁dön	-11.1974
▁gösteri	-11.1974
yaz	-11.1974
▁الإن	-11.1974
▁tıkla	-11.1976
leyin	-11.1977
ന്ന	-11.1978
▁حمام	-11.1983
▁متعددة	-11.1983
▁Red	-11.1983
▁हे	-11.1984
▁Bize	-11.1985
比较	-11.1985
▁gelişim	-11.1986
▁sanki	-11.1987
▁sigorta	-11.1987
整	-11.1987
حدث	-11.1987
ங்கள்	-11.1988
لقد	-11.199
▁nesil	-11.199
▁yönet	-11.199
▁yüksel	-11.1991
أس	-11.1991
▁بدل	-11.1993
ذي	-11.1993
▁algı	-11.1994
னை	-11.1997
▁grafik	-11.1999
▁Rüya	-11.2002
▁أكدت	-11.2003
▁تمكن	-11.2003
▁منح	-11.2003
चा	-11.2004
पे	-11.2004
▁21,	-11.2005
่	-11.2007
▁projeleri	-11.2008
gre	-11.2008
▁İLE	-11.2009
></	-11.201
▁Time	-11.2011
kov	-11.2011
▁tarifleri	-11.2013
▁temin	-11.2013
▁bulan	-11.2013
▁geride	-11.2014
▁fotoğrafları	-11.2017
▁أسماء	-11.2019
▁Gel	-11.2019
～	-11.202
▁ثانية	-11.2021
亚	-11.2021
မ	-11.2021
▁प्रयास	-11.2021
▁مغلقة	-11.2021
▁ضوء	-11.2021
▁Zamanı	-11.2021
▁चालक	-11.2021
▁हासि	-11.2021
▁كيلو	-11.2021
▁पटेल	-11.2021
▁حبيب	-11.2022
CC	-11.2022
كسر	-11.2022
▁Çal	-11.2023
ियो	-11.2026
▁eleştiri	-11.2026
▁uygulanan	-11.2026
हमने	-11.2027
▁gençler	-11.203
lardaki	-11.203
▁Vergi	-11.2031
▁فوائد	-11.2032
▁Devamı	-11.2032
▁vefat	-11.2032
صحة	-11.2032
▁şart	-11.2033
VR	-11.2034
حمل	-11.2035
▁TO	-11.2036
kor	-11.2036
TT	-11.2038
▁kimliği	-11.2038
▁पदों	-11.2039
LEN	-11.2039
▁المعارضة	-11.2041
ليت	-11.2041
تعلق	-11.2042
▁(0	-11.2042
▁الثانوية	-11.2042
▁العملات	-11.2043
პ	-11.2044
sik	-11.2045
▁açtığı	-11.2047
▁يدعو	-11.2047
شكل	-11.2048
▁oynan	-11.2049
▁Tagged	-11.205
▁Min	-11.205
▁حذف	-11.205
▁Maliye	-11.2051
▁Çe	-11.2052
سة	-11.2053
▁FA	-11.2054
▁personelin	-11.2056
▁geçmek	-11.2056
▁उठा	-11.2056
malısınız	-11.2056
▁سياسي	-11.2059
▁şans	-11.2059
iller	-11.206
▁تجاه	-11.206
வை	-11.2061
qua	-11.2062
▁എ	-11.2063
▁تجد	-11.2063
जल	-11.2064
Bo	-11.2064
▁حضر	-11.2065
▁OR	-11.2067
▁google	-11.2068
赛	-11.207
久	-11.207
影	-11.2071
▁अनुभव	-11.2072
▁फरवरी	-11.2072
▁أفريقيا	-11.2072
▁imar	-11.2072
皮	-11.2072
九	-11.2072
▁inşallah	-11.2072
▁संयुक्त	-11.2072
lendiği	-11.2073
▁بيروت	-11.2073
▁Mühendisliği	-11.2073
▁वक्त	-11.2073
▁مستويات	-11.2073
▁kullanılabilir	-11.2074
▁Fatma	-11.2074
▁हमारी	-11.2075
▁خصوصا	-11.2076
▁paketi	-11.2076
▁tabii	-11.2076
ينغ	-11.2078
▁sektörü	-11.2078
▁kafe	-11.2079
MEN	-11.2082
▁Geldi	-11.2082
▁الهجوم	-11.2082
▁KKTC	-11.2083
▁idi	-11.2083
▁sinir	-11.2084
رئاسة	-11.2085
▁تطلق	-11.2086
kça	-11.2086
▁tarihine	-11.2086
▁War	-11.2087
▁الإدارية	-11.209
▁hain	-11.2091
▁izlendi	-11.2091
حماية	-11.2091
न्	-11.2092
▁डिजाइन	-11.2093
▁düş	-11.2096
▁tutma	-11.2096
▁gez	-11.2099
ـــــ	-11.2101
▁anlay	-11.2101
▁sözlerine	-11.2102
كثر	-11.2103
yeni	-11.2105
▁fuar	-11.2106
ক	-11.2109
EV	-11.211
▁sordu	-11.2112
▁yönetici	-11.2113
▁اجل	-11.2115
▁avantaj	-11.2117
▁temizliği	-11.2118
ଲ	-11.2119
▁सके	-11.2119
lanacak	-11.2119
▁كانوا	-11.2119
▁Kütahya	-11.212
▁للس	-11.2121
▁تأثير	-11.2121
信息	-11.2122
▁Hayatı	-11.2122
▁राष्ट्र	-11.2123
▁namazı	-11.2123
极	-11.2123
巴	-11.2123
생	-11.2123
▁Silikon	-11.2124
▁Şimşek	-11.2124
▁उत्पाद	-11.2124
▁Kabul	-11.2125
▁İmam	-11.2126
▁sunuyoruz	-11.2126
قيد	-11.2126
▁दिखाई	-11.2126
▁iktidar	-11.2127
▁geçici	-11.2127
미	-11.2127
اوية	-11.2127
官方	-11.2127
▁विवाद	-11.2127
▁plakalı	-11.2128
رْ	-11.2128
▁ilanı	-11.213
▁dal	-11.213
▁المنظمة	-11.2131
▁koru	-11.2132
▁الذكية	-11.2134
▁Bulundu	-11.2134
▁Erol	-11.2135
▁सामान	-11.2135
ड़े	-11.2135
▁الصغيرة	-11.214
▁bayanlar	-11.2141
▁Takip	-11.2144
يص	-11.2145
لس	-11.2146
رار	-11.2148
▁habere	-11.2148
▁kapan	-11.215
▁المقاومة	-11.215
▁जय	-11.215
▁veriler	-11.2154
▁sıcaklığı	-11.2158
kay	-11.2158
▁yazarı	-11.2158
▁çalışanları	-11.216
जर	-11.216
fet	-11.2161
▁harcama	-11.2162
▁hi	-11.2162
म्	-11.2163
دد	-11.2163
▁Tic	-11.2164
▁WhatsApp	-11.2165
▁उम्मीदवार	-11.2168
पो	-11.2169
▁Kurul	-11.2169
1000	-11.2169
▁تدخل	-11.2172
▁Inter	-11.2172
sün	-11.2174
▁depo	-11.2174
▁المسلم	-11.2174
往	-11.2175
▁قائلا	-11.2175
▁Chat	-11.2175
ୀ	-11.2175
හ	-11.2175
▁कप्तान	-11.2175
版权所有	-11.2175
▁الزيارات	-11.2176
▁مانشستر	-11.2176
▁muhtar	-11.2176
문	-11.2178
تراجع	-11.2179
▁Master	-11.218
▁اقرأ	-11.218
ward	-11.2181
عاش	-11.2181
▁Toplantısı	-11.2182
▁İdaresi	-11.2183
▁göç	-11.2185
▁साफ	-11.2186
▁Mark	-11.2187
حيل	-11.2187
ॉल	-11.2187
▁मि	-11.2188
▁book	-11.219
افلام	-11.2191
قض	-11.2192
▁AC	-11.2192
▁Başakşehir	-11.2192
كمل	-11.2193
▁لشركة	-11.2194
▁kazı	-11.2194
▁Restoran	-11.2195
▁4-	-11.2195
قَ	-11.2195
▁Altı	-11.2196
▁البلدين	-11.2197
قبل	-11.2198
▁توفر	-11.2198
▁أمريكي	-11.2199
-2012,	-11.22
▁رسول	-11.2204
▁İzmit	-11.2205
▁birinin	-11.2205
Tüm	-11.2206
▁शक्ति	-11.2207
▁sürdü	-11.2208
▁سلام	-11.2209
श्	-11.2209
▁ضم	-11.221
row	-11.221
▁Kaymakam	-11.221
▁false	-11.2212
▁طويل	-11.2214
▁تدريب	-11.2214
eks	-11.2214
▁تجمع	-11.2217
▁yarışma	-11.2218
▁başlattı	-11.2219
▁geçirmek	-11.2219
▁girme	-11.2219
▁sınavı	-11.2219
▁oldum	-11.2222
▁Kampanya	-11.2224
르	-11.2226
思	-11.2227
▁الإعلامي	-11.2227
▁egzersiz	-11.2227
▁Siirt	-11.2227
▁sebze	-11.2227
▁लौट	-11.2228
منظومة	-11.2228
▁hitap	-11.2228
▁पैसे	-11.2228
▁Kars	-11.2228
▁वायरस	-11.2228
HO	-11.2229
▁इंच	-11.2229
أنظمة	-11.2229
ettin	-11.223
▁yapılmaktadır	-11.223
110	-11.2231
▁आकार	-11.2232
فتر	-11.2232
员	-11.2233
▁çıkart	-11.2233
جزيرة	-11.2234
كورونا	-11.2236
▁tas	-11.2236
▁اتصال	-11.2236
▁olunca	-11.2238
द्ध	-11.2239
▁öldür	-11.2239
زر	-11.2242
▁seyirci	-11.2243
▁Oct	-11.2243
▁Ban	-11.2244
▁Süre	-11.2246
▁وغير	-11.2247
imizde	-11.2248
غن	-11.2248
▁Kanun	-11.2248
ीम	-11.2249
▁sıcaklık	-11.225
▁الدستور	-11.225
RC	-11.2251
▁olmasa	-11.2252
▁الطبيعية	-11.2253
▁doldur	-11.2254
▁فرض	-11.2255
▁kurs	-11.2255
▁الشخصي	-11.2255
فرق	-11.2256
HS	-11.2256
▁yapıp	-11.2258
▁هواتف	-11.2258
▁Arabic	-11.2263
▁Sch	-11.2263
ربة	-11.2263
▁الوسوم	-11.2264
izi	-11.2264
▁كثيرة	-11.2266
▁sağlanması	-11.2269
Bİ	-11.2269
kap	-11.2269
▁نقدم	-11.227
diğim	-11.2272
▁ANKARA	-11.2273
صال	-11.2274
efendi	-11.2276
/2018	-11.2277
▁15,	-11.2278
▁başar	-11.2278
ğini	-11.2278
▁الكبيرة	-11.2278
茶	-11.228
▁unutmayın	-11.228
喔	-11.228
ැ	-11.228
▁Yalçın	-11.228
▁सुनवाई	-11.228
▁Ada	-11.228
▁हूँ	-11.228
▁الدراسات	-11.228
权	-11.228
复	-11.228
▁Yunan	-11.2281
▁संघ	-11.2281
▁स्थानीय	-11.2281
▁वित्त	-11.2281
▁Oyuncak	-11.2281
ICI	-11.2282
▁odaları	-11.2282
▁sorunsuz	-11.2282
▁find	-11.2283
知	-11.2283
▁يستطيع	-11.2283
▁Zaten	-11.2284
▁مشاريع	-11.2288
KDV	-11.2289
▁조	-11.229
طول	-11.2292
▁eserleri	-11.2293
▁Öyle	-11.2293
hak	-11.2293
▁ولو	-11.2294
ട്ട	-11.2294
علي	-11.2296
▁Ref	-11.2296
▁tekne	-11.2298
▁Aracı	-11.2298
yarak	-11.2304
▁اللهم	-11.2304
▁Bitcoin	-11.2304
ju	-11.2305
▁Form	-11.2306
▁açılması	-11.2309
▁إثر	-11.2311
▁البيضاء	-11.2313
▁पकड़	-11.2315
سيم	-11.2315
▁ala	-11.2316
▁kendinizi	-11.2317
▁Kav	-11.2318
फी	-11.2319
▁fazlası	-11.2319
▁القانونية	-11.2319
▁Beden	-11.232
ियर	-11.232
▁Batman	-11.2321
meyecek	-11.2322
▁gelişmesi	-11.2322
▁شعار	-11.2324
▁परेशान	-11.2325
▁تسبب	-11.2326
▁kardeş	-11.2328
ابل	-11.2328
റ്റ	-11.2331
▁याचिका	-11.2332
▁الإنتاج	-11.2333
▁समीक्षा	-11.2333
▁وخاصة	-11.2333
▁أسباب	-11.2333
content	-11.2333
▁प्रयोग	-11.2333
▁bayi	-11.2334
▁hekim	-11.2334
▁Detaylı	-11.2336
▁بالقرب	-11.2338
2013,	-11.2339
गु	-11.2339
rent	-11.2339
▁üstün	-11.2339
▁ulaşma	-11.234
▁بريطانيا	-11.234
▁anti	-11.2343
▁تقنية	-11.2344
▁الفنادق	-11.2345
ıldığını	-11.2345
▁etmeniz	-11.2345
▁eri	-11.2346
▁bulunması	-11.2347
▁اخرى	-11.2348
▁ilişkiler	-11.2349
▁konuya	-11.2349
▁çıkmış	-11.2349
▁gördüğü	-11.2349
▁cuma	-11.235
ACAK	-11.235
Gİ	-11.2351
▁الأمين	-11.2351
TP	-11.2351
▁havuz	-11.2351
▁مصري	-11.2356
▁نعم	-11.2357
▁TÜRK	-11.2358
▁صرف	-11.2359
▁الذهاب	-11.2359
पन	-11.2359
lıklar	-11.2361
▁قاعدة	-11.2361
▁الاتصالات	-11.2364
看看	-11.2365
源	-11.2367
▁لغة	-11.2368
▁البل	-11.2376
还有	-11.2377
▁hastanede	-11.2377
▁söylen	-11.2378
راه	-11.238
▁sizlerin	-11.2381
▁ap	-11.2382
▁أع	-11.2382
系统	-11.2382
▁krem	-11.2383
▁sessiz	-11.2384
▁rekabet	-11.2384
增	-11.2385
材	-11.2385
ู	-11.2385
修	-11.2385
▁परिणाम	-11.2385
▁रिकॉर्ड	-11.2385
▁वेबसाइट	-11.2385
▁اهتمام	-11.2385
카	-11.2386
请问	-11.2386
▁görüşü	-11.2386
▁Çekici	-11.2386
▁Ödeme	-11.2386
▁Tecr	-11.2386
▁أجمل	-11.2387
▁kalitede	-11.2388
▁Siyaset	-11.2388
ହ	-11.2389
▁Bulut	-11.2389
▁çalışmaya	-11.239
ॉन	-11.239
▁aldığınız	-11.2391
▁ağırlık	-11.2391
▁있	-11.2394
未	-11.2395
data	-11.2397
حج	-11.2397
▁koyu	-11.2399
ولة	-11.24
tas	-11.2401
▁परिषद	-11.2401
▁ağız	-11.2401
▁zayıf	-11.2403
▁sezonu	-11.2404
▁Gümrük	-11.2404
12.	-11.2404
.2010	-11.2406
▁لذا	-11.2406
UP	-11.2408
text	-11.2409
英	-11.241
yalım	-11.2413
▁kapsamda	-11.2418
▁차	-11.2419
الس	-11.242
▁وعن	-11.2421
شرح	-11.2422
▁बेच	-11.2423
▁Apr	-11.2424
jet	-11.2424
غط	-11.2425
▁kazanmak	-11.2425
ebilen	-11.2426
وغ	-11.2426
şen	-11.2427
had	-11.2428
▁Tri	-11.2431
İD	-11.2431
نون	-11.2431
▁yıla	-11.2433
▁Karar	-11.2434
pal	-11.2434
निया	-11.2435
أخذ	-11.2435
▁नियम	-11.2437
▁상품	-11.2438
传奇	-11.2438
该	-11.2438
▁أشخاص	-11.2439
سيل	-11.2439
希望	-11.2439
▁للإ	-11.244
▁Flash	-11.2441
▁Admin	-11.2444
▁Çıkış	-11.2445
ness	-11.2445
AE	-11.2445
سعر	-11.2447
▁tedarikçi	-11.2447
?"	-11.2448
اقت	-11.2448
र्ट	-11.2449
▁قوله	-11.2449
▁أزمة	-11.2449
▁radyo	-11.2451
▁प्रो	-11.2451
▁piyasaya	-11.2455
▁Sert	-11.2455
çam	-11.2457
▁beklediği	-11.2458
DR	-11.2458
▁العهد	-11.2458
▁النبي	-11.2458
lemek	-11.2459
/11/	-11.2459
▁إنها	-11.2462
▁Edebiyat	-11.2462
▁ويمكن	-11.2462
تور	-11.2463
ورو	-11.2465
▁Gebze	-11.2466
▁शराब	-11.2467
İP	-11.2468
一些	-11.2468
▁kalmış	-11.2469
nc	-11.2469
▁نوم	-11.247
▁evin	-11.2471
ம்ப	-11.2471
▁SAN	-11.2471
ref	-11.2472
04.	-11.2473
شع	-11.2475
▁baz	-11.2476
▁hücre	-11.2476
स्‍	-11.2477
▁sunucu	-11.2477
ബ	-11.2477
يفة	-11.2477
▁Off	-11.2477
▁ulaşmak	-11.2477
▁وطالب	-11.2479
fu	-11.2481
▁zorunlu	-11.2481
ebileceğiniz	-11.2482
▁direktör	-11.2483
▁المك	-11.2483
leşti	-11.2484
laştırma	-11.2486
كوك	-11.2487
这是	-11.2487
▁Haberi	-11.2487
▁toplantıda	-11.2487
تداول	-11.2488
هدف	-11.2488
تون	-11.2488
ımızı	-11.2489
▁değiştirme	-11.249
▁مب	-11.2491
湖	-11.2492
gur	-11.2492
▁seminer	-11.2492
▁मतदान	-11.2492
▁जन्म	-11.2492
▁KONU	-11.2492
▁सामान्य	-11.2493
▁كوريا	-11.2494
▁örnekleri	-11.2494
一直	-11.2494
▁Fazla	-11.2494
▁öğrenme	-11.2495
▁Diyet	-11.2495
▁Özcan	-11.2497
▁payı	-11.2498
dia	-11.2498
▁الفساد	-11.2499
▁Dahil	-11.2502
▁geçmesi	-11.2504
▁मैंने	-11.2508
▁डा	-11.251
ერ	-11.2511
وصل	-11.2512
▁ilçesine	-11.2513
▁1500	-11.2514
▁merhaba	-11.2517
bek	-11.2518
▁Hizmeti	-11.2518
▁tarif	-11.2521
▁مم	-11.2521
▁तुम	-11.2525
▁bitti	-11.2525
cılığı	-11.2526
▁Sey	-11.2526
▁SPOR	-11.2527
▁değilim	-11.2528
▁açan	-11.2529
fat	-11.253
▁(@	-11.2531
▁بات	-11.2532
▁ट्रक	-11.2534
▁240	-11.2534
قاع	-11.2535
▁لكنه	-11.2537
رعاية	-11.2537
▁ذوي	-11.2538
▁my	-11.2538
▁الاسم	-11.2541
▁فض	-11.2542
▁ağrısı	-11.2542
عر	-11.2542
hai	-11.2543
▁uzmanı	-11.2544
▁konum	-11.2545
행	-11.2545
冰	-11.2545
▁السابعة	-11.2546
ଶ	-11.2546
▁Renault	-11.2546
▁jandarma	-11.2546
▁ग्राहक	-11.2546
▁dernek	-11.2546
민	-11.2546
▁जानिए	-11.2546
需要	-11.2546
▁Ekrem	-11.2546
▁zafer	-11.2546
▁澳门	-11.2547
▁oluşturma	-11.2547
▁gelmektedir	-11.2547
▁تف	-11.2547
▁आपूर्तिकर्ताओं	-11.2548
▁कहीं	-11.2551
ელ	-11.2551
right	-11.2552
Bi	-11.2553
▁border	-11.2553
▁शिक्षक	-11.2553
▁Kullanım	-11.2554
ender	-11.2555
▁kala	-11.2555
هيئة	-11.2556
▁الحفل	-11.2558
esh	-11.2559
unuzu	-11.2564
▁Tor	-11.2566
Çok	-11.2566
▁कब	-11.2566
Allah	-11.2566
▁Sizin	-11.2567
今天	-11.2567
वां	-11.2569
عمق	-11.2569
▁çapında	-11.257
▁اللبناني	-11.2572
▁1.4	-11.2573
تبادل	-11.2575
हे	-11.2576
▁والف	-11.2577
hel	-11.2578
luğa	-11.2578
▁Dağı	-11.2579
▁miktarda	-11.2579
दीप	-11.2579
जि	-11.2581
▁şeyin	-11.2581
فعل	-11.2582
▁26.	-11.2583
كات	-11.2584
▁यही	-11.2584
▁vali	-11.2584
laşı	-11.2587
▁İzleme	-11.2587
▁ناصر	-11.2587
▁Sözleri	-11.2587
▁tarihli	-11.2588
▁اليابان	-11.2588
ရ	-11.2588
غرب	-11.2589
▁الحالة	-11.259
0,000	-11.2591
ائد	-11.2591
file	-11.2592
▁sahipliği	-11.2592
ებს	-11.2592
த்தி	-11.2594
ंडा	-11.2595
▁هن	-11.2596
▁युवा	-11.2599
投	-11.2599
▁olmanın	-11.26
قوات	-11.26
▁इतिहास	-11.26
▁स्मार्टफोन	-11.26
▁tarafı	-11.26
市场	-11.26
▁Bilecik	-11.2601
▁içerisine	-11.2601
/10/	-11.2601
▁bakalım	-11.2602
▁AVM	-11.2602
▁cevabı	-11.2603
▁नदी	-11.2603
▁الاطفال	-11.2604
▁Sim	-11.2604
▁पाया	-11.2606
▁İtalyan	-11.2606
▁जरि	-11.2606
▁gelip	-11.2607
▁Düzenleme	-11.2607
▁Back	-11.2607
▁Taban	-11.2607
▁السر	-11.2607
▁الحقوق	-11.2608
▁girecek	-11.2609
ets	-11.261
▁نمو	-11.2611
▁شهد	-11.2612
▁start	-11.2613
Ser	-11.2615
▁Kir	-11.2615
▁memnuniyeti	-11.2616
▁odaklı	-11.2618
▁direkt	-11.2618
लर	-11.2619
ია	-11.2621
▁Tamam	-11.2622
▁المرض	-11.2623
▁yaşan	-11.2623
▁ilaçlama	-11.2624
▁Başkanımız	-11.2625
▁إرسال	-11.2625
▁Mars	-11.2627
▁yakınında	-11.2629
▁Bakımı	-11.263
تاج	-11.263
تناول	-11.2631
▁Ran	-11.2633
धी	-11.2633
▁नव	-11.2635
kas	-11.2636
▁yukarıda	-11.264
ლა	-11.264
▁تش	-11.2641
illa	-11.2643
SL	-11.2644
▁Çantası	-11.2644
▁Hayır	-11.2644
▁olmaları	-11.2645
▁Kurum	-11.2645
▁خل	-11.2646
▁yas	-11.2646
▁마	-11.2646
अप	-11.2647
▁imkan	-11.2647
▁Yazıcı	-11.2648
▁olayları	-11.2649
nis	-11.2649
യുടെ	-11.265
▁رياضة	-11.265
▁معدل	-11.265
ेगी	-11.2652
胜	-11.2653
迷	-11.2654
DİĞER	-11.2654
▁Global	-11.2654
▁Navbharat	-11.2654
▁enflasyon	-11.2654
▁पेट्रोल	-11.2654
▁Madrid	-11.2654
▁العظيم	-11.2654
▁पुस्तक	-11.2654
▁شهور	-11.2654
▁boşanma	-11.2655
▁Hekim	-11.2655
▁القنوات	-11.2655
▁bilmiyorum	-11.2656
:「	-11.2656
▁alkol	-11.2656
▁برس	-11.2656
▁यहाँ	-11.2657
▁tuvalet	-11.2657
Sh	-11.2658
份	-11.266
watch	-11.2661
▁yaşandı	-11.2661
لب	-11.2662
▁अप	-11.2663
ğü	-11.2663
▁filmler	-11.2664
طرد	-11.2664
▁مصرية	-11.2665
बू	-11.2666
baba	-11.2666
▁Profesyonel	-11.2668
زة	-11.267
▁المقال	-11.267
▁لدعم	-11.2671
▁yılına	-11.2671
▁المجالات	-11.2673
▁الألعاب	-11.2674
▁nüfus	-11.2675
مك	-11.2676
▁şirketler	-11.2676
▁4.5	-11.2677
▁الطريقة	-11.2677
AJ	-11.2678
ox	-11.2678
底	-11.2679
▁kalıyor	-11.2679
▁konuları	-11.268
خلي	-11.268
▁جائزة	-11.268
▁Kastamonu	-11.2681
حتي	-11.2681
kö	-11.2681
▁القومي	-11.2682
5.00	-11.2682
▁General	-11.2682
▁Erdem	-11.2684
زينة	-11.2685
kart	-11.2686
▁رحلة	-11.2688
عظم	-11.2688
▁$1	-11.2688
▁sayfasında	-11.2689
خا	-11.269
tis	-11.269
▁Personel	-11.2693
جرام	-11.2693
GU	-11.2693
▁politikası	-11.2698
PAR	-11.2699
idari	-11.2699
▁mas	-11.2699
▁Emekli	-11.27
لحق	-11.27
أمر	-11.27
gör	-11.2704
▁تحتوي	-11.2707
▁قيام	-11.2707
▁بطاقة	-11.2707
▁görüyor	-11.2709
KÜLTÜR	-11.2709
▁maalesef	-11.2709
▁फैक्टरी	-11.2709
雨	-11.2709
▁اكبر	-11.2709
▁जवान	-11.271
▁मिलेगा	-11.271
ساس	-11.271
▁البنوك	-11.271
▁नेताओं	-11.2711
2005	-11.2712
▁खोजने	-11.2712
▁الليل	-11.2712
▁gu	-11.2713
▁عباس	-11.2714
▁çeşitleri	-11.2717
▁teslimat	-11.2717
kut	-11.2718
▁gazetesi	-11.2719
▁Kişilik	-11.272
▁Hayal	-11.2721
▁getirdiği	-11.2722
▁बोले	-11.2722
▁يزيد	-11.2723
▁İsim	-11.2723
دق	-11.2725
şar	-11.2726
▁kor	-11.2727
ساهم	-11.2728
قتل	-11.2729
▁kum	-11.2729
▁Roman	-11.2729
ضرورة	-11.273
▁Aday	-11.2731
▁bilme	-11.2731
يكي	-11.2732
مصر	-11.2733
▁kuruluşu	-11.2733
▁sanal	-11.2736
▁اعتقال	-11.2738
▁استعداد	-11.274
▁والعمل	-11.2741
▁Hanım	-11.2742
▁salgını	-11.2743
وص	-11.2743
▁طبيب	-11.2744
('	-11.2745
Mi	-11.2745
göl	-11.2746
▁diyet	-11.2746
▁Örgütü	-11.2746
_______________	-11.2747
bha	-11.2748
Der	-11.2751
▁Şirket	-11.2751
▁ألعاب	-11.2751
يتش	-11.2751
gor	-11.2752
▁köprü	-11.2752
▁Business	-11.2752
▁실	-11.2753
LİĞİ	-11.2755
▁شروط	-11.2756
MASI	-11.2757
ाँ	-11.2758
▁güzellik	-11.2758
▁Des	-11.2758
UTC	-11.276
活	-11.276
▁فرق	-11.276
YAN	-11.276
قوا	-11.2761
▁tarihinden	-11.2761
이다	-11.2762
港	-11.2762
oyun	-11.2762
----------------	-11.2762
ाल	-11.2763
▁Washington	-11.2764
▁प्रसाद	-11.2764
▁कोहली	-11.2764
▁بالكامل	-11.2764
티	-11.2764
▁görüldü	-11.2764
ربح	-11.2765
▁الأراضي	-11.2765
하게	-11.2765
9)	-11.2765
▁Singh	-11.2765
▁सजा	-11.2767
▁raf	-11.2767
قوى	-11.2767
▁Kızılay	-11.2767
▁바	-11.2767
يبة	-11.2767
▁getirilen	-11.2768
▁اجمل	-11.2768
▁hazırlanıyor	-11.2768
ZI	-11.2769
lk	-11.2769
▁अम	-11.2769
▁işgal	-11.277
▁dostu	-11.277
▁kaya	-11.277
▁yetki	-11.2771
ati	-11.2771
▁konuyu	-11.2771
أنحاء	-11.2771
▁गोली	-11.2772
zel	-11.2773
▁القناة	-11.2775
▁المشاريع	-11.2775
▁الوفد	-11.2776
lerinize	-11.2776
ச்ச	-11.2778
▁يقع	-11.2779
▁sayısının	-11.278
▁تظهر	-11.278
▁Vodafone	-11.278
▁تكن	-11.2781
हि	-11.2781
▁107	-11.2781
▁gönderme	-11.2781
▁topla	-11.2781
▁الأقل	-11.2781
gon	-11.2783
Na	-11.2783
▁sahada	-11.2787
▁زمن	-11.2789
▁عسكرية	-11.2789
▁ورئيس	-11.2791
▁Note	-11.2791
الف	-11.2793
▁YouTube	-11.2793
▁Seç	-11.2794
▁واسع	-11.2795
▁yaşa	-11.2795
ARI	-11.2795
▁بلاده	-11.2796
▁kültürü	-11.2798
▁رام	-11.28
ذب	-11.2801
İB	-11.2802
▁hile	-11.2802
▁Anti	-11.2803
▁والش	-11.2804
خص	-11.2804
▁elinde	-11.2804
▁Bartın	-11.2808
▁الزوج	-11.2809
back	-11.2811
ect	-11.2811
▁arasına	-11.2813
▁cha	-11.2814
ंगी	-11.2816
Ara	-11.2818
威	-11.2819
沙	-11.2819
gradient	-11.2819
လ	-11.2819
▁Kalkınma	-11.2819
▁Dantel	-11.2819
▁მა	-11.282
ping	-11.282
▁राहत	-11.282
▁gücünü	-11.2821
▁تأتي	-11.2821
▁vize	-11.2822
▁stil	-11.2822
البدء	-11.2823
para	-11.2824
منح	-11.2824
tter	-11.2824
▁besin	-11.2825
▁zorlu	-11.2825
sp	-11.2827
ings	-11.2827
▁gündür	-11.2827
المتعلقة	-11.2828
▁ör	-11.2828
قارب	-11.283
प्	-11.2832
▁النجاح	-11.2833
▁Spa	-11.2833
▁التنظيم	-11.2834
▁المسؤول	-11.2834
▁نفسها	-11.2834
بح	-11.2834
▁göze	-11.2836
▁rakam	-11.2837
▁طن	-11.2838
▁bırakın	-11.284
▁بطل	-11.284
科	-11.2841
▁Pr	-11.2841
▁बु	-11.2842
رح	-11.2843
cuk	-11.2845
▁أحداث	-11.2845
▁Malzeme	-11.2845
▁القوى	-11.2845
(1)	-11.2846
▁हु	-11.2846
▁seti	-11.2846
▁URL	-11.2849
▁farkında	-11.285
▁تجربة	-11.2852
ි	-11.2854
▁डर	-11.2855
ზ	-11.2855
▁الشعبي	-11.2855
ديد	-11.2856
زيل	-11.2857
▁Selim	-11.2857
द्र	-11.2857
टन	-11.2858
lum	-11.2859
्‍य	-11.2859
▁பா	-11.2859
▁Gerek	-11.286
▁Hor	-11.2862
IYOR	-11.2864
▁raporu	-11.2864
▁İlanı	-11.2866
cor	-11.2866
Zİ	-11.2867
▁वापस	-11.2867
▁وعدد	-11.2867
▁azal	-11.2868
▁التر	-11.2868
▁yağış	-11.2869
▁NEWS	-11.2869
▁haftasında	-11.287
▁sey	-11.287
oid	-11.287
HAR	-11.2872
تابع	-11.2872
▁ارت	-11.2873
likle	-11.2873
▁Gra	-11.2873
▁denge	-11.2873
RP	-11.2873
称	-11.2873
杯	-11.2874
温	-11.2874
越	-11.2874
▁कमी	-11.2874
技术	-11.2874
٧	-11.2874
远	-11.2874
▁helikopter	-11.2875
▁sandalye	-11.2875
▁शानदार	-11.2875
▁हमेशा	-11.2875
▁poşet	-11.2875
▁robot	-11.2875
▁사용	-11.2875
▁verilir	-11.2875
▁ağacı	-11.2875
▁maliyet	-11.2875
▁Suites	-11.2875
▁uzay	-11.2876
kâr	-11.2876
Kur	-11.2877
▁كتابة	-11.2878
▁bizler	-11.2878
▁بسهولة	-11.2879
▁105	-11.2883
ville	-11.2883
صي	-11.2884
▁seçenek	-11.2885
▁अक्टूबर	-11.2886
iyorsunuz	-11.2886
▁yazımız	-11.2886
ائف	-11.2886
13.	-11.2887
▁eşlik	-11.2887
▁موقعنا	-11.2887
تباع	-11.2888
طرح	-11.2889
▁المدرب	-11.289
تبع	-11.2891
▁तैयारी	-11.2891
▁gerekse	-11.2892
int	-11.2893
▁ayakta	-11.2894
▁أمين	-11.2895
4)	-11.2895
▁örneği	-11.2895
—	-11.2895
मैन	-11.2896
▁اللا	-11.2896
▁பட	-11.2896
▁रू	-11.2896
▁वर्ग	-11.2896
نداء	-11.2899
rg	-11.29
تشر	-11.2901
Sağlık	-11.2902
▁قضايا	-11.2903
▁Teşekkür	-11.2904
▁क्र	-11.2904
Mu	-11.2907
▁पश्चिम	-11.291
▁direk	-11.2911
وارد	-11.2912
▁oturma	-11.2915
فضل	-11.2917
म्प	-11.2917
▁Günümüzde	-11.2917
wan	-11.2918
▁CD	-11.2919
▁2010,	-11.2919
cil	-11.2919
▁sorunun	-11.2922
▁dilim	-11.2924
محمد	-11.2924
▁التكنولوجيا	-11.2926
▁미	-11.2927
▁real	-11.2927
评	-11.2928
招	-11.2929
▁zamanlar	-11.2929
共	-11.2929
▁الجنس	-11.2929
卖	-11.293
▁hassas	-11.293
သ	-11.293
ൈ	-11.293
▁mağlup	-11.293
▁आर्थिक	-11.293
▁नेतृत्व	-11.293
▁विवरण	-11.293
▁emanet	-11.2931
鸡	-11.2931
▁المصرى	-11.2931
▁otopark	-11.2931
▁kayıtlı	-11.2931
حسم	-11.2931
적인	-11.2931
NI	-11.2932
▁तस्वीरें	-11.2932
▁Kahve	-11.2933
▁सूत्र	-11.2933
▁çalışıyoruz	-11.2934
▁gö	-11.2935
▁मेरा	-11.2936
▁छह	-11.2937
▁कोड	-11.2938
AŞ	-11.2938
biz	-11.294
까지	-11.2941
▁Dekorasyon	-11.2941
▁ادارة	-11.2942
▁تسلم	-11.2944
▁GÜNDEM	-11.2944
ااا	-11.2944
้	-11.2944
▁الإست	-11.2945
▁insanlara	-11.2945
▁Avcı	-11.2946
▁İşi	-11.2946
▁kurmak	-11.2949
▁değiş	-11.295
上海	-11.295
▁كن	-11.2951
▁الآية	-11.2951
سى	-11.2951
▁Konuy	-11.2952
▁planlama	-11.2952
ിക്ക	-11.2952
يئ	-11.2952
कटर	-11.2952
▁غو	-11.2954
▁Vücut	-11.2956
▁القوة	-11.2956
▁Bor	-11.2956
▁hakkını	-11.2956
एच	-11.2957
체	-11.2957
▁kendimi	-11.2958
▁الألماني	-11.2958
▁şehri	-11.2959
▁واضح	-11.296
USD	-11.2961
Tek	-11.2961
▁पड़ा	-11.2962
वाई	-11.2963
مَا	-11.2964
▁लें	-11.2966
▁تبدأ	-11.2966
स्थ	-11.2966
▁Akşam	-11.2968
▁Sonuçları	-11.2968
ANT	-11.2969
▁sevme	-11.2969
▁fil	-11.297
▁INR	-11.297
▁متابع	-11.297
▁bölümde	-11.2972
BC	-11.2973
▁Gir	-11.2974
▁يحتوي	-11.2974
▁السادسة	-11.2975
▁mide	-11.2975
▁diy	-11.2975
▁الشخص	-11.2976
عودة	-11.2977
▁bay	-11.2977
▁إيجا	-11.2979
▁albüm	-11.298
▁न्यू	-11.298
mam	-11.2981
费	-11.2984
حط	-11.2986
预	-11.2986
▁görür	-11.2986
套	-11.2986
ල	-11.2987
심	-11.2987
▁विराट	-11.2987
▁asfalt	-11.2987
▁randevu	-11.2987
▁Express	-11.2987
▁जमीन	-11.2987
▁Notebook	-11.2987
▁Dolayısıyla	-11.2987
▁رواية	-11.2987
cctv	-11.2987
▁Version	-11.2987
▁kemik	-11.2987
ita	-11.2988
▁parçalar	-11.2988
▁Kemer	-11.2988
算	-11.2989
之前	-11.299
▁gidecek	-11.299
رصد	-11.2992
경	-11.2992
▁Bol	-11.2994
üzü	-11.2994
ுக்கு	-11.2994
▁الصينية	-11.2995
1.00	-11.2995
lığına	-11.2997
7.5	-11.2998
▁out	-11.2998
غاز	-11.2999
عدد	-11.3
▁kanalı	-11.3001
▁EĞİTİM	-11.3001
▁عقارات	-11.3003
ibi	-11.3003
▁cadde	-11.3003
▁निकल	-11.3003
oldi	-11.3004
▁الموجودة	-11.3004
▁oluşturmak	-11.3005
▁سالم	-11.3006
عه	-11.3008
راجع	-11.301
▁şahıs	-11.3012
▁parçaları	-11.3013
▁odaklan	-11.3013
▁Serisi	-11.3014
已经	-11.3014
▁العمليات	-11.3016
▁نطاق	-11.3016
▁Düş	-11.3017
Ga	-11.3019
▁عقار	-11.3019
شن	-11.3022
عثر	-11.3023
▁olduğunda	-11.3023
City	-11.3024
doğan	-11.3026
▁مميزة	-11.3026
ஜ	-11.3027
▁ولن	-11.3027
▁صندوق	-11.3027
▁kullanıyor	-11.3029
▁YAP	-11.3031
▁الظ	-11.3031
▁zamanlı	-11.3032
Vi	-11.3033
idir	-11.3033
صرف	-11.3036
iyer	-11.3036
ýn	-11.3037
▁makam	-11.304
▁Dönemi	-11.3041
管理	-11.3041
鞋	-11.3042
支	-11.3042
▁görüntüler	-11.3043
▁aykırı	-11.3043
▁kritik	-11.3043
▁ibadet	-11.3043
▁अपराध	-11.3043
▁macera	-11.3043
▁kaşığı	-11.3043
▁लिंक	-11.3043
MEDYA	-11.3044
▁Çetin	-11.3044
▁pilot	-11.3044
▁edilebilir	-11.3044
▁राजनीति	-11.3045
▁PTT	-11.3046
hem	-11.3046
▁Petrol	-11.3046
▁يساعد	-11.3046
▁çözümler	-11.3046
ندي	-11.3047
▁معها	-11.3047
▁vurdu	-11.3047
▁लाइन	-11.3047
▁अमित	-11.3048
▁mikro	-11.3048
maması	-11.3048
▁turist	-11.3049
▁milletin	-11.3049
▁Dili	-11.305
lanmıştır	-11.3051
▁علاقة	-11.3053
evler	-11.3053
▁تشهد	-11.3053
▁يبدأ	-11.3054
▁Avustralya	-11.3056
موس	-11.3057
▁genelde	-11.3058
▁ضغط	-11.3058
▁gar	-11.3058
▁varlığı	-11.3059
▁today	-11.3059
▁gun	-11.306
▁صغير	-11.3063
▁lezzetli	-11.3065
▁desen	-11.3068
مات	-11.3068
▁komisyon	-11.307
Er	-11.307
错	-11.307
صيب	-11.3071
▁مبادرة	-11.3072
malar	-11.3072
▁buluşma	-11.3073
€	-11.3073
▁ISO	-11.3074
भर	-11.3075
0914	-11.3081
▁seçme	-11.3081
▁Hac	-11.3085
وتو	-11.3085
लेट	-11.3086
قوة	-11.3087
٤	-11.3088
▁gözaltı	-11.3091
ym	-11.3093
▁شهدت	-11.3094
▁abi	-11.3094
▁bildirim	-11.3095
▁sürece	-11.3095
▁duyuru	-11.3098
▁Aş	-11.3099
容	-11.3099
피	-11.31
▁प्रक्रिया	-11.31
▁स्टेशन	-11.3101
▁verilmektedir	-11.3101
رأس	-11.3101
▁Bingöl	-11.3102
▁riski	-11.3102
▁tık	-11.3102
abilmesi	-11.3104
xx	-11.3105
▁Dur	-11.3105
▁sınırlı	-11.3105
▁الحم	-11.3106
▁vurgulaya	-11.3107
▁असर	-11.3107
▁वही	-11.3108
إمكانية	-11.3108
▁Çağrı	-11.311
▁خادم	-11.311
▁ഉ	-11.3111
▁yönetmen	-11.3111
▁Sayı	-11.3112
▁Kalem	-11.3113
▁فيلا	-11.3114
11.	-11.3114
▁بهم	-11.3115
▁uyarısı	-11.3115
teri	-11.3116
▁سب	-11.3117
▁معرفة	-11.3118
ண்ட	-11.312
▁القديمة	-11.312
တ	-11.312
▁Muharrem	-11.3123
▁Ayşe	-11.3126
كسب	-11.3126
rm	-11.3126
▁çağrısı	-11.3131
▁از	-11.3132
▁الغد	-11.3132
▁Haftası	-11.3132
▁მი	-11.3134
ayım	-11.3134
▁istek	-11.3135
▁0.0	-11.3136
▁vurguladı	-11.3138
▁ilde	-11.3139
oks	-11.3139
▁أف	-11.3139
▁რომ	-11.3139
▁Borsa	-11.3141
दास	-11.3143
▁damla	-11.3144
sing	-11.3146
▁katıl	-11.3147
▁hayatında	-11.3147
▁atın	-11.3149
acı	-11.3149
abilmektedir	-11.3151
علن	-11.3151
▁yapacağı	-11.3152
基	-11.3155
تعرف	-11.3155
riz	-11.3155
班	-11.3155
即	-11.3156
bp	-11.3156
▁Tiyatro	-11.3157
▁Eki	-11.3157
현	-11.3157
▁संपर्क	-11.3157
▁Konseyi	-11.3157
▁विषय	-11.3157
▁같은	-11.3157
▁izni	-11.3157
兵	-11.3157
▁Network	-11.3157
▁kupon	-11.3158
▁fikri	-11.3158
iri	-11.3158
▁gündüz	-11.3159
▁yaratıcı	-11.3159
▁استقبال	-11.3159
▁بتقديم	-11.316
▁kendileri	-11.316
lanabilir	-11.3163
▁Kral	-11.3165
▁السجن	-11.3167
lenmektedir	-11.3167
▁vadeli	-11.317
▁+90	-11.317
▁GÜNCEL	-11.317
ics	-11.3171
▁Kutusu	-11.3172
任	-11.3172
Ho	-11.3174
ද	-11.3174
▁skor	-11.3174
▁sağlan	-11.3176
PER	-11.3178
▁केन्द्र	-11.318
▁Tweet	-11.318
تحميل	-11.3181
bah	-11.3181
نصب	-11.3181
▁kad	-11.3182
▁Yazılım	-11.3183
قلب	-11.3184
▁توقف	-11.3185
سلط	-11.3185
▁Markalar	-11.3187
▁غدا	-11.3189
▁doğu	-11.319
uru	-11.319
पूर्ण	-11.3191
نعم	-11.3193
▁dr	-11.3197
▁Sex	-11.3197
▁Birlik	-11.3198
▁جل	-11.3199
ob	-11.3201
▁korunması	-11.3202
مور	-11.3202
▁Ex	-11.3204
▁gerektiği	-11.3204
▁مراجعة	-11.3205
▁Survivor	-11.3206
][	-11.3206
wp	-11.3208
▁sp	-11.3209
▁المصريين	-11.321
▁Tedavi	-11.321
▁123	-11.321
قين	-11.3214
友	-11.3214
这样	-11.3214
ୋ	-11.3214
ะ	-11.3215
丝	-11.3215
교	-11.3215
ට	-11.3215
စ	-11.3215
▁intihar	-11.3215
▁मंत्रालय	-11.3215
▁ihlal	-11.3215
▁Vadisi	-11.3215
武	-11.3215
伤	-11.3215
▁السلطان	-11.3215
lerce	-11.3215
▁HABERLER	-11.3216
▁temsilcisi	-11.3216
一样	-11.3217
▁olayın	-11.3218
▁balkon	-11.3219
▁ثقافة	-11.3219
ണ്ട	-11.3219
▁evine	-11.322
▁Başbakanı	-11.322
ഡ	-11.322
▁açıklamasında	-11.3221
رافق	-11.3221
aklı	-11.3221
istik	-11.3222
▁alakalı	-11.3223
▁BTC	-11.3223
▁evli	-11.3223
▁kablo	-11.3223
ضحك	-11.3224
تفاصيل	-11.3225
感觉	-11.3225
▁sektörünün	-11.3226
▁olacağız	-11.3227
▁İm	-11.3228
▁olurken	-11.3229
▁ଅ	-11.3229
LY	-11.3229
▁Puan	-11.323
▁الملابس	-11.323
▁تطبيقات	-11.323
▁مه	-11.3232
▁kolye	-11.3234
حى	-11.3235
▁पक्ष	-11.3237
▁हवा	-11.3237
▁وفد	-11.3238
sor	-11.3239
真的	-11.324
▁borcu	-11.324
▁اللبنانية	-11.3246
▁İsmi	-11.3246
▁Urfa	-11.3246
▁transferi	-11.325
موقع	-11.325
▁up	-11.3252
تطبيق	-11.3253
bor	-11.3253
▁bazıları	-11.3253
طلع	-11.3254
▁다	-11.3254
▁durumun	-11.3255
وسط	-11.3255
خار	-11.3255
▁तीसर	-11.3257
в	-11.3258
▁bahar	-11.3259
▁الامن	-11.326
▁Standart	-11.3261
▁ÖS	-11.3261
▁dergi	-11.3261
▁Port	-11.3262
/2020	-11.3264
▁일	-11.3264
حف	-11.3266
▁حدود	-11.3266
程	-11.3268
▁takdir	-11.3268
حار	-11.3272
▁Price	-11.3272
ุ	-11.3272
飞	-11.3272
▁çevir	-11.3272
▁Tavsiye	-11.3272
▁다양한	-11.3272
▁Lüks	-11.3272
▁तलाश	-11.3272
▁yavru	-11.3273
▁Çıkar	-11.3273
▁icra	-11.3273
▁sağlamaktadır	-11.3273
▁Ofis	-11.3273
지만	-11.3273
▁devletin	-11.3273
▁Bot	-11.3274
▁zanlı	-11.3274
▁वर्षीय	-11.3274
▁सवार	-11.3274
ابر	-11.3275
oh	-11.3275
ÜR	-11.3275
▁toplumsal	-11.3275
▁bekleyen	-11.3275
vid	-11.3276
مشاهدة	-11.3277
▁الثانى	-11.3277
▁المبارك	-11.3277
▁करेगा	-11.3278
كافة	-11.3279
▁Masa	-11.328
فرض	-11.328
▁الشحن	-11.3283
▁고	-11.3283
▁الإخبارية	-11.3284
ظلم	-11.3286
▁Mobile	-11.3289
çer	-11.329
rmek	-11.329
वल	-11.3291
▁الأسود	-11.3292
▁uyan	-11.3293
manın	-11.3294
▁şuan	-11.3295
▁Hit	-11.3295
▁مؤكدا	-11.3298
▁Tanıtım	-11.3299
▁العدد	-11.3299
ABD	-11.3299
▁الشاب	-11.33
▁Kad	-11.33
▁खुल	-11.3302
▁الإسباني	-11.3302
▁ücretleri	-11.3303
▁सू	-11.3303
media	-11.3304
▁karın	-11.3305
▁تقول	-11.3305
لع	-11.3305
ल्ल	-11.3306
▁sağlama	-11.3307
▁Çam	-11.3307
شهر	-11.3307
حق	-11.3307
bilir	-11.3308
▁رسمية	-11.3311
-2014	-11.3311
ीं	-11.3312
iti	-11.3314
َوْ	-11.3316
▁اخي	-11.3316
Çİ	-11.3316
أو	-11.3316
▁tecrübeli	-11.3317
▁benden	-11.3317
▁الاخبارية	-11.3317
وير	-11.3317
▁Op	-11.3318
EST	-11.3318
▁احت	-11.3319
▁sebeple	-11.3319
▁दिशा	-11.3321
▁önlem	-11.3321
▁liraya	-11.3321
▁kurtarma	-11.3321
一起	-11.3322
بون	-11.3322
TEKNOLOJİ	-11.3322
رخص	-11.3324
جرى	-11.3325
nes	-11.3325
Nİ	-11.3326
ERİ	-11.3326
▁düşme	-11.3327
▁toplumun	-11.3329
शि	-11.3329
儿	-11.3329
نساء	-11.3329
버	-11.333
麵	-11.333
研究	-11.333
短	-11.333
▁tavuk	-11.3331
▁सामग्री	-11.3331
▁tahliye	-11.3331
▁Yedek	-11.3331
▁çabuk	-11.3331
▁मौसम	-11.3331
▁कॉलेज	-11.3331
field	-11.3331
细	-11.3331
▁الميلاد	-11.3331
▁الاربعاء	-11.3331
▁plaj	-11.3331
▁Kariyer	-11.3331
▁حادث	-11.3331
▁Japon	-11.3332
段	-11.3332
देव	-11.3333
▁दोस्तों	-11.3336
▁متنوعة	-11.3336
▁Göre	-11.3336
▁الأسواق	-11.3337
▁kızın	-11.3338
ilmektedir	-11.3338
fr	-11.3339
▁القريبة	-11.334
发展	-11.3343
▁تجعل	-11.3343
▁قريب	-11.3344
▁Kes	-11.3344
فيل	-11.3344
ric	-11.3344
شرك	-11.3346
▁HO	-11.3348
▁Konusu	-11.3348
▁incelemeleri	-11.3349
▁Game	-11.335
▁tutan	-11.3351
▁ekim	-11.3352
ുന്ന	-11.3352
▁التحالف	-11.3352
▁Lake	-11.3352
▁صدر	-11.3353
▁yıldızlı	-11.3353
▁الديمقراطية	-11.3354
▁Los	-11.3356
▁Dünyası	-11.3356
며	-11.3357
▁artışı	-11.3357
களை	-11.3357
▁Mert	-11.3358
▁Kod	-11.3359
▁Tamiri	-11.3362
▁ألا	-11.3363
▁bölgeye	-11.3363
▁900	-11.3366
▁مطلوب	-11.3366
▁dışına	-11.3367
ضبط	-11.3367
▁kıyı	-11.3368
▁zamanında	-11.3368
▁صلاة	-11.3369
سهل	-11.337
cd	-11.3371
ırım	-11.3371
▁Kategoriler	-11.3371
WA	-11.3373
▁sitesini	-11.3374
▁protokol	-11.3375
lf	-11.3376
▁kabin	-11.3377
EZ	-11.3377
▁toplamda	-11.3377
▁Photo	-11.3378
▁trend	-11.3378
完	-11.338
dinilen	-11.338
▁والمورد	-11.3381
▁آخرين	-11.3382
احة	-11.3383
3,	-11.3385
تواصل	-11.3385
▁ölç	-11.3385
ودة	-11.3387
TSO	-11.3387
轻	-11.3387
叫	-11.3388
ბა	-11.3388
美国	-11.3389
▁durma	-11.3389
형	-11.3389
▁promosyon	-11.3389
▁ठीक	-11.3389
bed	-11.3389
▁خليفة	-11.3389
▁البالغ	-11.3389
▁arı	-11.339
▁limon	-11.339
▁malzemeler	-11.339
ച്ച	-11.339
iyi	-11.339
▁İpek	-11.3391
▁ekleyin	-11.3391
▁benimle	-11.3393
2-	-11.3393
نش	-11.3394
▁yardımıyla	-11.3395
▁gelince	-11.3396
▁ÖN	-11.3398
▁المحل	-11.3398
▁fo	-11.3399
▁faaliyetleri	-11.3401
ستان	-11.3401
▁Kartı	-11.3402
▁Hesaplama	-11.3403
رّ	-11.3403
bre	-11.3405
▁तोड़	-11.3406
▁KAP	-11.3407
mla	-11.3408
cim	-11.3408
▁Hol	-11.341
国家	-11.3412
▁الكاملة	-11.3414
▁الحسن	-11.3416
ISI	-11.3417
▁unutma	-11.3418
▁قوي	-11.3419
▁time	-11.3419
▁nem	-11.3419
▁adaylar	-11.3419
سائل	-11.3424
▁المشتركة	-11.3425
öğretim	-11.3425
▁معنا	-11.3426
▁seven	-11.3426
▁0.2	-11.3426
▁halen	-11.3428
▁Sor	-11.3429
PK	-11.343
Antalya	-11.343
İYOR	-11.3431
八	-11.3431
يجاد	-11.3432
قصد	-11.3432
âl	-11.3433
କ	-11.3434
ece	-11.3434
▁Fabrika	-11.3437
yıl	-11.3438
ميز	-11.3439
سبق	-11.3439
▁الخارج	-11.344
ლო	-11.3441
▁arkadaşım	-11.3441
▁sınırı	-11.3441
لغ	-11.3441
▁पाल	-11.3442
بحث	-11.3443
▁ED	-11.3443
奇	-11.3445
▁موظف	-11.3448
ု	-11.3448
岁	-11.3448
▁नुकसान	-11.3448
▁शीर्ष	-11.3448
▁समर्थन	-11.3448
电话	-11.3448
▁البترول	-11.3448
lidir	-11.3448
▁ahlak	-11.3449
▁قصص	-11.345
يًا	-11.3451
▁Cap	-11.3451
▁görünce	-11.3453
▁आतंकी	-11.3454
▁وصلت	-11.3455
Özel	-11.3455
/09/	-11.3457
▁TRT	-11.3459
▁ettikleri	-11.3459
▁alacağı	-11.3462
▁ა	-11.3462
▁يمثل	-11.3462
▁çağır	-11.3463
üşü	-11.3464
▁मानव	-11.3464
▁mali	-11.3466
SEL	-11.3467
▁كوب	-11.3467
▁معنى	-11.3468
▁스	-11.3471
▁टो	-11.3471
▁الذ	-11.3471
gerçekleştirdiği	-11.3472
▁Önemli	-11.3473
▁الجنسية	-11.3474
▁geliş	-11.3474
ادم	-11.3474
rmak	-11.3474
lıdır	-11.3477
▁رسمي	-11.3477
▁!!!	-11.3478
▁sıralarında	-11.348
▁101	-11.3481
▁الطبيعي	-11.3482
▁Dört	-11.3483
▁ayna	-11.3483
▁إقليم	-11.3484
nel	-11.3485
حرص	-11.3485
▁söyleme	-11.3485
توفر	-11.3487
▁Hareket	-11.3487
▁maden	-11.3489
▁تنزيل	-11.349
▁görüntüleri	-11.3494
قصر	-11.3495
വി	-11.3497
▁sütü	-11.3497
▁Nu	-11.3498
▁Perde	-11.35
▁taşıyor	-11.3502
धान	-11.3503
▁سليم	-11.3504
rip	-11.3505
▁sos	-11.3505
改	-11.3506
شاعر	-11.3507
藏	-11.3507
干	-11.3507
▁Sandalye	-11.3507
▁कैमरा	-11.3507
외	-11.3507
▁عبارة	-11.3507
wikipedia	-11.3507
▁elbette	-11.3507
顶	-11.3507
▁Telekom	-11.3507
▁Matematik	-11.3507
تخفيف	-11.3507
▁Arabistan	-11.3507
▁alev	-11.3507
▁अंदर	-11.3508
larımızda	-11.3508
▁yürek	-11.3509
▁Mimar	-11.3509
▁ربما	-11.3509
▁10:00	-11.351
▁sitede	-11.351
▁1.3	-11.3513
رقم	-11.3514
▁Hali	-11.3514
▁heyet	-11.3515
▁metin	-11.3517
चार्ज	-11.3518
▁تواجه	-11.3518
0917	-11.3518
▁أربع	-11.3518
▁اهم	-11.352
▁yar	-11.352
▁Blue	-11.352
عيش	-11.3521
▁اللعب	-11.3522
SIZ	-11.3522
ავ	-11.3522
▁قصيرة	-11.3522
▁الزوار	-11.3523
▁महाराष्ट्र	-11.3523
▁Brezilya	-11.3524
▁kanseri	-11.3524
▁koca	-11.3525
▁أصبحت	-11.3525
니다	-11.3527
▁المحافظات	-11.3527
▁disk	-11.3528
rum	-11.3528
RS	-11.3528
여	-11.3529
▁(6	-11.3529
▁Öğrenciler	-11.3529
▁#7	-11.353
▁الوحدة	-11.353
▁نيسان	-11.353
▁صنع	-11.3531
▁مكتبة	-11.3533
▁......	-11.3534
Man	-11.3536
▁فهد	-11.3537
▁olmuyor	-11.3539
بمشاركة	-11.3543
▁Yakası	-11.3544
BU	-11.3544
ريال	-11.3545
टक	-11.3545
▁Kızlar	-11.3546
▁arayan	-11.3546
▁kaybed	-11.3547
不会	-11.3547
2011,	-11.3548
▁seviyesinde	-11.3551
landığını	-11.3552
lerindeki	-11.3553
▁Today	-11.3553
fik	-11.3555
▁Saray	-11.3559
▁गलत	-11.3559
▁pic	-11.3561
بوت	-11.3561
cho	-11.3561
▁sizde	-11.3561
▁Amar	-11.3562
▁سعود	-11.3563
▁çıkarma	-11.3565
土	-11.3565
则	-11.3566
اول	-11.3566
▁Sınır	-11.3566
跑	-11.3566
股	-11.3566
จ	-11.3566
ZA	-11.3566
합	-11.3566
怎麽	-11.3566
势	-11.3566
▁estetik	-11.3567
▁البداية	-11.3567
▁न्याय	-11.3567
▁bardak	-11.3567
script	-11.3567
▁bireysel	-11.3567
र्ग	-11.3567
▁Faruk	-11.3568
XL	-11.3568
▁اضف	-11.3568
▁170	-11.3568
▁रहते	-11.3569
ARD	-11.357
▁Gibi	-11.3571
▁بالس	-11.3572
▁حم	-11.3572
fra	-11.3572
▁kaybetme	-11.3573
منصة	-11.3576
▁doktora	-11.3577
▁etmiştir	-11.3577
ব	-11.3577
سلام	-11.3578
▁सेक्सी	-11.3578
▁Bizler	-11.3578
▁Kutu	-11.3579
▁أت	-11.3579
▁जिनक	-11.3579
▁بصورة	-11.3579
▁لصالح	-11.358
vel	-11.358
▁बो	-11.358
▁سامسونج	-11.3581
▁TUR	-11.3581
▁تعيين	-11.3582
н	-11.3584
▁başlama	-11.3584
▁कॉ	-11.3585
▁düzenledi	-11.3586
▁फि	-11.3586
एँ	-11.3587
▁suyun	-11.3589
ენ	-11.3591
▁üreticiler	-11.3592
▁لاي	-11.3592
▁motoru	-11.3594
▁சி	-11.3594
▁Bra	-11.3595
▁لعب	-11.3596
▁Ödülü	-11.3596
▁الأفضل	-11.3597
▁झा	-11.3598
院	-11.36
خفض	-11.36
▁***	-11.3601
मल	-11.3602
▁قصر	-11.3602
▁Tuna	-11.3603
नर	-11.3603
▁zirve	-11.3604
▁istedim	-11.3604
▁gösterme	-11.3604
▁cihazı	-11.3605
▁Güvenliği	-11.3605
▁doğan	-11.3606
▁|--	-11.3607
▁التع	-11.361
eceğim	-11.3611
ندر	-11.3612
خلط	-11.3612
னி	-11.3612
Video	-11.3613
▁Firmaları	-11.3614
▁दवा	-11.3617
▁göstermek	-11.3618
▁×	-11.3618
▁görüntüle	-11.3619
▁حلو	-11.3619
يتا	-11.3622
▁دائرة	-11.3623
سف	-11.3624
हन	-11.3624
▁تضم	-11.3624
记	-11.3624
创	-11.3625
بشر	-11.3626
刀	-11.3626
穿	-11.3626
ଣ	-11.3626
임	-11.3626
▁UEFA	-11.3626
▁rüzgar	-11.3626
▁अच्छे	-11.3626
▁कारखाना	-11.3626
▁दरअसल	-11.3626
▁सितंबर	-11.3626
▁koruyucu	-11.3626
开奖	-11.3627
▁sofra	-11.3627
▁sokağa	-11.3627
▁Sonbahar	-11.3627
▁sabır	-11.3627
▁edilerek	-11.3628
▁eig	-11.3628
تحول	-11.3629
▁Fo	-11.3629
▁öncü	-11.3629
▁RSS	-11.3631
▁Oyuncular	-11.3632
();	-11.3632
▁şunu	-11.3632
票	-11.3632
▁olu	-11.3632
▁APK	-11.3634
▁लोगो	-11.3634
▁عاماً	-11.3636
▁CV	-11.3638
▁izlemek	-11.3639
ടി	-11.364
▁Belki	-11.364
kuş	-11.364
ონ	-11.3641
▁detay	-11.3644
سعة	-11.3644
▁दु	-11.3644
▁görüntüleme	-11.3646
▁kontrolü	-11.3646
▁heyecanı	-11.3646
ÜZ	-11.3647
360	-11.3648
▁لقب	-11.365
إعلان	-11.365
▁اليد	-11.365
하여	-11.365
▁Ayar	-11.3651
▁1-2	-11.3652
زيادة	-11.3653
▁فرح	-11.3654
[...]
